. 35515449
the 24296174
, 20455825
and 19991972
I 17498691
a 15157851
to 14433467
was 10719538
of 8537106
is 7467322
it 7270800
! 7157668
for 6830971
in 6752008
The 5151391
that 5119504
with 4785993
my 4711241
you 4432598
on 4324604
but 4033452
n't 3928771
have 3738641
this 3610660
they 3523256
's 3377275
had 3354471
not 3212251
were 3132695
we 3070033
are 3042179
- 3040080
at 2981413
so 2701476
place 2594777
be 2556345
me 2463101
food 2449096
good 2445400
as 2395730
) 2292841
( 2169556
out 2088818
very 2060487
" 2033278
here 1948715
all 1902584
there 1900371
like 1878242
great 1859216
time 1843630
We 1831817
do 1831372
get 1755920
It 1723165
just 1717924
an 1715120
would 1713840
... 1712092
or 1657540
our 1647794
service 1637832
did 1636947
one 1631648
from 1620518
up 1611562
back 1572656
their 1498233
if 1457458
go 1440590
about 1398868
They 1357336
when 1283022
really 1279024
which 1270285
will 1246052
been 1204909
your 1203080
can 1197262
$ 1188533
us 1159307
what 1145780
some 1137687
more 1131525
This 1116759
them 1087255
? 1075954
've 1064033
only 1060124
by 1057104
because 1023292
got 1010553
no 1010496
he 996979
My 985912
other 960631
also 958463
could 952440
even 937620
has 912697
i 910319
nice 910298
she 898597
too 895575
'm 889017
well 845937
than 818603
always 784619
best 782619
ordered 779694
order 778218
staff 769281
came 758039
S@@ 754044
little 748485
restaurant 746805
: 740497
friendly 737575
her 734458
people 728034
much 724975
over 723985
come 721223
try 718422
after 702162
never 674730
made 670953
first 669746
again 667436
went 664689
experience 661876
way 654423
love 653358
am 643789
make 640576
menu 637223
off 630654
going 628662
who 624435
know 623656
how 619619
chicken 616444
day 610625
pretty 607769
2 606722
definitely 605518
better 604050
said 602351
re@@ 597768
If 589482
delicious 585230
s@@ 583933
any 581274
/ 573120
're 564075
right 564000
amazing 561357
before 555474
two 555406
recommend 553346
then 551734
want 547886
night 546012
sure 541545
wait 539197
take 538106
say 538050
P@@ 534427
ever 532917
C@@ 532811
around 529907
& 526223
down 525893
few 517834
see 517387
t@@ 513988
new 510890
bar 510321
3 508861
think 507680
B@@ 502467
There 501599
in@@ 500330
room 499146
So 492895
work 490934
still 490721
d@@ 488141
table 486453
A 484460
minutes 483430
M@@ 480928
5 478185
k@@ 475616
told 474640
eat 473713
give 472327
T@@ 469647
price 468403
bit 467885
A@@ 465816
his 462241
took 460823
o 459440
times 459121
He 458500
fresh 455192
Vegas 454606
D@@ 447940
location 447680
area 445640
sauce 444755
ing 440353
find 440082
F@@ 439920
asked 438108
es 436244
bad 435889
'll 435638
You 434760
g@@ 434245
un@@ 432952
y@@ 428496
She 426675
since 426308
while 426216
many 424501
next 424192
most 421710
small 421660
lot 420827
pizza 419564
But 419536
Great 419119
And 416428
side 416192
being 415872
into 415248
ca 415005
another 414103
a@@ 413476
something 411705
cheese 409774
lunch 406733
meal 406563
E@@ 405220
now 404595
s 404244
though 400911
where 398872
every 397905
L@@ 397748
e@@ 397298
everything 396176
long 390921
.. 389675
o@@ 388709
thing 388644
i@@ 388523
p@@ 385585
H@@ 382150
does 379821
4 379165
home 379079
customer 377598
wanted 376462
looking 375564
dinner 374005
should 371226
last 371155
salad 370821
feel 368939
l@@ 367744
y 367338
m@@ 366845
able 365565
b@@ 363466
need 363458
worth 362137
tried 360735
drinks 360140
R@@ 360071
e 357706
When 356589
m 356018
f@@ 353572
different 353308
its 352949
'd 352629
G@@ 352133
clean 351313
st@@ 350332
u@@ 349733
ate 349650
Not 349615
er 347669
happy 345567
quality 343521
done 342566
10 340109
K@@ 338746
enough 338652
store 338632
t 337240
car 336746
him 335795
W@@ 334011
hot 331077
awesome 329013
years 328291
same 327216
both 325284
ts 325051
things 322776
check 322451
found 322266
' 321147
super 319872
stars 319749
away 319422
w@@ 318838
taste 318232
visit 317703
big 316952
p 315961
n@@ 315949
drink 315151
v@@ 313808
prices 312168
server 309945
ed 308878
ted 307767
hour 307689
fries 304802
top 303676
an@@ 302473
friends 301458
left 301183
ers 301136
called 301015
look 300243
favorite 300053
1 299816
en@@ 299417
burger 297718
N@@ 294942
coming 293163
free 292551
places 290439
meat 289105
line 287848
excellent 284793
er@@ 284412
al 284022
sweet 283198
friend 281306
old 281188
h@@ 280874
coffee 280044
full 278489
anything 277664
through 277363
actually 275838
getting 274820
atmosphere 273394
nothing 272820
selection 270152
O@@ 269658
quite 269401
use 268353
family 268189
thought 268048
; 267510
rice 267439
I@@ 267270
care 266558
le 266152
let 266118
end 266051
tasty 263972
else 263700
al@@ 263353
dish 263004
special 262684
front 262296
c@@ 262169
perfect 262144
put 261499
ly 261378
ice 261253
kind 259724
beer 259171
g 258097
busy 257984
ask 257532
used 256843
job 256617
decided 256617
gave 256451
call 256403
Our 255318
each 254607
these 254089
r@@ 253935
flavor 253300
breakfast 252891
business 252386
house 251929
de 251872
less 251551
Service 251093
sandwich 250123
se 250016
n 248989
it@@ 248839
Very 248616
large 248593
sushi 247420
be@@ 247230
fried 247071
hotel 245994
en 245913
li@@ 244371
di@@ 244252
probably 244059
money 243223
spot 242973
inside 242654
review 242395
After 241516
without 240997
ro@@ 240326
days 239928
fun 239835
looked 239046
ma@@ 238908
why 238551
pay 237615
For 237540
half 237276
bread 236386
water 236118
red 236020
co@@ 235076
J@@ 234359
mo@@ 234284
All 233803
items 232744
ra@@ 232491
far 232438
fish 231672
d 229330
town 229306
cream 228643
at@@ 228525
U@@ 228024
el@@ 227692
dishes 227617
on@@ 227583
open 226792
once 226705
No 226558
shop 225248
soup 224877
couple 224797
As 224664
ri@@ 224392
20 224303
those 224106
reviews 223957
manager 223935
person 223791
la@@ 223754
husband 223556
needed 222888
ch@@ 222362
hard 221802
show 221305
helpful 220483
tell 219970
high 219775
bu@@ 219455
-@@ 219330
huge 218557
hours 217503
least 217480
having 217040
ac@@ 216872
beef 216472
waiting 215793
quick 214823
fast 214656
disappointed 214430
almost 212264
le@@ 211495
outside 211281
such 210938
That 210905
everyone 210380
cooked 209610
si@@ 209546
sh@@ 209414
b 209396
week 209288
served 208789
Food 207884
k 207741
6 207448
enjoyed 207367
part 207247
usually 206927
What 206845
someone 206832
* 206161
z@@ 205938
In 205816
ated 205199
hair 204669
during 203594
steak 203579
tasted 203062
options 201937
ar@@ 201788
ha@@ 201766
tables 201575
Also 201063
waitress 200775
help 200639
walk 200324
ca@@ 200009
con@@ 199750
trying 199498
wo 199408
th@@ 198767
loved 198331
de@@ 198246
year 198144
felt 197190
decent 197154
-- 196707
to@@ 196466
later 196088
whole 195788
star 195573
owner 195249
eating 193575
pork 192846
enjoy 192421
extra 191631
must 190825
spicy 190743
own 190101
highly 189923
lo@@ 189826
point 189661
Their 189651
ent 189196
restaurants 189118
ting 188631
su@@ 188561
door 188033
close 187807
cool 187023
guy 186527
st 186213
three 185324
der 184960
Overall 184356
until 184049
nt 183863
15 183660
ti@@ 183636
stay 183578
ds 183472
wine 182933
l 182295
deal 182202
qu@@ 181809
V@@ 181708
u 181647
especially 181534
comes 181435
One 181383
several 181225
Do 180982
ok 180526
seemed 180134
wonderful 179923
et 179801
phone 179623
walked 179319
wrong 178520
ine 178355
ended 178206
company 178145
makes 177602
2@@ 177219
dessert 177211
x 176886
il@@ 176580
extremely 176341
sa@@ 175928
name 175742
les 175632
stop 174494
sp@@ 174313
anyone 174169
.@@ 173712
j@@ 172940
30 172925
course 172900
ant 172227
Y@@ 172108
brought 172041
fantastic 171908
tion 171420
return 171326
ks 171175
kids 170851
ab@@ 170401
wife 170202
tea 169889
cold 169283
started 169227
ve 168916
shrimp 168909
Good 168629
music 168536
or@@ 168219
po@@ 167912
keep 167727
However 167317
Just 166909
se@@ 166747
second 166262
absolutely 166216
cut 166110
customers 165400
ation 164020
may 164016
working 163970
king 163562
guys 162655
ta@@ 162278
parking 162065
either 161609
maybe 161246
ic@@ 161071
es@@ 160990
live 160591
bring 160292
leave 159856
me@@ 159842
party 159829
finally 159714
S 159646
bo@@ 159552
today 159449
8 159346
arrived 158980
problem 158920
man 158816
dining 158511
size 158131
group 157848
strip 157810
sit 157377
set 157326
ago 156983
doing 155998
plate 155718
pm 155664
ur@@ 155446
late 154796
7 154463
pe@@ 153978
est 153880
reason 153461
professional 153048
offer 152997
drive 152987
saw 152890
already 152566
ity 152564
style 152531
ir@@ 152466
start 151507
attentive 151391
instead 151128
waiter 151065
is@@ 150719
making 149884
ling 149620
so@@ 149398
might 149294
yet 149087
pa@@ 148980
3@@ 148809
myself 148345
real 148227
liked 148002
chocolate 147854
easy 147794
expect 147319
seated 146702
pick 146485
stuff 145883
pro@@ 145679
local 145378
reasonable 145319
ps 145165
son 145160
tacos 145030
regular 144189
fan 143998
ter 143690
waited 143171
amount 143124
ex@@ 143014
fine 143000
quickly 142920
wish 142399
dry 142025
th 142012
te 141509
First 141315
beautiful 140883
cheap 139918
vi@@ 139361
impressed 138915
ru@@ 138771
Love 138760
expensive 138590
wa@@ 138513
portions 138203
car@@ 137853
fact 137379
rude 136946
office 136841
5@@ 135950
over@@ 135786
however 135587
paid 135576
buffet 135506
do@@ 135374
cake 135372
charge 135328
Las 134911
appointment 134884
decor 134718
ho@@ 134493
etc 134461
buy 134456
ec@@ 133919
needs 133819
trip 133715
ings 133395
sat 133313
rolls 133015
D 132483
roll 132409
ge@@ 132242
seen 132096
ating 131689
ver@@ 131626
ke 131573
seems 131441
Then 131438
soon 131045
dog 130764
rooms 130563
warm 130113
past 130012
seating 129850
as@@ 129789
chips 129751
Everything 129088
led 128911
light 128483
te@@ 127871
morning 127846
ready 127819
ons 127459
die 127322
variety 127199
change 127191
serve 126965
lots 126956
h 126864
looks 126607
okay 126509
ag@@ 126480
cu@@ 126349
r 126270
im@@ 126163
floor 125993
short 125826
ous 125808
entire 125803
pool 125771
bacon 125496
am@@ 125165
seem 124505
given 124427
wings 124211
received 124067
8@@ 123926
On 123879
priced 123809
perfectly 123416
life 123312
4@@ 123298
early 123288
Had 123184
portion 123045
sta@@ 123008
E 122927
:) 122895
slow 122735
counter 122509
comfortable 121561
available 121434
sc@@ 121429
months 121358
mind 121156
guess 120925
/@@ 120722
tions 120677
patio 120649
under 120552
often 120549
taking 120533
street 120341
pre@@ 120068
gu@@ 120047
average 119760
Now 119691
w 119531
per 119486
bill 119219
kept 118872
list 118548
7@@ 118451
com@@ 118417
believe 118005
choice 117932
gets 117728
Saturday 117475
ba@@ 117230
ses 117171
card 117142
plus 117114
9@@ 117094
Definitely 117005
% 116863
Thai 116766
9 116638
run 116461
offered 116244
6@@ 115871
between 115707
burgers 115062
flavors 114764
ou@@ 114730
ones 114621
employees 114607
main 114534
lady 114343
ked 114175
rather 114039
ter@@ 114014
due 113910
kitchen 113690
At 113672
green 113491
ms 113462
for@@ 113326
dis@@ 113196
Will 113040
Thank 112992
expected 112818
low 112454
knew 111595
recommended 111447
Co@@ 111410
Ch@@ 111363
sitting 110952
twice 110908
pu@@ 110774
ad@@ 110642
fa@@ 110623
ze 110473
Well 110296
itself 110188
+ 109955
rest 109517
completely 109508
no@@ 109374
heard 109247
space 109234
Best 109101
Oh 108863
da@@ 108742
weekend 108625
cost 108064
Yelp 107946
girl 107768
white 107722
Chicken 107477
bowl 107469
au@@ 107467
du@@ 107430
others 107320
egg 107115
ne@@ 106513
T 106490
und 106241
worst 105900
across 105817
ordering 105750
overall 105709
choose 105403
type 105265
near 105175
ins 104857
view 104715
gone 104669
c 104485
weeks 104395
Mexican 104375
Went 104360
bite 104031
1@@ 103867
lu@@ 103670
hand 103579
ea@@ 103406
ch 103289
glad 102947
bl@@ 102728
pl@@ 102214
Z@@ 102093
crispy 102042
behind 101978
along 101915
evening 101861
appetizer 101685
bi@@ 101490
issue 101483
add 101335
Even 101328
sh 101203
ty 101142
Sunday 101063
Dr. 100439
eggs 100201
remember 100122
plenty 100085
taken 99916
glass 99866
potatoes 99766
per@@ 99539
NOT 99452
sandwiches 99282
'@@ 99265
yummy 99099
ey 99041
understand 98834
el 98815
although 98489
ded 98469
hit 98428
pasta 98426
noodles 98368
Chinese 98183
orders 98124
within 97626
birthday 97504
10@@ 97449
surprised 97397
brunch 97390
fi@@ 97368
tip 96977
month 96935
BBQ 96857
C 96610
oo@@ 96464
ge 96263
and@@ 96160
horrible 96134
together 95858
packed 95779
re 95480
moved 95177
Ro@@ 95031
simple 95009
Italian 94937
50 94552
pleasant 94448
saying 94435
ol@@ 94404
terrible 94313
min@@ 94295
walking 94275
med 94213
Friday 94156
z 93502
Ma@@ 93422
ck 93390
opened 93354
ul@@ 93213
potato 93100
club 93073
pieces 92986
stopped 92970
date 92905
grilled 92825
servers 92759
worked 92717
ment 92671
mi@@ 92589
option 92480
ite 92478
garlic 92463
sing 92414
prepared 92344
ingredients 92174
crab 92033
number 91957
boyfriend 91904
To 91819
immediately 91563
cha@@ 91422
Car@@ 91335
read 91293
giving 91279
exactly 91275
il 91210
des 91024
gra@@ 91020
Re@@ 90965
pi@@ 90858
totally 90599
bought 90230
helped 90109
minute 90090
soft 89982
ee@@ 89946
tender 89869
bed 89788
als 89742
empty 89738
four 89708
ery 89671
dy 89613
While 89566
pe 89504
ni@@ 89392
sign 89269
fix 89253
located 89043
desk 88969
Mar@@ 88950
unique 88942
game 88906
Th@@ 88853
mu@@ 88790
head 88721
watch 88689
oil 88670
An@@ 88624
12 88566
out@@ 88527
yourself 88308
salsa 88245
Would 88190
sted 88098
bland 87973
questions 87973
recently 87887
res 87779
authentic 87738
mean 87499
Phoenix 87326
noticed 86933
sch@@ 86923
beans 86799
ets 86792
par@@ 86729
ally 86621
x@@ 86612
ding 86612
nails 86604
et@@ 86583
ev@@ 86525
age 86457
In@@ 86376
forward 86358
ess 86104
Thanks 86100
f 86080
including 86080
longer 85746
gi@@ 85622
Al@@ 85599
salon 85457
ans 85322
ved 85205
massage 85131
butter 85068
above 84988
em@@ 84864
salmon 84779
tra@@ 84674
piece 84648
Nice 84488
literally 84486
go@@ 84473
paying 84458
Really 84432
loud 84316
flavorful 84305
seafood 84236
talk 84236
tri@@ 84196
Bo@@ 84136
25 84054
beers 83905
la 83650
hu@@ 83369
level 83354
ing@@ 83255
ence 83166
hi@@ 83157
feeling 83122
based 83046
sed 82901
knowledgeable 82867
we@@ 82719
choices 82695
sts 82556
pricey 82425
cute 82404
case 82360
ker 82332
yes 82259
added 82177
checked 82173
eaten 82065
idea 82018
tr@@ 81934
dly 81875
ys 81682
sm@@ 81633
ance 81585
ambiance 81534
os 81483
Maybe 81472
takes 81384
online 81296
reservation 81062
ton 80945
hope 80908
issues 80739
spend 80649
O 80606
bs 80558
ten 80543
que 80416
ff@@ 80260
truly 80223
non 80207
excited 80161
stayed 80136
greeted 80113
move 80054
filled 80029
ning 80001
Both 79855
ck@@ 79805
bartender 79790
sion 79748
city 79716
ob@@ 79707
seat 79632
fully 79462
meals 79427
up@@ 79326
using 79207
ci@@ 78809
ick 78791
poor 78664
end@@ 78640
showed 78557
gh@@ 78490
mar@@ 78473
share 78269
man@@ 78200
br@@ 78170
sk@@ 78145
mouth 78120
goes 78095
min 77958
black 77951
daughter 77925
sting 77844
é@@ 77839
dra@@ 77832
fair 77776
hungry 77728
shopping 77660
Be@@ 77651
Came 77650
delivery 77621
charged 77493
N 77465
five 77445
ren@@ 77444
finish 77429
ST@@ 77427
chef 77400
ta 77331
anywhere 77330
turned 77214
tu@@ 77042
Mo@@ 77039
key 76978
attention 76896
hands 76786
40 76739
ves 76687
world 76658
est@@ 76535
plates 76413
play 76395
eg@@ 76372
filling 76341
spent 76334
says 76318
da 76254
ap@@ 76208
Bu@@ 75728
talking 75714
P 75688
100 75648
closed 75466
ver 75393
face 75341
ful 75308
casino 75144
ying 75104
ard 75089
kes 75057
sides 75031
Yes 75020
process 75017
specials 74982
interesting 74963
ered 74912
ce 74910
ic 74715
ne 74692
RE@@ 74624
ber@@ 74574
toppings 74530
na@@ 74515
ie 74510
sometimes 74109
box 74055
mine 73865
ls 73769
ments 73621
cup 73555
ming 73449
medium 73369
crowded 73366
ky 73359
wall 73261
treat 73170
chance 73150
mention 73136
salty 72943
New 72936
bri@@ 72900
ish 72654
value 72532
crust 72492
dirty 72465
curry 72188
Was 72175
lobster 72156
park 72145
:@@ 72137
Lo@@ 72053
thin 71995
inter@@ 71776
happened 71742
hear 71736
ä@@ 71715
ately 71684
appetizers 71648
id 71537
.00 71535
downtown 71529
burrito 71520
middle 71516
girls 71484
changed 71366
0@@ 71302
asking 71152
credit 71023
miss 70898
pping 70874
ear 70781
Li@@ 70661
ates 70653
ut@@ 70642
fu@@ 70621
beyond 70578
ist 70517
standard 70330
ary 70240
With 70185
cr@@ 70102
En@@ 69548
French 69539
pped 69498
Po@@ 69414
H 69354
sha@@ 69340
explained 69266
war@@ 69264
he@@ 69234
finished 69176
Highly 69122
future 69105
Un@@ 69027
sent 69002
tt@@ 68996
dogs 68992
rea@@ 68980
corn 68946
OK 68891
visiting 68888
afternoon 68680
mins 68602
honest 68570
class 68542
K 68536
seats 68333
simply 68314
R 68310
stand 68244
onion 68179
pr@@ 68159
é 68072
Some 68048
book 68046
ü@@ 68021
um 67978
taco 67880
pp@@ 67822
ell@@ 67781
app@@ 67748
St@@ 67678
B 67671
services 67625
single 67528
ger 67260
Di@@ 67191
ke@@ 67115
W 67010
op@@ 66897
bathroom 66860
crowd 66849
management 66668
M 66644
Su@@ 66538
sausage 66518
serving 66165
grab 66155
co 66124
Toronto 66078
L 66038
vibe 65978
sell 65940
item 65897
ness 65835
tastes 65770
bottle 65760
owners 65708
picked 65650
Everyone 65566
fil@@ 65562
oun@@ 65507
wedding 65463
satisfied 65440
men@@ 65439
11 65376
ss 65345
nail 65342
Only 65320
patient 65320
healthy 65282
ical 65218
mm@@ 65192
Every 65154
ven@@ 65139
ban@@ 65070
mon@@ 64936
mom 64856
Ar@@ 64822
tasting 64798
pri@@ 64784
From 64755
These 64750
ga@@ 64729
attitude 64721
school 64667
please 64454
total 64408
ies 64401
products 64344
ving 64299
ali@@ 64284
mp 64237
tomato 64197
air 64073
desserts 64029
opinion 63968
milk 63943
plan 63880
ribs 63825
ster 63765
outstanding 63641
shi@@ 63639
under@@ 63620
running 63602
purchase 63578
bar@@ 63454
ach@@ 63453
team 63411
mix 63341
young 63322
45 63280
fairly 63188
section 63173
unless 63163
write 63121
mall 63110
tive 63091
fruit 63041
veggies 63016
Ca@@ 62953
eye 62926
hold 62893
Staff 62856
cash 62850
sur@@ 62799
chose 62798
typical 62790
ny 62754
building 62696
Go 62676
included 62652
na 62594
visited 62559
Once 62514
works 62464
slightly 62459
window 62445
AN@@ 62320
touch 62314
lovely 62171
salads 62153
somewhere 62116
cur@@ 62093
ick@@ 62040
our@@ 62020
F 61997
dark 61960
incredible 61944
crazy 61899
rec@@ 61869
Y 61774
fit 61758
Excellent 61747
ot 61724
seeing 61721
pleased 61697
onions 61585
ran@@ 61550
fla@@ 61448
woman 61437
zz@@ 61397
basically 61347
chi@@ 61324
cook 61193
beat 61177
color 61145
disappointing 61103
toast 61051
ering 61019
tiny 60935
baked 60914
mixed 60906
dressing 60767
honestly 60684
ics 60657
ws 60654
Although 60651
personal 60583
joint 60496
fixed 60465
Never 60409
Since 60340
mb@@ 60210
mentioned 60175
els 60046
shed 59962
Mi@@ 59913
knows 59896
seasoned 59893
das 59892
matter 59838
# 59830
.99 59807
wi@@ 59795
vegetarian 59763
ches 59717
ee 59650
hostess 59637
easily 59617
(@@ 59589
returning 59543
ich 59391
bag 59372
ph@@ 59343
pulled 59311
true 59308
gs 59278
tic 59227
ori@@ 59210
certainly 59181
Ta@@ 59155
except 59041
lack 58977
Ca 58951
speak 58834
body 58809
men 58748
playing 58705
summer 58703
Amazing 58689
ens 58669
stores 58661
Nothing 58585
ay 58513
leaving 58402
lea@@ 58367
expecting 58357
sub@@ 58357
THE 58340
ahead 58264
thinking 58230
ramen 58201
fin@@ 58160
turn 58136
overpriced 58116
establishment 58072
neighborhood 58062
bur@@ 58048
multiple 58010
Unfortunately 57985
Its 57985
por@@ 57959
To@@ 57821
jo@@ 57815
tly 57766
event 57765
cre@@ 57659
gre@@ 57635
sauces 57515
mediocre 57511
rare 57482
possible 57468
oh 57347
ber 57347
met 57298
ler 57283
cleaning 57203
Scottsdale 57191
om@@ 57183
efficient 57154
staying 57140
considering 57118
gotten 57118
shared 57116
den 57084
gr@@ 57048
lost 57046
Pizza 57002
ill 56993
complaint 56960
res@@ 56959
frozen 56956
forgot 56954
:30 56950
sort 56946
rating 56848
usual 56748
whatever 56712
supposed 56561
seriously 56493
pie 56451
treated 56417
thick 56388
Asian 56378
convenient 56340
airport 56332
sales 56327
20@@ 56288
reading 56264
dec@@ 56152
welcoming 56125
ging 56108
ely 56095
limited 56077
thank 55995
ir 55978
moving 55971
combo 55953
employee 55935
upon 55934
salt 55929
ble 55917
dollars 55788
gar@@ 55753
ats 55674
tru@@ 55634
expectations 55624
craving 55492
system 55467
games 55463
sorry 55385
vegan 55372
greasy 55338
appreciate 55298
cal@@ 55256
deep 55186
art 55181
ser@@ 55173
solid 55053
Mon@@ 55014
generous 54992
tuna 54956
center 54951
alone 54929
cat@@ 54913
chairs 54812
board 54733
bucks 54727
ner 54663
wh@@ 54624
ire 54598
modern 54572
mp@@ 54568
chain 54560
int@@ 54538
ju@@ 54519
weird 54491
ement 54380
col@@ 54358
ar 54356
ei@@ 54345
heat 54329
mostly 54294
incredibly 54233
cra@@ 54230
pho 54225
pass 54018
ball 54011
ft 53956
pictures 53909
clearly 53701
entree 53686
IN@@ 53676
un 53676
broth 53667
wing 53617
fl@@ 53593
ari@@ 53587
delivered 53526
note 53460
glasses 53374
fill 53340
La@@ 53287
lettuce 53274
covered 53266
ged 53265
dance 53265
shot 53223
Com@@ 53210
Got 53201
Most 53193
How 53188
entrees 53109
original 53103
hate 53080
waste 53067
Did 53035
prefer 53003
polite 52995
smaller 52948
Con@@ 52942
ater 52924
checking 52921
lamb 52869
ently 52824
corner 52786
Me@@ 52776
cru@@ 52746
means 52685
addition 52650
complete 52639
gem 52544
av@@ 52535
nights 52488
surprise 52479
ED 52463
elsewhere 52424
wn 52380
shops 52342
compared 52309
environment 52291
wash 52268
quiet 52190
ich@@ 52126
Br@@ 52067
fe@@ 52030
texture 51965
00 51903
awful 51892
traditional 51838
fee 51823
fancy 51816
smell 51806
pain 51778
guests 51603
smile 51603
Sa@@ 51574
normal 51572
station 51542
accommodating 51490
provided 51403
lines 51358
pancakes 51334
homemade 51303
barely 51213
Ordered 51193
ure 51183
rib 51183
notch 51180
clear 51158
locations 51144
ma 51143
stuffed 51140
Ho@@ 51049
ges 51048
lived 51000
cocktails 50975
word 50947
forget 50916
har@@ 50900
reservations 50882
sour 50833
tre@@ 50817
all@@ 50735
watching 50689
.50 50683
creamy 50673
ise 50664
split 50575
experienced 50572
purchased 50568
Awesome 50564
mat@@ 50525
bra@@ 50444
Like 50422
gym 50375
suggest 50351
Super 50310
juicy 50289
affordable 50284
G 50281
Wow 50278
Qu@@ 50253
Indian 50108
worse 50089
sun@@ 50006
ations 50002
previous 49996
del@@ 49954
yelp 49928
kinda 49853
ana 49849
att@@ 49829
AND 49813
ER 49800
bunch 49799
tor 49775
sho@@ 49771
par 49589
standing 49584
repair 49550
ep@@ 49513
doctor 49466
nu@@ 49457
conversation 49433
der@@ 49429
nicely 49335
problems 49313
ched 49312
ry 49302
situation 49294
throughout 49275
sto@@ 49271
Japanese 49245
lol 49195
Always 49088
shows 49081
ach 48986
Next 48946
ig@@ 48922
product 48879
Korean 48874
outdoor 48852
tation 48839
Se@@ 48798
known 48776
ong 48758
willing 48742
cocktail 48730
chili 48729
iced 48721
sad 48679
website 48673
ites 48631
bun 48576
spice 48363
ear@@ 48354
difficult 48263
higher 48253
yed 48253
negative 48232
Plus 48209
break 48177
similar 48151
ki@@ 48146
ect 48130
rate 48121
TV 48111
positive 48099
Au@@ 48063
ll 48060
cover 48054
shing 48016
Finally 47984
ture 47982
ger@@ 47955
Let 47924
paper 47892
sense 47863
clo@@ 47852
Burger 47824
answer 47796
zed 47764
cakes 47761
noodle 47739
lin@@ 47694
strong 47664
Charlotte 47548
save 47524
cheaper 47493
den@@ 47477
sized 47469
casual 47423
bel@@ 47395
Ba@@ 47336
insurance 47263
Sp@@ 47253
happen 47249
truck 47238
Why 47201
lights 47198
meats 47143
market 47141
Pa@@ 47134
double 47037
bru@@ 47009
cor@@ 46942
baby 46933
meet 46909
tar@@ 46896
actual 46893
test 46888
experiences 46861
continue 46805
loves 46781
missing 46774
Other 46751
juice 46635
cafe 46622
buying 46569
normally 46552
stick 46551
exc@@ 46513
zing 46511
slice 46469
LOVE 46356
hand@@ 46351
movie 46350
straight 46344
venue 46342
tonight 46320
cause 46308
vegetables 46302
So@@ 46298
interior 46290
che@@ 46277
veggie 46202
Pe@@ 46179
tons 46125
fo@@ 46046
roo@@ 45859
ore 45847
sal@@ 45843
rush 45827
notice 45798
sli@@ 45768
mushrooms 45682
booked 45681
SO 45671
machine 45538
avoid 45525
email 45517
hor@@ 45495
Sha@@ 45493
her@@ 45484
iti@@ 45475
provide 45396
smo@@ 45361
ride 45269
ities 45262
obviously 45231
ut 45149
placed 45108
thru 45081
Prices 45078
fabulous 45066
basic 45062
ends 45060
sau@@ 45059
bean 45010
ON@@ 44958
offers 44957
vo@@ 44952
ici@@ 44913
duck 44885
rich 44849
off@@ 44847
tur@@ 44842
ung 44838
cho@@ 44776
story 44772
No@@ 44732
ladies 44701
forever 44690
dip 44644
kid 44614
mac 44610
pricing 44592
ve@@ 44573
dd@@ 44558
Ri@@ 44538
Monday 44525
ran 44520
lemon 44495
American 44471
land 44455
stu@@ 44436
Have 44367
ur 44353
Another 44349
doors 44337
cashier 44234
particular 44168
children 44124
sive 44104
mistake 44095
brea@@ 44072
vers 44067
reasonably 44008
range 44005
boy 44003
vehicle 43964
skin 43942
sugar 43904
discount 43903
wood 43893
fac@@ 43839
oc@@ 43824
De@@ 43805
presentation 43788
cleaned 43786
ff 43785
zu 43701
returned 43694
additional 43653
workers 43633
ita 43612
= 43506
perfection 43487
slices 43486
By 43468
hang 43460
sister 43355
spoke 43301
foods 43294
ink 43263
spo@@ 43235
pepper 43229
explain 43199
hun@@ 43178
dr@@ 43155
dress 43139
telling 43100
can@@ 43091
cars 43062
heavy 43034
flat 42960
request 42873
thanks 42864
drop 42849
Sh@@ 42844
flavour 42832
mel@@ 42817
spots 42804
informed 42787
folks 42746
Bar@@ 42744
brand 42739
ping 42719
plain 42686
ben@@ 42673
dri@@ 42663
gift 42548
general 42529
Friendly 42521
anymore 42514
Par@@ 42472
ki 42439
Ju@@ 42433
complain 42425
Ex@@ 42415
inc@@ 42413
Pro@@ 42314
heart 42310
gon 42291
coun@@ 42282
Wi@@ 42238
ors 42219
none 42216
moment 42196
nearly 42154
ped 42124
send 42096
living 42015
dge 41961
24 41931
ed@@ 41901
cozy 41871
spring 41854
ther 41837
funny 41822
Pittsburgh 41775
nearby 41772
lich 41750
ord@@ 41740
spa 41736
important 41709
relaxing 41707
avocado 41706
gel 41706
pizzas 41700
enti@@ 41688
Lots 41676
bigger 41577
stra@@ 41545
pac@@ 41493
ants 41473
fr@@ 41455
ss@@ 41422
opening 41319
ically 41301
Delicious 41272
Sal@@ 41218
um@@ 41198
char@@ 41197
Two 41186
likely 41177
ined 41163
tour 41114
Arizona 41090
mini 41070
tw@@ 41055
hidden 41029
fall 40952
complaints 40924
Starbucks 40924
mis@@ 40904
ING 40865
mer 40851
trust 40848
pic@@ 40829
Ru@@ 40804
pot 40764
Try 40727
eal 40673
tte 40664
gives 40638
action 40638
sa 40610
pan@@ 40605
ö@@ 40567
sy 40532
step 40520
popular 40519
topped 40510
despite 40509
anyway 40508
driving 40453
tal@@ 40448
self 40419
difference 40388
ours 40373
row 40372
NO 40370
mess 40343
Montreal 40334
ple 40323
finding 40258
flight 40231
ridiculous 40224
west 40143
Seriously 40130
clu@@ 40066
ters 40051
TH@@ 40041
AT@@ 39989
pre 39988
LO@@ 39943
fied 39941
eyes 39931
tofu 39927
walls 39927
AMAZING 39905
Sushi 39882
schedule 39865
gan@@ 39807
gravy 39786
bars 39770
lower 39750
courteous 39732
overly 39729
welcome 39686
gen@@ 39659
consistent 39654
spinach 39633
pres@@ 39622
girlfriend 39609
ham 39595
information 39591
1/2 39567
ace 39536
parts 39525
become 39488
picture 39484
certain 39460
ll@@ 39443
lar@@ 39404
french 39388
member 39354
Fa@@ 39283
hal@@ 39250
calling 39118
60 39115
favorites 39104
tor@@ 39101
mer@@ 39093
RI@@ 39047
sin@@ 39046
Wa@@ 39042
eng@@ 39010
soggy 38982
roasted 38917
lo 38867
sters 38859
sports 38841
&@@ 38834
feet 38827
tickets 38816
arrive 38800
12@@ 38795
tomatoes 38788
dine 38779
road 38770
AS@@ 38764
sold 38762
pour 38747
Gu@@ 38711
bottom 38704
areas 38661
coupon 38658
visits 38652
Ra@@ 38600
ile 38594
are@@ 38593
peppers 38552
personally 38508
ring 38505
ously 38504
yesterday 38500
arm 38482
ina 38468
rent 38467
receive 38462
mit 38434
brisket 38411
sound 38392
wrap 38383
unfortunately 38362
Again 38356
round 38336
eni@@ 38323
Pretty 38310
pas@@ 38225
older 38204
Tuesday 38192
11@@ 38162
Of 38155
helping 38143
mal@@ 38135
fy 38116
California 38108
ew 38103
Strip 38056
feels 38005
the@@ 38003
war 37998
wide 37989
ast 37987
tin@@ 37972
broken 37957
nicht 37917
orange 37909
Here 37895
cooking 37793
brown 37793
ste@@ 37791
treatment 37786
bother 37772
prior 37762
shower 37674
Bar 37655
ground 37646
lucky 37644
Big 37637
Loved 37625
classic 37622
ns 37603
belly 37599
daily 37599
consider 37563
ent@@ 37480
ders 37470
organized 37443
sale 37429
cookies 37426
lounge 37417
realized 37401
types 37364
fat 37324
HO@@ 37311
Na@@ 37303
che 37275
everywhere 37260
NO@@ 37256
larger 37240
detail 37234
somewhat 37212
various 37198
chil@@ 37190
pop 37190
House 37180
ils 37163
imagine 37095
stri@@ 37085
setting 37063
serv@@ 37052
screen 37037
favourite 37012
sy@@ 36992
appreciated 36969
figured 36940
ken 36875
nor 36868
decide 36844
gri@@ 36837
desert 36801
suggested 36783
replaced 36771
hoping 36763
ass 36749
loo@@ 36725
answered 36723
ways 36719
contact 36689
disappointment 36681
trans@@ 36659
security 36614
AR@@ 36571
themselves 36521
ster@@ 36511
exceptional 36454
mal 36434
Ok 36432
furniture 36403
Bi@@ 36365
impressive 36353
tough 36342
ack 36336
ai 36312
plu@@ 36304
bartenders 36302
Get 36295
ere 36289
kick 36267
à 36251
stic 36243
women 36226
smoked 36196
owned 36191
mother 36175
turkey 36160
ast@@ 36133
correct 36127
post 36122
blue 36120
refreshing 36111
ang 36072
lacking 36051
Red 36038
Fi@@ 36022
pedicure 35993
fault 35962
Ha@@ 35955
stuck 35926
sou@@ 35890
state 35888
mood 35845
property 35819
question 35801
smoke 35785
ini 35751
wanting 35737
Ser@@ 35731
band 35718
coconut 35685
gy 35681
sw@@ 35678
apparently 35676
Beef 35672
ator 35671
Happy 35666
safe 35651
Mac 35604
combination 35603
classes 35601
mashed 35599
ley 35596
ingly 35552
comp@@ 35541
prompt 35508
Cheese 35506
recent 35482
Ti@@ 35479
fri@@ 35477
ale 35442
don@@ 35400
concept 35375
bone 35374
tun@@ 35357
gluten 35331
keeping 35294
Absolutely 35288
vegas 35228
donuts 35200
mushroom 35183
ad 35176
drinking 35134
talked 35124
calamari 35091
ak@@ 35088
closer 35088
Still 35083
figure 35072
sick 35034
damn 34988
York 34972
ES 34967
16 34967
response 34965
sca@@ 34956
shoes 34911
ther@@ 34905
_ 34889
ue 34884
separate 34879
ell 34873
mil@@ 34815
sions 34809
rings 34799
EN@@ 34777
follow 34762
bul@@ 34757
kin@@ 34750
For@@ 34706
sec@@ 34700
pub 34687
hy@@ 34686
raw 34677
NEVER 34676
earlier 34637
requested 34608
DI@@ 34604
Jo@@ 34593
foot 34588
third 34574
boo@@ 34574
nut 34567
tail 34560
fra@@ 34555
soda 34553
ron@@ 34546
Cleveland 34540
lan@@ 34539
selections 34539
ned 34532
TI@@ 34478
Cha@@ 34474
anc@@ 34429
odd 34427
Lu@@ 34422
oned 34416
eat@@ 34407
refund 34391
crisp 34387
cuisine 34364
Last 34362
Har@@ 34360
wal@@ 34339
hole 34330
calls 34319
tap 34310
Hu@@ 34302
parents 34292
Today 34271
stated 34256
grocery 34254
dropped 34217
nachos 34208
sashimi 34202
sub 34169
members 34149
str@@ 34131
inst@@ 34119
carry 34118
Cafe 34112
ort 34089
X@@ 33999
dev@@ 33974
VERY 33973
passed 33950
prime 33931
moist 33904
ited 33904
otherwise 33902
itt@@ 33864
mango 33804
Pho 33802
gro@@ 33793
2nd 33775
ER@@ 33774
foo@@ 33744
waffles 33742
complimentary 33731
dollar 33731
lie 33661
waffle 33661
duc@@ 33650
oy@@ 33627
spacious 33626
interested 33584
crea@@ 33525
promptly 33520
han@@ 33490
entrance 33489
chair 33455
chewy 33449
photos 33436
design 33435
guest 33418
sum 33389
Please 33384
valley 33360
bites 33338
replace 33336
tran@@ 33319
results 33315
weekends 33309
disappoint 33289
pal@@ 33216
clothes 33199
major 33193
hotels 33193
Been 33120
driver 33107
Anyway 33084
tim@@ 33051
14 33035
oysters 32965
doubt 32962
Groupon 32955
AZ 32952
menus 32930
realize 32919
Check 32910
Pu@@ 32890
ill@@ 32889
Be 32887
facility 32882
enjoyable 32840
resort 32840
sn@@ 32838
Which 32829
Del@@ 32825
booth 32816
played 32811
site 32789
Cor@@ 32780
legs 32768
ining 32766
miles 32718
ser 32686
His 32667
greens 32651
dim 32627
opted 32625
platter 32622
putting 32606
mes 32604
dated 32590
run@@ 32557
grill 32540
crunchy 32536
stylist 32483
Salad 32483
pad 32481
host 32462
goodness 32447
pleasantly 32423
sl@@ 32408
Pr@@ 32405
guacamole 32394
version 32393
oo 32387
sample 32383
honey 32380
itting 32374
iled 32371
allowed 32357
BEST 32320
spectacular 32316
cer@@ 32295
19@@ 32289
rock 32261
J 32254
properly 32233
training 32230
filet 32220
bb@@ 32218
ry@@ 32172
windows 32154
Thursday 32149
generally 32114
alcohol 32106
bright 32082
V 31998
drove 31992
ST 31992
perhaps 31992
pol@@ 31990
patrons 31972
rushed 31933
ya 31931
flo@@ 31919
stood 31917
phenomenal 31904
Man@@ 31885
gh 31863
ney 31861
Dr 31822
18 31817
sizes 31787
act 31784
OO@@ 31775
exp@@ 31762
gg@@ 31752
resi@@ 31743
bbq 31740
register 31719
following 31693
closing 31690
strawberry 31681
gin@@ 31663
ines 31648
cro@@ 31647
cks 31645
country 31624
dentist 31611
appro@@ 31596
Restaurant 31590
chan@@ 31586
Greek 31559
IT 31547
wants 31541
int 31534
sen@@ 31522
agreed 31504
gas 31501
see@@ 31500
yel@@ 31496
tory 31488
IN 31486
health 31460
fell 31431
cookie 31403
Fresh 31382
lobby 31382
ow@@ 31378
wor@@ 31378
ears 31377
cul@@ 31365
missed 31364
diner 31355
star@@ 31337
OU@@ 31334
tire 31311
gl@@ 31272
essed 31263
EL@@ 31257
kin 31257
Gr@@ 31249
shes 31248
Because 31244
auch 31184
.95 31157
mor@@ 31155
theater 31155
Vi@@ 31152
apple 31147
dough 31144
weather 31136
ably 31097
whether 31094
berry 31042
ambience 31036
thai 31027
X 31018
ten@@ 31008
ALL 31005
machines 30957
absolute 30945
bakery 30937
Day 30933
ened 30901
via 30897
below 30896
pes 30891
advice 30866
tional 30849
particularly 30793
recommendations 30784
cards 30764
upset 30760
ON 30718
80 30695
oper@@ 30669
crew 30669
deals 30657
yer 30655
support 30649
further 30645
alright 30642
ade 30641
ching 30640
recommendation 30602
child 30597
agree 30577
east 30559
DO 30526
ein 30519
form 30516
aller@@ 30513
dressed 30513
luck 30463
35 30459
Street 30457
haircut 30455
emp@@ 30439
Tra@@ 30414
cuts 30413
tech 30411
banana 30397
flu@@ 30382
tan@@ 30359
Bro@@ 30334
balls 30329
private 30326
dumplings 30300
words 30285
ée 30231
15@@ 30218
TO 30213
pet 30202
Tru@@ 30196
points 30169
wow 30130
ia 30121
apartment 30120
1st 30115
defin@@ 30111
AC@@ 30046
burnt 30042
ette 30024
bringing 30023
rental 30022
Fla@@ 30000
joke 29991
hell 29969
stage 29967
ie@@ 29956
tax 29944
spec@@ 29931
deliver 29925
perfor@@ 29923
Chicago 29906
dealership 29889
ticket 29885
towards 29884
Being 29882
nuts 29847
Pi@@ 29830
catch 29812
plastic 29804
IT@@ 29797
tal 29769
LY 29761
gross 29724
consistently 29709
val 29699
RO@@ 29668
changes 29651
City 29643
30@@ 29611
hummus 29599
lighting 29590
ein@@ 29587
sehr 29577
pper 29553
stock 29530
ash 29529
picky 29525
ang@@ 29506
gy@@ 29494
bac@@ 29489
ool 29484
hash 29483
personable 29479
app 29473
vanilla 29449
Took 29442
groups 29312
Wal@@ 29298
onto 29249
fire 29247
Probably 29230
wear 29223
ices 29221
scheduled 29182
seasoning 29150
AL@@ 29142
oz 29133
BE@@ 29110
disgusting 29089
annoying 29074
bike 29056
90 29053
spending 29033
surprisingly 29021
PM 29021
ano 29018
Fran@@ 29002
bly 28999
bus 28988
Cu@@ 28968
chill 28952
igh@@ 28943
garage 28926
Place 28913
admit 28908
wrapped 28896
75 28888
ven 28860
Por@@ 28849
kers 28835
English 28814
ey@@ 28812
awhile 28794
yeah 28789
ro 28779
pastries 28778
cha 28752
Each 28730
handle 28728
ition 28716
crap 28694
frequent 28670
lets 28584
ant@@ 28571
biggest 28565
gorgeous 28555
smooth 28541
tion@@ 28541
apart 28535
free@@ 28519
ages 28514
Is 28500
pita 28497
Tur@@ 28483
tter 28444
Veg@@ 28395
tast@@ 28387
pair 28377
ce@@ 28363
Pan@@ 28343
overcooked 28333
sil@@ 28298
serves 28283
ending 28273
package 28234
pressure 28227
tired 28210
whenever 28208
Fried 28195
uncomfortable 28194
past@@ 28180
sty@@ 28154
tac@@ 28070
Too 28057
din@@ 28032
ship 28028
hr 28020
cheesecake 28007
refill 27987
proc@@ 27970
super@@ 27968
unprofessional 27968
wonder 27958
signed 27957
writing 27938
department 27929
Steak 27919
yogurt 27902
mmed 27900
ack@@ 27898
NY 27873
bottles 27871
ection 27870
fare 27840
13 27827
six 27801
sla@@ 27769
upstairs 27766
Pork 27752
AT 27738
bags 27718
,@@ 27716
SU@@ 27714
gelato 27697
Who 27685
Hot 27660
warranty 27616
equipment 27607
knowing 27600
Pre@@ 27597
beginning 27589
zi@@ 27576
giant 27573
latte 27569
possibly 27555
dozen 27534
Bellagio 27517
stre@@ 27500
scallops 27495
signs 27489
Valley 27446
regret 27434
HUGE 27420
steaks 27418
quote 27372
ess@@ 27370
allow 27356
serious 27322
refills 27320
aged 27290
comfort 27284
constantly 27281
EVER 27269
Tr@@ 27257
sucks 27241
Le@@ 27226
necessary 27222
update 27221
zero 27220
receipt 27216
aw@@ 27200
hip 27193
stomach 27183
craft 27178
dic@@ 27177
tain 27174
w/ 27163
Wednesday 27156
ative 27146
hi 27143
mag@@ 27140
AYCE 27136
pas 27135
tic@@ 27132
Gi@@ 27131
snack 27126
ef 27124
pur@@ 27119
dos 27116
Si@@ 27105
presented 27100
pleasure 27092
mayo 27080
decision 27078
specialty 27056
include 27040
Mu@@ 27024
MA@@ 27023
till 27014
sel@@ 27004
vet 26996
onal 26988
subst@@ 26985
dies 26979
tt 26935
AM 26922
antly 26859
ents 26846
poutine 26838
sticks 26807
relaxed 26779
Upon 26776
1/@@ 26767
terms 26740
Sch@@ 26704
comment 26688
peanut 26678
creative 26669
mps 26652
sco@@ 26648
Stu@@ 26640
iness 26629
shel@@ 26609
wise 26604
refused 26604
air@@ 26603
vac@@ 26597
clients 26588
ties 26585
travel 26555
Price 26549
against 26542
enjoying 26533
waiters 26531
Christmas 26526
natural 26511
yum 26508
offering 26499
nor@@ 26475
noise 26454
Do@@ 26447
laid 26442
vor@@ 26441
Hotel 26433
melted 26431
costs 26406
Her 26392
Or 26383
ß@@ 26362
ssed 26340
bon@@ 26323
fli@@ 26315
Shrimp 26301
unit 26300
Chef 26300
illed 26289
meeting 26281
ced 26262
court 26244
shor@@ 26226
bet 26221
North 26217
vacation 26216
leg@@ 26209
ners 26199
Come 26198
Pad 26196
freshly 26171
itu@@ 26125
lim@@ 26104
waitresses 26100
dipping 26095
An 26092
Madison 26081
cups 26059
ada 26047
cher 26038
Make 26027
VE@@ 25996
bathrooms 25955
thorough 25949
ound 25944
:00 25940
cri@@ 25936
win@@ 25924
Worst 25918
pull 25893
tou@@ 25882
ier 25879
suggestions 25860
Yum 25826
typically 25809
lish 25808
ion 25776
plan@@ 25762
learned 25741
budget 25720
margarita 25717
fore@@ 25687
managed 25673
effort 25664
pers 25660
upscale 25659
pudding 25635
remo@@ 25624
La 25594
manner 25594
cupcakes 25585
tips 25552
EX@@ 25552
rated 25550
ourselves 25531
eless 25518
Parking 25515
rela@@ 25505
Honestly 25501
Gre@@ 25489
San 25470
AC 25468
hanging 25464
Bri@@ 25459
knowledge 25440
goo@@ 25423
cou@@ 25420
mary 25416
heaven 25413
Vietnamese 25410
occasion 25402
Or@@ 25398
bro@@ 25392
ries 25377
relax 25367
crepe 25364
takeout 25350
hon@@ 25328
coo@@ 25291
account 25290
YOU 25284
Tried 25281
decorated 25280
US 25252
sliced 25241
Cla@@ 25238
Joe 25227
bits 25214
back@@ 25190
polish 25181
ces 25171
ind 25170
strange 25166
low@@ 25162
iring 25161
shake 25158
occasions 25157
Hon@@ 25151
spl@@ 25139
v 25129
eu@@ 25122
ial 25116
happens 25113
events 25104
fran@@ 25100
ose 25090
carpet 25070
ore@@ 25067
Coffee 25052
CH@@ 25033
aware 25029
Customer 25009
tes 25005
Old 24987
ye 24985
leaves 24980
John 24979
pack@@ 24975
dent 24972
specific 24971
community 24970
disc@@ 24966
boba 24939
Green 24938
oven 24936
throw 24930
U 24919
Cra@@ 24918
learn 24908
Mike 24886
sea 24872
Sometimes 24844
WH@@ 24843
tend 24835
starting 24822
THIS 24821
gla@@ 24818
dead 24812
sor@@ 24795
wed 24791
delish 24787
followed 24763
relatively 24755
LA 24726
soy 24725
compare 24714
Ad@@ 24713
buffets 24684
kinds 24674
maintenance 24659
tells 24653
arri@@ 24653
Perfect 24652
ole 24647
Needless 24636
tempura 24618
gue 24612
flavours 24603
hype 24588
tub 24587
mi 24582
sty 24558
People 24541
scene 24538
mid 24537
match 24537
tires 24535
uni@@ 24533
tis@@ 24530
apologized 24510
respon@@ 24510
ES@@ 24505
groo@@ 24496
treats 24487
Char@@ 24454
anti@@ 24444
tortilla 24441
ples 24436
shit 24436
Ter@@ 24421
ino 24413
reminded 24401
inviting 24391
bowls 24365
locals 24357
BUT 24352
im 24351
Cal@@ 24351
ly@@ 24343
parties 24335
gen 24330
OR@@ 24327
oning 24319
pat@@ 24317
Q@@ 24302
access 24297
mble 24293
extensive 24267
drunk 24263
hubby 24260
Cre@@ 24257
non@@ 24253
down@@ 24246
begin 24221
Sorry 24216
suite 24200
impression 24189
manicure 24180
pointed 24173
loaded 24159
Instead 24157
Horrible 24151
listen 24149
ONE 24143
bre@@ 24134
syrup 24132
Ka@@ 24127
truffle 24100
lime 24092
za 24073
Ver@@ 24050
af@@ 24047
planning 24030
superb 24029
hoo@@ 24022
Fu@@ 24015
ha 24008
distance 24001
caring 23984
photo 23980
gentleman 23959
Die 23954
Out 23944
became 23937
famous 23929
comfy 23928
ese 23920
mile 23918
iss 23910
Wh@@ 23906
ble@@ 23892
Caesar 23880
saved 23862
meatballs 23813
ory 23811
Park 23804
qui@@ 23804
mas@@ 23797
Clean 23786
ony 23763
West 23756
lose 23738
grand@@ 23682
floors 23669
ought 23631
bagel 23630
dried 23627
Stopped 23624
discovered 23607
gate 23598
sounds 23597
accommodate 23565
favor 23560
Bra@@ 23552
Mil@@ 23528
balance 23520
_@@ 23514
ban 23474
une 23473
dio 23472
vol@@ 23471
Me 23469
beds 23462
$@@ 23452
caramel 23449
reasons 23449
base 23415
random 23414
Per@@ 23408
cares 23392
dist@@ 23385
Ja@@ 23382
companies 23377
gie 23375
books 23367
Any@@ 23361
conditi@@ 23361
watched 23354
wards 23343
bal@@ 23333
brother 23330
enter 23324
goods 23313
=@@ 23309
advance 23299
ti 23278
Having 23268
Drinks 23265
unk 23254
bank 23249
shape 23248
cle 23240
neg@@ 23234
vely 23227
ability 23223
steamed 23204
goat 23204
South 23204
dad 23194
eine 23190
Out@@ 23177
named 23154
practice 23112
cked 23111
bomb 23100
ben 23099
lec@@ 23093
Second 23085
gran@@ 23081
season 23077
savory 23073
Bel@@ 23065
ra 23058
meant 23057
memorable 23045
teeth 23044
au 23038
17 23038
bby 23029
buns 23025
thin@@ 23008
ror 22995
discu@@ 22994
vis@@ 22969
gged 22966
mped 22960
pla@@ 22946
mac@@ 22933
pineapple 22914
comm@@ 22913
began 22909
tend@@ 22908
GREAT 22899
lab@@ 22897
roast 22896
trouble 22893
hey 22876
US@@ 22853
smoking 22848
rest@@ 22836
soups 22820
Your 22815
Ste@@ 22814
King 22809
worry 22800
sno@@ 22783
ong@@ 22780
fry 22779
gam@@ 22776
IS 22774
meh 22768
Fries 22748
Taco 22738
3rd 22738
produce 22733
ances 22731
example 22720
ward 22720
slaw 22719
Keep 22719
college 22715
Tempe 22706
cking 22686
Hi@@ 22682
hel@@ 22667
control 22653
thy 22629
confused 22615
shame 22608
ards 22603
smelled 22586
ka 22577
numerous 22577
stro@@ 22566
du 22564
OMG 22562
organic 22557
views 22553
mustard 22550
continued 22529
ignored 22527
deli 22526
tem@@ 22518
Such 22481
specifically 22480
snacks 22479
Sweet 22476
complex 22474
Das 22466
GO 22463
zz 22451
DJ 22436
likes 22433
em 22430
ella 22421
land@@ 22413
trav@@ 22404
assi@@ 22404
asada 22388
ME 22387
respect 22386
broke 22384
sun 22379
tty 22377
himself 22369
charges 22358
Fri@@ 22349
basil 22342
new@@ 22323
nel 22320
promised 22317
Okay 22314
soa@@ 22311
candy 22306
Col@@ 22298
shell 22283
paint 22278
ner@@ 22277
onally 22268
policy 22259
regularly 22258
Can 22258
mers 22255
Fast 22255
dancing 22251
ware 22250
di 22237
some@@ 22234
ands 22228
für 22223
Mc@@ 22212
swee@@ 22199
booths 22198
san@@ 22193
ounds 22183
Wil@@ 22182
yard 22180
excuse 22178
traffic 22175
energy 22175
removed 22167
tro@@ 22160
opportunity 22143
timely 22130
Over 22123
3.5 22116
handed 22113
stone 22110
lacked 22106
home@@ 22106
law 22094
swe@@ 22091
*@@ 22083
margaritas 22069
WA@@ 22068
includes 22059
nicer 22031
lou@@ 22031
search 22028
proceeded 22025
rage 22020
Val@@ 22018
ight 22014
:( 22003
eel 21996
bir@@ 21988
ba 21947
final 21929
Inter@@ 21926
advantage 21910
selling 21905
dar@@ 21904
Wor@@ 21897
fluffy 21890
vari@@ 21887
vegetable 21874
sleep 21860
boxes 21856
tad 21846
originally 21832
pin@@ 21828
suppose 21827
hardly 21820
ppy 21815
details 21815
200@@ 21811
appointments 21798
entr@@ 21792
miso 21790
sprouts 21788
thoroughly 21782
ght 21773
eled 21769
ank 21765
ranch 21753
chip 21733
tasteless 21716
mes@@ 21711
tro 21709
any@@ 21699
0 21691
auf 21688
concerned 21685
fees 21678
El@@ 21666
unlike 21663
arran@@ 21655
enny 21654
Da@@ 21651
spices 21637
sof@@ 21634
d'@@ 21627
s- 21626
Dis@@ 21625
common 21623
ica 21616
hear@@ 21613
aber 21603
mission 21599
listed 21598
valet 21583
skip 21576
mir@@ 21573
Sta@@ 21565
icked 21558
tex@@ 21550
threw 21543
blown 21539
exact 21528
Chris 21514
carne 21497
computer 21490
promo@@ 21485
tv 21484
CE 21483
showing 21478
direc@@ 21466
ginger 21451
fridge 21444
EA@@ 21444
trendy 21433
posted 21431
cinnamon 21423
gener@@ 21422
Fac@@ 21396
suff@@ 21379
dep@@ 21356
history 21352
chefs 21340
Wynn 21317
shots 21314
picking 21312
count 21302
nasty 21291
message 21287
brow@@ 21284
dem 21261
cheesy 21241
gers 21238
mmm 21234
donut 21231
chunks 21228
ate@@ 21222
Tu@@ 21220
changing 21213
studio 21211
repairs 21205
directly 21201
everyday 21200
ills 21185
val@@ 21185
intimate 21184
thers 21181
Could 21180
worker 21168
winter 21166
tin 21164
bla@@ 21151
payment 21144
stand@@ 21140
pack 21128
tors 21125
upgrade 21123
display 21117
mild 21099
broccoli 21089
lowing 21074
rub 21065
pepperoni 21063
yo 21061
layout 21060
regi@@ 21059
;) 21048
disa@@ 21023
outs 21013
describe 21011
signature 21007
names 20984
Le 20980
patty 20969
itch@@ 20963
burritos 20957
Go@@ 20922
shocked 20920
win 20890
boring 20886
toasted 20875
dro@@ 20868
ious 20860
continu@@ 20850
supp@@ 20835
bonus 20834
sticky 20828
eggplant 20818
cent 20798
LV 20792
Rock 20774
50@@ 20771
ths 20771
ith 20768
During 20768
Luckily 20759
Apparently 20758
Cam@@ 20753
keeps 20747
flavored 20742
More 20727
hol@@ 20714
cour@@ 20712
pain@@ 20696
mozzarella 20694
haha 20693
Fantastic 20691
bon 20690
200 20675
topping 20673
ook 20668
crepes 20661
careful 20656
mark 20638
espresso 20628
starts 20621
play@@ 20615
ja@@ 20613
Tea 20611
tortillas 20604
beautifully 20590
ools 20583
Sou@@ 20566
l'@@ 20553
classy 20551
iting 20547
field 20531
icing 20499
tted 20490
annoyed 20481
Especially 20475
cap@@ 20471
consistency 20467
clubs 20441
pt 20426
sharing 20426
è@@ 20425
installed 20423
hh@@ 20420
Where 20418
oring 20415
East 20411
inexpensive 20402
quoted 20397
cker 20388
tures 20385
workout 20382
eep 20376
hat 20365
gyro 20344
Pl@@ 20342
leftovers 20339
show@@ 20337
frequently 20336
neat 20327
result 20323
sliders 20323
PS 20307
70 20296
pink 20279
appeared 20276
worthy 20275
offerings 20271
Spicy 20264
wines 20263
sake 20259
tech@@ 20249
corporate 20243
awkward 20242
cat 20238
address 20226
ountain 20219
Cho@@ 20219
mmer 20211
sons 20209
ath 20196
Chocolate 20190
fre@@ 20190
ids 20185
standards 20159
theme 20143
dest 20140
zu@@ 20137
zer 20130
popcorn 20125
pickles 20118
colors 20116
mea@@ 20085
contacted 20078
zy 20060
high@@ 20051
HA@@ 20047
rarely 20042
Ko@@ 20037
Market 20025
reli@@ 20008
cli@@ 20005
familiar 20001
wifi 19997
VIP 19994
fe 19989
vin@@ 19988
bes 19983
downstairs 19983
fun@@ 19974
ef@@ 19970
AY 19969
jec@@ 19968
delightful 19963
mly 19957
PL@@ 19956
public 19937
liking 19936
mussels 19935
je@@ 19917
lar 19915
fans 19903
deli@@ 19885
fro@@ 19881
ounded 19872
ld 19857
trac@@ 19850
temperature 19849
peri@@ 19849
ert 19826
tta 19824
Fre@@ 19813
pan 19810
downside 19806
shakes 19802
cucumber 19789
Fish 19781
acted 19778
obvious 19777
soo@@ 19759
li 19759
stro 19732
ros 19731
satisfying 19729
ars 19725
happier 19712
ads 19712
WOW 19712
gies 19709
text 19700
friend@@ 19695
sti@@ 19677
students 19667
Small 19666
biscuits 19664
!@@ 19661
pedi 19657
Black 19657
ello 19655
Terrible 19654
massive 19632
bun@@ 19621
Manager 19619
depending 19619
lit 19614
TA@@ 19611
tight 19598
len 19597
batter 19589
businesses 19588
clean@@ 19588
fresh@@ 19572
caught 19572
held 19568
water@@ 19561
proper 19559
head@@ 19556
oni@@ 19541
romantic 19537
video 19535
spar@@ 19533
client 19523
Long 19515
potential 19499
itch 19499
dive 19486
trash 19481
butt@@ 19477
Bur@@ 19473
male 19463
lic@@ 19458
stle 19456
lun@@ 19450
Rice 19447
skills 19446
towels 19444
LI@@ 19437
sounded 19433
fingers 19430
membership 19426
GH@@ 19422
macar@@ 19411
+@@ 19399
Ban@@ 19393
ature 19373
ceiling 19365
stale 19361
ond 19357
addic@@ 19357
aches 19354
anytime 19339
adverti@@ 19339
aside 19321
build 19321
bil@@ 19321
Before 19315
staffed 19301
gle 19299
charging 19289
pastry 19281
Bay 19266
dental 19265
ah 19262
knowledgable 19250
easier 19244
Du@@ 19224
Perhaps 19222
pret@@ 19215
informative 19213
seconds 19209
Bru@@ 19207
loin 19206
Club 19198
CA@@ 19189
smoothie 19184
termin@@ 19163
somehow 19157
Ne@@ 19156
wet 19154
ird 19152
spread 19152
understanding 19145
deser@@ 19133
remembered 19132
Usually 19125
Breakfast 19110
shirt 19092
dates 19085
wearing 19083
ease 19082
load 19074
lazy 19070
eventually 19062
melt 19055
tapas 19055
part@@ 19055
hearing 19048
pancake 19044
sign@@ 19042
olive 19041
technician 19040
blood 19036
consu@@ 19032
communication 19032
flowers 19023
adven@@ 19020
danc@@ 19019
ko@@ 19016
mail 19008
Grill 19007
ees 19002
wir 18988
samples 18984
chat 18979
rolled 18975
terrific 18970
diagno@@ 18964
squee@@ 18951
heal@@ 18951
written 18949
Wish 18942
groupon 18934
surgery 18932
arrival 18930
5/5 18924
bab@@ 18923
tch 18919
gar 18914
compl@@ 18911
rol@@ 18909
referred 18908
current 18905
celebr@@ 18879
e- 18879
pra@@ 18875
ppers 18871
repeat 18854
Sho@@ 18851
patients 18846
Gra@@ 18836
block 18832
shuttle 18817
essi@@ 18813
present 18783
voice 18778
THING 18776
BU@@ 18775
Free 18769
headed 18762
courses 18760
south 18751
nobody 18750
boys 18742
Otherwise 18730
mbing 18724
partner 18714
eek 18713
sour@@ 18713
estimate 18698
clothing 18695
pies 18690
bagels 18688
sea@@ 18684
Center 18673
WAY 18670
power 18668
denti@@ 18654
concerns 18647
lation 18630
ust 18625
dough@@ 18604
FA@@ 18603
chy 18576
ality 18555
cupcake 18549
icky 18542
hurry 18527
correctly 18525
ough 18520
initial 18514
basket 18512
ek 18511
Grand 18511
acks 18506
Though 18489
house@@ 18474
Yeah 18469
dium 18465
id@@ 18458
nervous 18436
Hea@@ 18434
anniversary 18430
browns 18429
dé@@ 18424
rubb@@ 18420
equally 18416
uc@@ 18413
FU@@ 18403
entertainment 18397
uns 18395
dings 18388
lives 18376
jac@@ 18365
oily 18364
smells 18364
IC@@ 18347
Sure 18347
ID 18344
OM@@ 18335
spea@@ 18329
cky 18328
)@@ 18328
gut 18324
ux 18323
squ@@ 18319
pier@@ 18318
accept 18306
vering 18294
shredded 18285
~@@ 18283
bag@@ 18278
fountain 18276
enc@@ 18275
ruined 18269
less@@ 18265
slo@@ 18252
yellow 18246
adults 18239
hospital 18218
animals 18210
tag 18209
blow 18203
creme 18196
Fo@@ 18192
Lobster 18187
internet 18172
canc@@ 18157
apps 18148
Many 18145
strict 18139
rious 18131
fer 18122
pressed 18118
crunch 18112
sible 18104
buds 18102
uts 18097
Blue 18075
adding 18068
Room 18063
butter@@ 18062
stands 18027
hair@@ 18022
aff@@ 18003
Despite 17996
families 17991
mo 17979
We@@ 17975
phys@@ 17972
welcomed 17964
highlight 17962
MY 17960
ara 17956
teriyaki 17955
VE 17941
prof@@ 17934
ketchup 17928
discoun@@ 17910
deserves 17906
ty@@ 17897
Atmosphere 17890
TVs 17888
poorly 17881
complained 17880
among 17871
damage 17870
Bad 17868
activ@@ 17850
ren 17826
runs 17822
Michael 17812
icker 17797
era 17791
scra@@ 17763
bou@@ 17760
spaghetti 17754
bf 17742
speci@@ 17742
industry 17736
weight 17736
St. 17732
Ph@@ 17732
sage 17729
elling 17728
rac@@ 17723
create 17718
previously 17703
mas 17694
claim 17686
ket 17680
hint 17670
ening 17664
besides 17663
explaining 17659
PA 17656
turns 17637
tting 17633
Sun@@ 17630
program 17625
regulars 17621
neither 17619
Cro@@ 17617
session 17615
deserve 17614
entered 17606
acc@@ 17595
holiday 17592
ordinary 17591
cancel 17590
condition 17585
Town 17583
aa@@ 17583
fly 17570
blast 17563
comfor@@ 17554
professi@@ 17554
Chi@@ 17551
custom 17551
unch 17543
Little 17543
cheddar 17535
person@@ 17533
cont@@ 17532
des@@ 17526
Tar@@ 17522
toilet 17517
replacement 17516
individual 17510
bands 17504
attempt 17497
expl@@ 17491
adult 17490
sol@@ 17486
coupons 17485
sages 17484
cabbage 17482
closest 17480
failed 17478
pil@@ 17478
dia 17472
personality 17468
Called 17465
eared 17463
omelette 17454
cutting 17444
yoga 17442
gest 17434
rocks 17433
pic 17421
handled 17416
stor@@ 17412
grass 17409
built 17409
Mary 17406
female 17404
ama@@ 17403
secret 17400
indic@@ 17399
mpl@@ 17398
cla@@ 17392
irs 17387
MGM 17382
she@@ 17358
core 17357
buffalo 17354
impossible 17347
def 17346
naan 17339
sesame 17336
hurt 17331
medical 17331
--- 17323
fol@@ 17321
ensive 17307
mint 17302
As@@ 17302
Chipotle 17301
Beer 17289
Buffet 17286
mon 17281
uses 17281
mbo 17278
Fr@@ 17265
salted 17262
appropriate 17260
wer 17252
breast 17238
Take 17234
gourmet 17231
lac@@ 17220
cab 17219
Decent 17211
eats 17204
iner 17192
"@@ 17188
receptionist 17185
fake 17185
Anyways 17185
stocked 17179
facial 17176
Henderson 17172
zen 17164
fru@@ 17160
sian 17155
tattoo 17148
weekday 17144
attrac@@ 17138
chopped 17137
fatty 17136
Ge@@ 17135
wax 17135
fix@@ 17127
joints 17127
speaking 17123
switch 17122
Fe@@ 17121
EC@@ 17121
attend@@ 17119
rema@@ 17110
inv@@ 17107
itted 17100
warned 17099
Beautiful 17098
sta 17088
prepare 17086
tives 17079
tiv@@ 17076
ille 17073
iling 17072
cir@@ 17068
crappy 17068
doctors 17056
mber 17043
tie 17041
chen 17039
iny 17038
lers 17037
cilantro 17036
stairs 17034
ja 17031
son@@ 17026
completed 17017
poke 17010
repe@@ 17004
medic@@ 16993
pli@@ 16988
sket@@ 16978
greet 16965
Person@@ 16961
sets 16960
tains 16958
coleslaw 16948
Salmon 16947
ized 16946
itty 16937
Benedict 16928
Roll 16922
interest 16918
dealing 16905
disp@@ 16905
omelet 16903
stupid 16897
lease 16897
icks 16896
elevator 16895
apology 16893
dined 16892
Tom 16892
remove 16891
train 16888
helps 16883
swa@@ 16875
track 16873
UN@@ 16873
heated 16858
Star@@ 16853
assume 16845
Fl@@ 16844
pet@@ 16838
tart 16829
stopping 16824
grand 16824
convenience 16820
pesto 16819
execu@@ 16817
grabbed 16816
hung 16813
complaining 16810
xes 16807
sweetness 16781
App@@ 16780
feed 16776
sas 16775
pul@@ 16754
electr@@ 16753
Looking 16748
ext@@ 16742
overwhelming 16741
anda 16740
info 16721
Ga@@ 16718
py 16705
tries 16697
Don@@ 16696
entertaining 16693
student 16688
Min@@ 16685
olives 16680
od@@ 16678
21 16675
medi@@ 16670
blo@@ 16670
beverage 16667
eli@@ 16660
prepar@@ 16660
til 16657
searching 16657
bility 16650
exhi@@ 16650
messed 16647
brings 16645
wer@@ 16644
thetic 16639
base@@ 16633
dre@@ 16632
keys 16625
suit 16625
Mari@@ 16624
won@@ 16623
:30pm 16621
contract 16618
delici@@ 16617
kie 16607
ember 16605
ician 16604
Mr. 16591
bedroom 16590
About 16589
asparagus 16578
RY 16574
hopefully 16573
ston 16570
paperwork 16558
mainly 16549
ville 16545
REALLY 16532
net 16526
tops 16524
dating 16523
consul@@ 16522
Res@@ 16522
heading 16518
leg 16505
care@@ 16501
afterwards 16500
weekly 16499
Located 16484
won 16480
kno@@ 16478
minimum 16475
Nor@@ 16461
spor@@ 16451
Worth 16443
Soup 16435
rough 16429
kom@@ 16427
erry 16419
shirts 16409
wan@@ 16408
hood 16404
preferred 16404
ravioli 16402
hot@@ 16380
reviewers 16379
Fun 16368
scoop 16362
yu@@ 16354
Hands 16350
Can@@ 16349
lon@@ 16333
north 16333
Hawaiian 16332
assured 16332
David 16328
Hour 16322
TO@@ 16321
install 16320
penny 16315
draft 16310
GOOD 16308
S. 16304
ric@@ 16298
improve 16290
rave 16284
ga 16281
von 16278
bell 16276
container 16256
berries 16256
quar@@ 16253
plaza 16250
ett@@ 16247
chorizo 16241
dem@@ 16230
Man 16227
Pri@@ 16226
reserved 16206
xim@@ 16205
instruc@@ 16203
worried 16201
mping 16192
tz@@ 16192
sind 16187
ling@@ 16170
wil@@ 16163
Vis@@ 16158
reminds 16146
AL 16140
lover 16137
teas 16135
initially 16130
forth 16110
alter@@ 16108
push 16097
Te@@ 16093
oooo@@ 16091
planned 16090
rip 16083
Three 16074
celebrate 16073
Casino 16072
xed 16068
Crab 16068
professionalism 16053
jam 16052
Den@@ 16039
embarra@@ 16036
ingy 16036
inci@@ 16035
protein 16032
noon 16029
apologize 16028
Coo@@ 16013
Venetian 16012
mani 16011
ensure 16010
sich 16005
hire 16002
far@@ 16000
Wonderful 15995
inf@@ 15994
plac@@ 15990
Fin@@ 15989
God 15983
quantity 15981
consider@@ 15978
required 15976
Mor@@ 15976
Ab@@ 15967
buttery 15947
itors 15946
research 15928
pot@@ 15926
Dec@@ 15925
shy 15922
afraid 15922
tab@@ 15912
vodka 15912
cart 15911
flavourful 15911
chinese 15911
indoor 15911
garden 15910
enchiladas 15907
Smo@@ 15907
Oc@@ 15902
Bl@@ 15902
vings 15898
ê@@ 15898
ints 15888
tooth 15878
bothered 15877
beverages 15868
Edinburgh 15867
unt 15852
fellow 15838
rist@@ 15837
Essen 15837
entre 15823
essing 15823
elt 15814
alternative 15811
starving 15795
noisy 15788
Right 15779
mul@@ 15778
shu@@ 15770
San@@ 15766
hassle 15762
Chees@@ 15757
minor 15752
ures 15749
ric 15747
mexican 15746
passion 15742
ssing 15735
NYC 15732
ented 15729
ref@@ 15725
ffle 15723
grease 15721
Loo@@ 15721
lemonade 15713
Jan@@ 15710
,000 15702
conc@@ 15680
com/@@ 15671
argu@@ 15656
risotto 15649
stal@@ 15642
500 15627
Sim@@ 15621
dresses 15619
Kitchen 15613
RE 15606
-$@@ 15600
sight 15598
almond 15595
updated 15590
night@@ 15590
separ@@ 15580
ero 15576
refl@@ 15576
locked 15575
ima@@ 15574
houses 15573
wrote 15573
Sam@@ 15571
letting 15569
Home 15566
neck 15562
vou@@ 15561
pen@@ 15554
importantly 15553
golf 15553
croissant 15552
Sandwich 15551
sing@@ 15546
my@@ 15535
suggestion 15533
blend 15526
dless 15515
genuinely 15510
ain 15507
bing 15500
veal 15493
ian 15492
trips 15486
vel@@ 15479
ligh@@ 15476
chipotle 15473
Top 15467
exception 15462
SI@@ 15446
Made 15442
Bas@@ 15434
] 15418
focus 15417
Cool 15413
.com 15410
Are 15400
drea@@ 15399
ssi@@ 15391
Huge 15379
gent 15375
enthusi@@ 15371
White 15355
stress 15354
whi@@ 15345
Ramen 15343
black@@ 15339
?@@ 15336
mid@@ 15328
Give 15319
sadly 15316
vy 15313
exciting 15308
lif@@ 15308
regarding 15305
wraps 15298
nov@@ 15297
Im@@ 15293
AWESOME 15289
Lin@@ 15284
vinegar 15282
father 15277
mented 15275
eyebrows 15270
currently 15266
Her@@ 15264
diet 15254
chop 15250
faster 15248
Roo@@ 15240
underwhel@@ 15238
ridiculously 15236
hopes 15236
nie 15235
napkins 15216
listened 15211
speciali@@ 15206
quesadilla 15205
acci@@ 15205
movies 15199
died 15190
OL@@ 15186
communic@@ 15184
sey 15181
ste 15179
god 15176
eak 15175
/10 15173
auto 15172
forced 15166
wand@@ 15158
Queen 15149
ican 15144
tree 15141
wasted 15140
concern 15129
undercooked 15123
reliable 15123
vs 15109
levels 15105
bi 15101
lightly 15101
4th 15101
eno 15097
Gy@@ 15096
acceptable 15093
Mas@@ 15092
Better 15084
pound 15082
Tacos 15076
olo@@ 15067
infor@@ 15063
roof 15063
ink@@ 15057
icated 15055
competent 15054
Note 15050
hooked 15048
kill 15048
buck 15044
eed 15040
stly 15036
cran@@ 15035
cus 15034
ton@@ 15033
dream 15029
Dan@@ 15027
kidding 15025
LA@@ 15016
anyways 15012
noch 15010
signific@@ 15008
restroom 15000
encountered 14996
speed 14991
thrilled 14977
ream 14971
illy 14963
artist 14963
print 14960
3.@@ 14959
ONLY 14958
jerk 14957
talented 14945
See 14942
museum 14940
background 14930
juices 14929
square 14929
liquor 14928
whipped 14926
stellar 14922
impeccable 14922
Pal@@ 14916
mic 14914
increa@@ 14912
Texas 14907
main@@ 14906
Kar@@ 14901
lock 14898
HI@@ 14885
Ty@@ 14884
gras 14884
compet@@ 14880
22 14876
promise 14870
Chandler 14870
bari@@ 14868
July 14866
attended 14865
whis@@ 14864
Sadly 14858
alot 14855
enn 14839
rew 14836
scen@@ 14834
Spr@@ 14834
tomorrow 14822
custard 14819
work@@ 14818
octopus 14814
~ 14814
tenders 14810
cc@@ 14805
loaf 14797
:-) 14794
dru@@ 14791
300 14787
managers 14786
horri@@ 14776
eable 14774
elle 14774
designed 14767
amenities 14766
Sau@@ 14765
oin@@ 14757
ais@@ 14756
hop 14751
comparison 14748
champagne 14740
func@@ 14737
though@@ 14736
assuming 14726
gn@@ 14724
carrots 14719
chi 14717
exi@@ 14714
trained 14708
THAT 14706
resol@@ 14705
Yu@@ 14705
aki 14703
sk 14699
fon@@ 14699
ou 14698
mic@@ 14697
entering 14694
craw@@ 14689
cooks 14689
otic 14687
phones 14685
couch 14680
trees 14664
pickled 14662
confusing 14661
brew 14661
tower 14648
loc@@ 14645
fusion 14643
suppor@@ 14635
mmy 14630
ques 14629
steakhouse 14624
bubble 14623
RA@@ 14616
earth 14608
zone 14608
messy 14607
produc@@ 14607
Wat@@ 14601
after@@ 14599
Bacon 14594
thi@@ 14592
period 14585
booking 14579
Star 14567
een 14565
http://www.@@ 14564
greatest 14561
Apple 14559
ffs 14557
sured 14549
tless 14542
sprink@@ 14541
stun@@ 14541
Ice 14522
Mesa 14516
fed 14515
tained 14510
blah 14510
Sec@@ 14509
vor 14505
illa 14484
ata 14484
football 14480
cleanliness 14476
mushy 14468
considered 14467
responded 14463
report 14459
exper@@ 14453
sen 14449
arti@@ 14443
err@@ 14442
Bre@@ 14434
described 14420
grits 14419
comments 14415
ountains 14415
hau@@ 14415
comparable 14414
desired 14413
Paris 14407
martini 14400
diners 14400
auth@@ 14396
edible 14395
bor@@ 14393
LOL 14389
anno@@ 14381
ups 14376
social 14369
quaint 14367
sucked 14362
balanced 14353
introduced 14348
ola 14347
Totally 14342
ful@@ 14338
tured 14337
hl 14332
cheeses 14328
happening 14324
sooo 14324
soooo 14313
ample 14309
16@@ 14298
itive 14295
port 14294
Square 14287
mad 14285
je 14285
Pros 14284
provides 14282
garbage 14279
jud@@ 14267
Lou@@ 14265
disapp@@ 14262
Five 14262
delic@@ 14262
breads 14257
concert 14246
mein 14246
and/or 14245
alle@@ 14245
pretzel 14238
pos@@ 14233
eth@@ 14231
Ear@@ 14219
requests 14216
battery 14204
plentiful 14198
paired 14195
cherry 14191
fork 14190
RU@@ 14188
questi@@ 14187
ffy 14187
wanna 14180
einen 14180
reception 14179
coff@@ 14171
oul@@ 14169
Aria 14168
bass 14161
zes 14151
Found 14150
Win@@ 14150
marinated 14147
@ 14141
pow@@ 14140
mus@@ 14138
jack 14136
magic 14135
ried 14134
smart 14131
indeed 14126
deal@@ 14118
mechanic 14118
reach 14115
page 14110
purchasing 14109
respectful 14108
Save 14106
ze@@ 14099
younger 14096
dered 14091
great@@ 14089
basis 14085
tho 14080
genuine 14069
wns 14062
def@@ 14059
sis 14050
Consi@@ 14037
maple 14032
cents 14028
appealing 14026
smoothies 14019
accep@@ 14019
visor 14018
atters 14014
seasonal 14013
slight 14010
Stay 14008
hello 14008
strips 14006
CH 14005
tre 13999
jewelry 13998
andy 13996
PO@@ 13996
itary 13994
mbs 13993
Af@@ 13991
Sat 13987
pretentious 13984
Lunch 13983
Curry 13980
Way 13976
elev@@ 13971
practically 13964
emergency 13964
cramped 13959
frea@@ 13958
--@@ 13958
pride 13953
cis@@ 13952
photogra@@ 13951
strawberries 13943
amazed 13942
shut 13936
flavorless 13934
Rol@@ 13924
EN 13921
phi@@ 13920
Location 13918
day@@ 13918
outine 13917
asian 13915
Cons 13914
bie 13910
Mediterranean 13902
appt 13901
refilled 13900
afford 13896
Hopefully 13893
iss@@ 13890
pants 13890
prac@@ 13883
nic 13875
compan@@ 13869
icious 13864
amazingly 13863
Dou@@ 13853
handful 13848
Dinner 13847
Sm@@ 13843
created 13842
recogni@@ 13840
advertised 13837
bat@@ 13834
ences 13833
ado@@ 13829
melon 13827
idi@@ 13820
falafel 13817
thwest 13817
ency 13810
00@@ 13809
tucked 13809
tray 13807
ply 13802
ai@@ 13785
dude 13781
gging 13781
deci@@ 13780
va 13777
herself 13776
gold 13776
compli@@ 13774
micro@@ 13773
Dr@@ 13772
pec@@ 13772
rack 13768
grew 13761
Gar@@ 13760
Stea@@ 13760
ense 13760
pumpkin 13760
bear@@ 13758
än@@ 13754
wheat 13751
slee@@ 13743
les@@ 13738
oured 13736
washed 13736
involved 13724
icians 13724
Wait 13722
Four 13721
ANY 13721
Menu 13719
improved 13708
cared 13699
cali@@ 13698
dealer 13696
appl@@ 13693
May 13690
Sauce 13686
lee 13683
inch 13672
18@@ 13669
unlimited 13669
procedure 13669
reci@@ 13663
happily 13661
Bell 13645
midnight 13645
meaning 13638
caf@@ 13638
ign 13637
grateful 13634
cleaner 13633
fitness 13631
premium 13630
si 13630
yan 13628
gain 13621
foie 13611
tain@@ 13611
0s 13610
aching 13597
shortly 13596
Ask 13596
heads 13593
shoo@@ 13585
Plenty 13584
grac@@ 13577
ilian 13572
tively 13559
wur@@ 13559
HERE 13556
irrit@@ 13553
urs 13551
stumbled 13550
faces 13545
ooo 13543
ddy 13542
asks 13540
settled 13539
Egg 13536
chu@@ 13531
El 13530
makeup 13523
salons 13519
2016 13518
sala 13512
anded 13510
ori 13507
sink 13507
[ 13504
root 13503
wild 13501
recall 13498
don 13497
THE@@ 13497
Wo 13490
snow 13488
construction 13483
Order 13480
tea@@ 13476
appears 13474
acked 13470
tar 13469
sens@@ 13465
mini@@ 13463
oni 13462
Steve 13459
struc@@ 13454
ET 13452
animal 13440
exam 13438
decor@@ 13433
KE 13429
saving 13429
guac 13424
weak 13421
mm 13421
shar@@ 13420
ELY 13418
aging 13417
ache 13413
passing 13412
Those 13400
Yummy 13399
pushy 13396
wondering 13396
advised 13394
fic@@ 13391
hen 13379
bitter 13376
finger 13372
Portions 13369
costu@@ 13368
surr@@ 13359
Angel@@ 13358
judge 13355
effec@@ 13350
appetite 13346
Q 13346
lap@@ 13341
swi@@ 13339
teen@@ 13339
decad@@ 13336
conv@@ 13332
Mac@@ 13331
tra 13329
pools 13325
Garden 13321
drin@@ 13319
chal@@ 13316
gall@@ 13314
gel@@ 13308
accident 13303
ttle 13294
lls 13292
spac@@ 13291
St 13290
wallet 13287
dding 13286
stres@@ 13286
ATE 13273
sex@@ 13269
race 13264
songs 13263
fruits 13260
2015 13257
SA@@ 13255
FOR 13252
understood 13248
Gri@@ 13243
ribeye 13238
arriving 13232
fashion 13230
dealt 13230
Enjoy 13227
majority 13225
gic 13224
gin 13217
chatting 13211
raspberry 13211
Bread 13209
tics 13208
starter 13204
Pat@@ 13196
dinners 13186
kt 13178
pics 13169
thered 13166
hearty 13163
watering 13162
ems 13159
wo@@ 13156
Bon@@ 13151
arca@@ 13149
edu@@ 13149
s. 13145
kka 13144
ddle 13143
passionate 13143
remin@@ 13141
monthly 13140
opp@@ 13134
descri@@ 13133
plays 13132
BA@@ 13129
Surpri@@ 13125
14@@ 13120
hits 13120
charming 13119
satisfy 13115
cheeseburger 13111
checks 13109
nee@@ 13105
nicest 13102
frustrating 13099
bc 13099
lovers 13098
utella 13098
BO@@ 13097
isch 13093
qui 13086
watery 13086
tone 13085
eff@@ 13081
mais 13081
theatre 13077
EE@@ 13071
locally 13067
nowhere 13065
cell 13064
replied 13064
spoon 13063
camer@@ 13059
meatball 13059
puts 13056
gui@@ 13054
Must 13044
hipster 13039
maintained 13038
ato@@ 13038
rates 13037
traveling 13036
len@@ 13033
lli@@ 13031
iche 13026
cross 13025
customi@@ 13023
COM@@ 13021
Canada 13009
steep 13006
Easy 13005
elly 13004
bo 12999
enter@@ 12999
confirm 12997
wie 12992
Grilled 12992
flag 12990
cuz 12990
McDonald 12989
overpow@@ 12987
rout@@ 12984
:30@@ 12982
atory 12979
Quick 12976
challen@@ 12969
OF 12965
ree 12963
Tuna 12960
kly 12959
news 12959
Mel@@ 12957
code 12955
itor 12949
repu@@ 12948
ac 12947
desi@@ 12946
assortment 12945
Yel@@ 12941
ji@@ 12936
unable 12935
lid 12934
even@@ 12934
cand@@ 12933
peak 12933
EVERY@@ 12928
ute 12923
CA 12918
deposit 12917
tan 12915
/5 12914
nit@@ 12912
CL@@ 12910
highlights 12908
ern 12905
attached 12901
sna@@ 12898
finishing 12897
scratch 12892
accommo@@ 12891
commen@@ 12889
lay@@ 12887
icier 12886
Either 12884
velvet 12879
waren 12874
lashes 12873
raised 12872
thumbs 12869
bin@@ 12864
fav 12863
depend@@ 12858
Spring 12857
casinos 12855
marked 12853
Americ@@ 12847
fty 12844
nion 12843
upgraded 12839
Side 12835
Dessert 12834
adds 12830
skeptical 12826
Irish 12821
stations 12820
SH@@ 12816
loyal 12808
stea@@ 12807
Mer@@ 12791
dents 12790
eater 12789
dres@@ 12786
sangria 12779
providing 12779
cl@@ 12773
Large 12765
biz@@ 12762
heck 12758
freaking 12755
Gran@@ 12754
Pla@@ 12753
darn 12751
itas 12747
cy@@ 12746
2.@@ 12745
plans 12741
Euro@@ 12727
inspired 12722
û@@ 12718
Total 12710
PER@@ 12702
states 12695
thous@@ 12695
adm@@ 12692
regardless 12688
P.@@ 12686
improvement 12686
shaved 12683
strugg@@ 12682
respec@@ 12681
bath 12679
holding 12678
come@@ 12677
eful 12675
blueberry 12675
active 12675
expec@@ 12674
1.@@ 12672
factor 12667
politan 12664
chees@@ 12664
wished 12664
microwave 12662
tage 12662
Ku@@ 12654
lake 12653
evi@@ 12652
ean 12649
screens 12647
dering 12647
ka@@ 12645
Mandalay 12643
tall 12641
mash 12640
legit 12639
calm 12638
Ni@@ 12636
Dra@@ 12635
tank 12618
gal 12614
pho@@ 12608
festi@@ 12607
ron 12607
25@@ 12605
hesitate 12600
inspection 12599
mou@@ 12597
eling 12596
cket 12595
collection 12591
dan@@ 12589
valu@@ 12586
ender 12582
Spanish 12582
stepped 12579
dying 12577
Express 12577
esch@@ 12570
kimchi 12562
pical 12562
Pin@@ 12562
SERVICE 12562
massages 12554
repaired 12550
tots 12545
muffin 12541
thrown 12539
smiling 12534
rep 12532
Dave 12529
insisted 12525
clinic 12521
mee@@ 12520
hh 12519
falling 12514
Dri@@ 12507
EVE@@ 12506
desper@@ 12499
lists 12494
pati@@ 12478
Ram@@ 12474
indul@@ 12473
Garlic 12473
fiancé 12470
claim@@ 12468
trade 12464
crowds 12462
Waited 12462
fight 12461
earned 12461
hamburger 12461
sten 12459
walks 12459
comple@@ 12457
jam@@ 12457
week@@ 12456
entirely 12452
dish@@ 12447
tourist 12447
barber 12447
Over@@ 12440
wn@@ 12436
cy 12432
fur@@ 12430
Tor@@ 12427
scoo@@ 12427
mbled 12422
insul@@ 12419
chocol@@ 12417
direction 12409
suc@@ 12404
Quality 12404
former 12404
brownie 12372
layer 12371
onic 12370
Nu@@ 12369
inten@@ 12363
cheapest 12361
Tal@@ 12355
Michel@@ 12350
Er@@ 12346
hur@@ 12346
approached 12345
Eggs 12340
Mat@@ 12334
alty 12333
salesman 12329
twist 12328
renov@@ 12321
overwhelmed 12317
chains 12314
waitstaff 12314
FOOD 12313
America 12311
Cirque 12309
Almost 12298
coworkers 12297
toler@@ 12294
stration 12292
adorable 12291
13@@ 12291
neighbourhood 12288
degrees 12281
frame 12280
eti@@ 12280
kann 12280
bei 12276
seared 12273
etheless 12272
chile 12270
opposite 12264
Does 12261
conn@@ 12260
4/5 12257
coat 12256
ousness 12255
ann 12246
Cream 12243
inted 12242
Palace 12241
dence 12229
shi 12228
apologetic 12227
winner 12225
cau@@ 12224
Sam 12221
conver@@ 12219
grown 12219
Besides 12216
très 12215
confirmed 12205
hard@@ 12204
OR 12204
ept 12199
blame 12191
minimal 12186
mater@@ 12184
clue 12183
Am@@ 12179
temp@@ 12178
Christ@@ 12174
features 12173
Any 12172
competition 12167
semi 12165
del 12164
correc@@ 12160
shoe 12155
thier 12155
Bak@@ 12154
angry 12152
peas 12151
schedu@@ 12151
forgotten 12142
who@@ 12141
uu@@ 12141
DE 12135
150 12127
delight 12127
Island 12126
gnocchi 12118
yelling 12117
Bottom 12116
ili@@ 12116
tile 12114
hrs 12114
Mis@@ 12112
tful 12111
challenge 12110
pun@@ 12109
manage 12109
moder@@ 12105
honor 12105
-star 12103
con 12103
vent 12100
Stars 12100
blonde 12098
arms 12095
Server 12093
Hard 12092
compliments 12087
xious 12086
ority 12083
Mark 12080
inting 12080
Sco@@ 12076
FI@@ 12073
nic@@ 12059
Much 12055
Cen@@ 12053
pregn@@ 12051
gun 12049
ski@@ 12043
fal@@ 12040
description 12038
ERE 12037
assistant 12033
j 12026
eight 12021
parmesan 12019
spr@@ 12019
contrac@@ 12019
Margar@@ 12004
Che@@ 12004
lack@@ 12001
Dun@@ 11997
ket@@ 11996
MUST 11995
Update 11991
Wings 11989
icking 11987
steps 11987
steam 11984
verage 11983
screw 11983
Boo@@ 11982
justi@@ 11982
mation 11981
Jer@@ 11979
everybody 11977
setup 11975
nur 11973
eal@@ 11970
facilities 11969
iter@@ 11969
Philly 11966
liqu@@ 11966
Wine 11963
bloody 11961
exist@@ 11959
burn 11949
pharmac@@ 11949
Family 11945
IL@@ 11945
24@@ 11944
spir@@ 11944
Coun@@ 11937
Exc@@ 11930
Tast@@ 11929
Air@@ 11928
swear 11927
trea@@ 11926
Look 11924
Lol 11922
accurate 11919
carrot 11918
edge 11918
cing 11917
China 11916
tle 11913
2.5 11910
national 11905
ama 11904
guide 11902
connected 11902
BI@@ 11892
approach 11888
express 11887
Tri@@ 11887
shoulder 11886
knock 11883
refriger@@ 11878
dy@@ 11875
staple 11875
m. 11875
katsu 11874
rump@@ 11873
Up@@ 11866
sal 11864
ripped 11862
Lastly 11853
Walmart 11852
ords 11851
scared 11848
hang@@ 11841
High 11839
scal@@ 11836
esses 11833
los 11830
fiance 11830
record 11828
bruschetta 11826
mpa@@ 11818
Matt 11817
ko 11806
ood@@ 11806
AM@@ 11806
according 11794
tious 11793
sampler 11792
bang 11790
YUM 11790
Van@@ 11790
aten 11787
associ@@ 11785
agent 11784
debit 11777
dedic@@ 11776
growing 11775
IM@@ 11772
solution 11767
45@@ 11763
ea 11762
filthy 11760
fave 11758
sses 11754
Seems 11750
acting 11750
song 11749
shawarma 11747
rot@@ 11746
hum@@ 11745
ratio 11744
Downtown 11741
rely 11741
gambling 11740
van 11740
detailed 11736
art@@ 11734
dass 11734
model 11733
ow 11730
fits 11727
atter 11724
insp@@ 11724
ffles 11723
spray 11721
host@@ 11711
--------@@ 11709
tten 11709
thus 11700
beware 11699
sers 11694
corned 11693
Extremely 11692
couples 11683
ens@@ 11677
destination 11676
mean@@ 11676
dness 11668
Exp@@ 11667
buddy 11658
incorrec@@ 11656
veg@@ 11653
blocks 11652
refer@@ 11651
related 11651
Same 11648
ALWAYS 11645
exterior 11645
ENT 11645
million 11639
listening 11638
Costco 11636
cht 11635
claimed 11633
ank@@ 11631
rit@@ 11630
avec 11628
choosing 11624
crit@@ 11621
ann@@ 11615
ami 11613
receiving 11612
squash 11611
suck 11609
DON@@ 11608
pets 11606
Ori@@ 11601
cel@@ 11583
hall 11581
adequate 11574
onge 11569
Special 11568
bert 11567
breaded 11564
Los 11564
otta 11564
clams 11564
warning 11562
plane 11561
cigare@@ 11559
Ger@@ 11556
Pet@@ 11555
Chips 11554
ani 11553
styles 11552
Braz@@ 11550
mignon 11541
pricy 11537
vintage 11537
oma 11535
stric@@ 11529
burned 11528
distr@@ 11526
kale 11525
slu@@ 11524
nar@@ 11511
Italy 11510
colo@@ 11507
competitive 11506
geous 11505
hill 11504
Jason 11503
iz@@ 11496
40@@ 11493
soci@@ 11493
lian 11482
feta 11477
dal 11473
bak@@ 11468
ORE 11466
amond 11466
immer 11463
'T 11461
esar 11460
esty 11460
waters 11457
Basically 11456
xing 11456
2014 11451
nurse 11447
instructor 11441
pure 11441
oa 11440
boar@@ 11439
differ@@ 11438
ox@@ 11436
sales@@ 11436
ral 11435
leather 11435
frustrated 11431
wash@@ 11426
Avoid 11426
cone 11426
conveniently 11425
vir@@ 11424
eller 11422
Gilbert 11420
ports 11415
jobs 11413
steal 11412
19 11412
pace 11411
lead 11410
frosting 11407
parked 11405
zucchini 11405
whatsoever 11404
starters 11402
scale 11402
nigiri 11396
Mom 11393
Jack 11393
ions 11386
lasagna 11382
loose 11381
tel 11380
metal 11380
hier 11379
Glad 11371
lies 11369
dur@@ 11368
nitas 11364
flying 11360
excep@@ 11360
patience 11354
minus 11352
stin 11350
queso 11345
volume 11345
book@@ 11341
Dar@@ 11341
Parmesan 11337
anas 11335
spee@@ 11332
tax@@ 11329
unhappy 11328
bis@@ 11328
ghts 11328
charm 11324
laugh 11323
emails 11320
audience 11315
mattress 11314
LOVED 11314
Chili 11313
grade 11312
believ@@ 11307
pickup 11307
surely 11304
crave 11294
nur@@ 11294
drun@@ 11291
length 11289
tually 11287
Spa 11285
ington 11283
collea@@ 11281
Lem@@ 11280
poo@@ 11279
hil@@ 11277
biscuit 11274
Gl@@ 11271
ail@@ 11271
associate 11265
gover 11264
elled 11261
watered 11257
Gord@@ 11256
ells 11251
cho 11246
CU@@ 11246
tail@@ 11246
ele@@ 11243
ancy 11238
caused 11235
Fili@@ 11233
vous 11229
bottled 11229
drizz@@ 11228
n'@@ 11227
pissed 11222
quo@@ 11219
vehicles 11219
ideal 11218
fired 11218
Canadian 11216
Actually 11216
:00@@ 11211
Kin@@ 11204
stran@@ 11203
mosa 11199
blew 11194
church 11194
Tony 11192
financ@@ 11189
apologi@@ 11187
Cr@@ 11187
bas@@ 11186
MO@@ 11183
chedu@@ 11181
unacceptable 11177
Stra@@ 11174
language 11173
dirt 11173
Dog 11168
spi@@ 11168
plea@@ 11166
sport 11162
atur@@ 11161
downhill 11157
Reg@@ 11155
checkout 11152
Meat 11150
sely 11150
supplies 11146
tionally 11146
gratu@@ 11139
Hor@@ 11137
assumed 11136
fail 11135
German 11135
confident 11133
Hol@@ 11131
Buffalo 11130
carte 11128
skewers 11128
mb 11123
success@@ 11119
insi@@ 11117
entry 11116
exchange 11115
requ@@ 11115
consisted 11110
Ore@@ 11109
ente 11108
theirs 11107
tter@@ 11107
deligh@@ 11106
falls 11105
towel 11105
fashi@@ 11104
ona 11099
Mall 11095
consi@@ 11091
strongly 11091
appear 11083
poured 11080
urge 11079
neighbors 11078
Cajun 11075
partments 11071
Seafood 11069
divine 11066
wonder@@ 11064
noti@@ 11059
greeting 11059
attle 11058
recommending 11057
killer 11055
cooler 11050
instructors 11047
risk 11046
Crispy 11046
ince 11046
Bir@@ 11043
laughing 11042
attend 11041
boiled 11041
foam 11040
99 11038
dans 11033
fted 11031
lined 11030
VI@@ 11028
appetizing 11027
braised 11026
chic 11024
exten@@ 11017
lava 11016
safety 11015
ouse 11009
Yelpers 11008
inbow 11005
acknowledged 11004
va@@ 11004
collec@@ 10999
Disappoin@@ 10999
shift 10998
const@@ 10996
Kim 10993
break@@ 10992
flower 10991
mun@@ 10987
Back 10985
needing 10984
freshness 10978
Something 10975
LOT 10974
bree@@ 10972
benefit 10971
Bou@@ 10970
bowling 10969
answers 10967
brands 10966
gement 10965
scar@@ 10965
icial 10965
adise 10964
sometime 10963
hired 10963
tongue 10961
nam@@ 10956
tus 10955
rid 10951
performance 10951
Phone 10943
Ambi@@ 10942
sable 10941
tto@@ 10939
explanation 10938
calories 10931
cise 10931
pushed 10930
una 10926
popped 10925
equ@@ 10924
Manag@@ 10921
exceeded 10916
buil@@ 10914
mless 10912
noted 10911
Road 10911
prescription 10909
beauty 10906
loving 10902
washer 10901
compliment 10893
clientele 10890
oria 10890
dig 10889
painted 10885
stew 10883
TT@@ 10879
Pol@@ 10878
worn 10877
surrounding 10877
bachel@@ 10874
Hollywood 10867
project 10866
tare 10865
parti@@ 10863
Fremont 10863
Rea@@ 10858
ray 10855
Tro@@ 10848
plants 10843
rolling 10841
circu@@ 10839
selec@@ 10837
empl@@ 10832
uring 10829
human 10827
memories 10827
wai@@ 10825
cancelled 10825
mill 10824
Time 10821
zzo 10818
squid 10818
firm 10816
eries 10814
gentle 10811
Sw@@ 10809
arily 10808
intro@@ 10806
ood 10805
wheel 10802
elevators 10800
balsamic 10799
coast 10796
Dep@@ 10791
hio 10787
accompanied 10780
nightmare 10780
sampled 10775
notic@@ 10773
ffing 10773
Eat 10772
iches 10769
everytime 10765
Sty@@ 10762
Hal@@ 10759
Ke@@ 10758
elli 10757
instantly 10757
SP@@ 10750
elegant 10749
outra@@ 10747
DO@@ 10740
Mag@@ 10739
ised 10739
unusual 10739
mmmm 10738
wait@@ 10738
flour 10735
q 10735
esdays 10729
hesitant 10727
enchilada 10725
goodies 10722
encoura@@ 10720
necessarily 10716
pocket 10714
respond 10713
jump 10713
esthe@@ 10713
dden 10712
allows 10712
stir 10710
combinations 10706
leak 10705
phy 10702
establishments 10700
expert 10699
Bow@@ 10699
hoped 10697
tangy 10690
dou@@ 10689
bills 10688
techn@@ 10688
southern 10687
Ich 10686
sooner 10684
FIN@@ 10683
cousin 10681
shoot 10678
therapist 10678
contain@@ 10675
oyster 10673
Orange 10664
:45 10662
stating 10662
brews 10661
wie@@ 10661
spic@@ 10658
treatments 10654
Ci@@ 10651
ceviche 10651
thro@@ 10648
mentary 10647
adas 10645
chow 10645
lic 10639
Wait@@ 10638
tative 10637
Ken@@ 10635
numbers 10633
conference 10632
SE 10631
varieties 10630
feature 10630
couches 10628
War@@ 10623
blowing 10623
ys@@ 10612
punch 10611
sgiving 10608
ership 10605
artists 10605
lor 10601
devel@@ 10600
tab 10599
WAS 10598
apy 10597
toys 10591
remind 10590
Obviously 10588
statement 10588
fajitas 10584
tical 10584
kar@@ 10584
capp@@ 10583
3/@@ 10583
Recently 10580
ttes 10578
ormous 10578
marinara 10577
Hubby 10577
coke 10576
Tip 10576
fredo 10574
techni@@ 10574
acknowledge 10573
brewery 10569
dol@@ 10567
smiles 10567
ene 10564
Village 10563
At@@ 10563
Bab@@ 10562
Shop 10557
1.5 10557
puppy 10555
4.5 10554
degree 10552
Dani@@ 10551
spoiled 10549
manag@@ 10549
thir@@ 10547
The@@ 10545
exer@@ 10538
isa 10531
pay@@ 10526
Walked 10524
Nic@@ 10524
Ber@@ 10523
preference 10523
marks 10521
bounc@@ 10518
master 10517
Burgers 10516
Chinatown 10516
DE@@ 10516
spiced 10516
2017 10514
touched 10504
sear@@ 10501
bird 10500
screaming 10498
mpo@@ 10495
rules 10494
accessories 10492
Cour@@ 10491
installation 10489
haz@@ 10488
reali@@ 10488
ssy 10487
italian 10481
Rob@@ 10479
boss 10478
damaged 10476
TS 10472
equi@@ 10471
seaweed 10470
Je@@ 10467
Jap@@ 10466
iment 10464
rented 10463
q@@ 10462
pino 10461
brary 10458
scrambled 10456
ordin@@ 10455
Boy 10452
selected 10450
crack 10449
East@@ 10447
ARE 10443
golden 10440
surprising 10433
enly 10431
cher@@ 10430
Cas@@ 10427
responsive 10425
brick 10423
dam 10423
rain 10421
Tre@@ 10419
tesy 10418
plant 10417
None 10416
thering 10415
65 10415
Lee 10414
remodel@@ 10413
fi 10413
Someone 10408
Open 10403
tourists 10401
temporary 10395
inedible 10392
recipe 10390
ala@@ 10387
retail 10385
ials 10385
stays 10384
sic 10384
meat@@ 10377
heavenly 10376
ku@@ 10369
gaz@@ 10362
j'@@ 10358
condiments 10356
satisfaction 10352
sont 10352
select 10348
assistance 10345
gres@@ 10345
eve 10338
tomat@@ 10337
ison 10337
lt 10337
jalapeno 10335
mechan@@ 10333
bisque 10327
funky 10326
peach 10323
commend 10322
tw 10318
KS 10315
stops 10315
Poor 10310
confir@@ 10310
essentially 10309
good@@ 10309
cen@@ 10308
Southern 10305
cal 10302
17@@ 10301
waxing 10296
inconvenience 10295
p.@@ 10293
fle@@ 10291
diverse 10285
damame 10284
;@@ 10282
foodie 10276
chops 10274
itute 10268
guarantee 10267
sweets 10265
freund@@ 10263
Golden 10260
MM@@ 10260
drivers 10257
April 10255
born 10238
tably 10237
thri@@ 10235
cornbread 10234
soul 10228
pile 10227
fic 10225
prou@@ 10225
jer@@ 10224
tier 10218
pickle 10214
plied 10213
June 10213
dian 10212
mt 10211
itter 10209
knife 10209
Ed@@ 10209
gan 10208
Store 10207
xe 10205
requi@@ 10205
lied 10205
educ@@ 10204
WILL 10203
Rich@@ 10202
slowly 10198
newer 10198
ür@@ 10195
pric@@ 10193
inger 10192
Fi 10191
dryer 10190
yy@@ 10186
teen 10185
whe@@ 10185
pint 10185
yers 10184
lay 10184
PLACE 10183
refer 10182
55 10182
Lea@@ 10181
Every@@ 10177
file 10177
Bloody 10175
behavi@@ 10174
Cin@@ 10172
cod 10166
erful 10165
own@@ 10163
Sep@@ 10160
hike 10159
redee@@ 10159
rup@@ 10157
ado 10155
bugs 10154
avoi@@ 10153
unfortunate 10152
canned 10150
fer@@ 10147
holes 10147
reached 10147
trail 10143
score 10141
flexi@@ 10141
thankful 10140
bour@@ 10139
success 10139
tiramisu 10136
tric 10136
DELICIOUS 10133
oke 10133
impress 10132
cleared 10132
venture 10131
acts 10130
Tonight 10130
benedict 10129
attemp@@ 10129
aioli 10128
sorts 10127
represen@@ 10123
eer 10123
sig@@ 10120
brow 10119
disappoin@@ 10118
beg@@ 10116
aka 10112
wind@@ 10111
tant 10108
Lamb 10105
Rib 10103
pastrami 10100
hospitality 10099
fused 10094
Der 10094
Inside 10093
piping 10092
bel 10092
tho@@ 10088
pa 10083
tioning 10079
kabo@@ 10077
Normally 10076
invest@@ 10069
advise 10067
draw 10064
dela@@ 10064
aus 10064
purpose 10063
YOUR 10060
grow 10059
artichoke 10058
refun@@ 10058
gogi 10041
tequila 10041
Decor 10039
branch 10034
veg 10031
Scott 10031
pig 10027
mistakes 10025
certific@@ 10020
anced 10017
Ran@@ 10016
gladly 10015
sch 10014
NE@@ 10012
array 10008
pit 10006
Tower 10005
dropping 10002
Aside 10001
declined 9999
ice@@ 9996
occupied 9996
heavi@@ 9994
vie@@ 9991
balcon@@ 9989
Pasta 9988
és 9988
Desert 9988
Auto 9988
AB@@ 9984
vend@@ 9981
dar 9980
bachi 9978
Cir@@ 9977
Sundays 9970
swimming 9969
Guess 9968
enty 9963
ousse 9962
tti 9958
Kind 9958
upper 9957
culinary 9956
asse@@ 9955
enos 9954
switched 9953
Ash@@ 9953
Hy@@ 9953
breath 9952
vis 9952
Cute 9951
Sun 9949
cauliflower 9949
jalapeño 9947
su 9946
central 9943
doub@@ 9941
zel 9939
slot 9938
cit@@ 9938
Waitress 9938
Subway 9933
leading 9932
ideas 9931
arious 9931
ssels 9929
glu@@ 9927
throwing 9925
essen 9924
nen 9924
On@@ 9913
Ambiance 9912
Ur@@ 9911
Holy 9910
aster 9909
vendors 9909
barbecue 9908
chowder 9908
Sea@@ 9904
tossed 9903
terribly 9902
drank 9899
flaky 9898
desig@@ 9893
cones 9892
eria 9891
Jen@@ 9887
impro@@ 9885
answering 9884
flow 9884
4.@@ 9883
unbelievable 9882
politely 9879
Hey 9877
powder 9877
poached 9872
prosciutto 9872
ppies 9871
mie 9868
effici@@ 9866
pistac@@ 9865
eager 9865
ital 9864
ALLY 9864
£ 9864
auf@@ 9855
wooden 9854
Dro@@ 9851
daughters 9847
Paul 9845
smoky 9842
sat@@ 9842
Meh 9842
chon 9842
prix 9840
ratings 9838
mingly 9838
ebook 9838
ala 9834
ism 9832
wonton 9832
individu@@ 9828
Half 9824
license 9821
Salon 9820
moves 9815
ico 9815
insane 9812
milkshake 9812
't 9811
holi@@ 9811
udon 9811
uccino 9810
laun@@ 9808
stickers 9802
oner 9801
gress 9800
etwas 9800
Planet 9795
Thankfully 9794
luckily 9793
amelized 9793
dentally 9792
merci@@ 9792
thank@@ 9792
spare 9790
FYI 9790
mimosas 9790
Jeff 9790
dien@@ 9789
sin 9788
badly 9788
oup 9788
Brian 9788
2013 9787
ple@@ 9786
attending 9784
James 9783
cats 9780
silverware 9777
stories 9775
Str@@ 9773
skim@@ 9772
character 9771
anybody 9768
reviewed 9767
eye@@ 9766
lively 9764
positi@@ 9763
toward 9761
sells 9760
Ever 9755
od 9753
Cle@@ 9752
Die@@ 9745
Hoo@@ 9740
bos 9736
weigh@@ 9736
dairy 9733
macaroni 9733
emailed 9733
wasabi 9729
ane 9729
loss 9729
bin 9725
Hawaii 9725
situ@@ 9724
timi@@ 9723
était 9720
beside 9716
arugula 9716
zum 9711
Should 9709
aigrette 9709
rel 9706
ounding 9701
disgu@@ 9699
Op@@ 9696
rais@@ 9695
Pie 9695
rich@@ 9690
Att@@ 9686
Bring 9686
28 9681
curds 9680
join 9680
log@@ 9678
SH 9676
Duck 9675
og@@ 9673
anticip@@ 9669
coworker 9667
laughed 9666
nings 9666
trim 9665
Wir 9665
tails 9664
facing 9653
Ben@@ 9653
dom 9651
WORST 9645
raved 9644
atu@@ 9643
patties 9643
busi@@ 9642
whom 9640
vers@@ 9638
wher@@ 9638
alcoholic 9637
organiz@@ 9637
Goo@@ 9635
gly 9634
ahi 9630
singing 9629
unpleasant 9629
diti@@ 9629
desc@@ 9629
cases 9629
opens 9628
flatbread 9627
mper 9627
Stop 9626
best@@ 9623
comped 9618
breading 9617
married 9616
Roy@@ 9616
:15 9608
boot 9607
clam 9606
Din@@ 9605
themed 9601
Hil@@ 9598
Spa@@ 9597
HORRIBLE 9594
PH@@ 9593
inven@@ 9591
August 9584
Good@@ 9581
rudely 9579
Ave 9577
merchan@@ 9576
nies 9576
scallop 9574
pitcher 9572
layers 9569
focused 9565
asted 9559
thre@@ 9554
inj@@ 9547
Comp@@ 9547
alit@@ 9545
George 9544
esars 9537
contac@@ 9537
See@@ 9533
hallway 9532
airy 9529
itters 9527
tout 9527
Alex 9526
HAVE 9525
luxury 9523
24/@@ 9519
Tim 9518
paste 9517
Regar@@ 9517
ath@@ 9515
convinced 9514
escape 9511
immy 9511
Jac@@ 9510
rs 9505
dust 9504
nose 9503
alu@@ 9501
sha 9497
World 9495
tz 9491
combined 9490
turning 9490
March 9488
icht 9487
appearance 9486
John@@ 9485
painful 9485
study 9483
grounds 9482
Guys 9482
Simply 9479
ouring 9473
miser@@ 9470
Tom@@ 9468
Ohio 9467
Doc@@ 9464
shade 9460
decorations 9457
path 9456
mbers 9455
bien 9455
nis 9453
learning 9449
reviewer 9448
superior 9448
West@@ 9447
ato 9444
décor 9443
how@@ 9442
pref@@ 9441
uti@@ 9438
A+ 9438
timately 9437
gifts 9434
latest 9434
lb 9433
acy 9431
WTF 9430
Dan 9425
trou@@ 9419
Rio 9417
pillows 9417
einem 9417
confi@@ 9416
General 9415
sending 9411
class@@ 9408
attractive 9401
osed 9399
memory 9399
FREE 9397
todd@@ 9396
Foods 9389
lighter 9388
posed 9388
owed 9381
jelly 9379
spect 9378
Decided 9376
guil@@ 9376
BLT 9373
itness 9372
MI@@ 9371
list@@ 9371
Cheap 9369
nach 9369
5th 9367
traditi@@ 9364
shady 9364
PER 9362
za@@ 9361
cracked 9351
unfriendly 9348
Nope 9347
Hun@@ 9346
shaped 9342
Kevin 9338
plat@@ 9334
exit 9333
muffins 9332
feedback 9330
bli@@ 9329
skin@@ 9328
Whenever 9324
Hope 9320
jeans 9317
meaty 9316
aspect 9316
shield 9314
AGA@@ 9314
Om@@ 9314
Thank@@ 9313
ppl 9313
Burrito 9311
itos 9310
fixing 9310
sand@@ 9308
Mush@@ 9305
battered 9305
Nev@@ 9304
Lux@@ 9295
carpets 9294
remark@@ 9288
Mexico 9287
Reason@@ 9287
bones 9285
Noodles 9282
tender@@ 9279
Whatever 9278
celebra@@ 9278
ok@@ 9277
Prime 9277
rer 9276
servings 9273
notes 9273
conversations 9273
sky 9269
navi@@ 9268
Chil@@ 9266
c'est 9265
lion 9265
Cake 9265
Station 9263
wind 9261
pois@@ 9257
TW@@ 9248
Yog@@ 9247
chim@@ 9245
attempted 9244
boutique 9243
dipped 9238
liness 9238
Off@@ 9236
ota 9235
lectic 9231
status 9230
Music 9229
tipped 9229
OUT 9218
Bal@@ 9216
kah 9215
Super@@ 9210
mingo 9210
Unless 9208
i.e. 9206
deciding 9206
Inn 9206
ingredi@@ 9205
ose@@ 9204
Summerlin 9204
pro 9199
ré@@ 9192
THEY 9187
Owner 9187
turous 9186
MU@@ 9184
accessible 9183
amer@@ 9182
explore 9180
screwed 9180
storage 9177
gibt 9175
lugg@@ 9173
shown 9168
featured 9166
lev@@ 9166
extra@@ 9164
Noodle 9164
excu@@ 9163
Tasty 9161
Fun@@ 9160
duce 9160
sue 9159
limit 9158
Pala@@ 9157
subs 9157
estim@@ 9156
Additi@@ 9156
mixture 9153
direct 9151
appreci@@ 9148
tec@@ 9145
therefore 9144
invited 9142
expi@@ 9141
oughly 9138
renovated 9137
Whole 9137
girlfriends 9135
manu@@ 9131
yelp.@@ 9129
adjust@@ 9128
wel@@ 9126
IC 9125
utensils 9125
GE 9125
ssel 9124
photo@@ 9124
attoo@@ 9120
ignore 9118
knots 9117
chur@@ 9117
karaoke 9115
island 9112
entic@@ 9112
clerk 9111
panini 9111
Butter 9111
occasionally 9109
campus 9104
cafeteria 9103
aya 9103
haben 9103
eh 9102
mach@@ 9101
Lad@@ 9099
eved 9098
sheets 9093
soaked 9093
toes 9092
sci@@ 9092
fishy 9089
alized 9088
refuse 9085
western 9085
fts 9075
dise 9072
cue 9070
accompan@@ 9063
Z 9031
clear@@ 9019
ury 9008
Gla@@ 9006
ç@@ 8996
imp@@ 8993
pedic@@ 8990
Yor@@ 8979
frequ@@ 8960
lows 8959
quick@@ 8957
replac@@ 8947
van@@ 8940
que@@ 8940
agre@@ 8939
tioned 8936
brows 8935
BL@@ 8926
of@@ 8901
singly 8899
BB@@ 8895
sor 8874
coll@@ 8873
timate 8872
promis@@ 8869
qua@@ 8855
elec@@ 8836
iterally 8830
alley 8820
ris 8814
scrat@@ 8763
anch 8727
hesit@@ 8725
Ac@@ 8709
conven@@ 8695
ecake 8683
too@@ 8669
entive 8658
fu 8616
anks 8612
smooth@@ 8594
AA@@ 8587
revie@@ 8568
icy 8550
GA@@ 8536
fills 8528
zo 8514
confu@@ 8503
cin@@ 8490
spa@@ 8481
tered 8452
pract@@ 8445
toma@@ 8443
Blu@@ 8401
neighb@@ 8400
regar@@ 8345
provi@@ 8339
Aw@@ 8335
tral 8334
joy 8328
nap@@ 8303
nois@@ 8295
mark@@ 8286
grab@@ 8285
cashi@@ 8270
wra@@ 8268
inging 8260
pean@@ 8222
stron@@ 8187
veral 8182
dea@@ 8165
manic@@ 8150
press 8139
boun@@ 8135
Some@@ 8125
indu@@ 8092
WOR@@ 8092
spin@@ 8081
ord 8071
patr@@ 8071
theat@@ 8042
ored 8023
atoes 8013
lear@@ 8009
ators 7999
ilet 7993
mond 7987
scre@@ 7981
regre@@ 7975
@@@ 7970
croiss@@ 7968
BLE 7966
insan@@ 7949
tato 7926
reco@@ 7926
compar@@ 7919
dale 7919
McDonal@@ 7892
tically 7887
ener@@ 7883
not@@ 7879
lin 7864
gge@@ 7860
tto 7856
loy@@ 7836
gram 7834
hus@@ 7810
dumpl@@ 7810
hea@@ 7778
Past@@ 7774
ggy 7773
hat@@ 7765
amari 7764
wave 7757
wea@@ 7754
lier 7748
Perf@@ 7729
sessi@@ 7703
sett@@ 7697
Fro@@ 7688
purcha@@ 7673
sel 7656
ous@@ 7649
guarante@@ 7633
vegetari@@ 7621
vide@@ 7611
accom@@ 7608
nd 7605
prescri@@ 7577
ase 7575
lux@@ 7565
ounge 7563
aller 7561
connec@@ 7548
.9@@ 7513
mart 7509
encou@@ 7508
wers 7504
memor@@ 7486
lemon@@ 7471
Gener@@ 7461
child@@ 7450
Ven@@ 7442
wr@@ 7440
tween 7440
fee@@ 7440
pizz@@ 7438
YU@@ 7417
#@@ 7415
loor 7414
gentle@@ 7397
Bac@@ 7396
ety 7389
ign@@ 7379
immedi@@ 7365
fying 7334
proper@@ 7333
dict 7321
rat@@ 7311
spit@@ 7302
YO@@ 7293
atte 7290
gor@@ 7268
achi 7263
orean 7262
sampl@@ 7261
stru@@ 7259
ske@@ 7257
natur@@ 7247
popu@@ 7246
Men@@ 7246
dible 7242
Bea@@ 7238
mont 7227
sual 7226
Squ@@ 7222
cation 7209
ß 7208
Tem@@ 7203
ffed 7202
dit 7189
cable 7171
sil 7154
ham@@ 7136
adju@@ 7121
sp 7114
Satur@@ 7094
fü@@ 7094
dable 7080
verse 7071
sada 7063
fortun@@ 7061
Rec@@ 7048
scri@@ 7048
stry 7038
sweet@@ 7008
aca@@ 7001
OUR 7001
happ@@ 6995
attered 6990
shoul@@ 6986
eck 6984
ucc@@ 6958
ily 6934
!!@@ 6930
iously 6928
milk@@ 6922
hai 6909
lla 6891
nivers@@ 6882
avo@@ 6882
，@@ 6877
mosas 6854
comb@@ 6837
icip@@ 6831
mel 6818
fortunate 6816
ention 6797
kins 6792
wee@@ 6789
fron@@ 6779
pepper@@ 6773
Lar@@ 6766
Sur@@ 6766
custom@@ 6765
und@@ 6749
expla@@ 6749
oli 6746
bath@@ 6745
ular 6744
experienc@@ 6742
FRE@@ 6741
esti@@ 6733
occasi@@ 6727
thor@@ 6719
solu@@ 6705
suppl@@ 6704
sche@@ 6702
divi@@ 6695
Speci@@ 6695
native 6692
anese 6665
ILL 6648
sually 6633
duced 6613
ppl@@ 6605
kil@@ 6591
earing 6584
Cri@@ 6570
GM 6553
nec@@ 6539
bud@@ 6528
oods 6522
eld 6516
ject 6507
Jam@@ 6507
flavor@@ 6506
Restaur@@ 6499
entic 6493
stac@@ 6483
perfec@@ 6481
luc@@ 6471
jalap@@ 6466
hospit@@ 6462
warma 6449
fs 6424
impres@@ 6417
tat@@ 6399
red@@ 6393
lled 6389
Brea@@ 6380
concer@@ 6374
beli@@ 6350
resul@@ 6347
sugge@@ 6323
favor@@ 6316
OME 6302
mix@@ 6302
clas@@ 6290
lefto@@ 6280
thday 6274
erred 6271
erence 6262
oes 6238
ross 6237
purpo@@ 6221
lett@@ 6217
fav@@ 6205
fir@@ 6204
wat@@ 6198
thern 6191
carr@@ 6188
avail@@ 6179
cucu@@ 6169
AW@@ 6167
yaki 6159
grou@@ 6154
Caf@@ 6151
cado 6124
Gol@@ 6116
ough@@ 6115
charac@@ 6112
ress 6107
thr@@ 6104
season@@ 6103
diffic@@ 6103
pitch@@ 6095
attitu@@ 6089
refu@@ 6080
unbeliev@@ 6065
flat@@ 6057
adv@@ 6048
yn@@ 6046
dicul@@ 6045
egg@@ 6037
restaur@@ 6033
enjo@@ 6031
boy@@ 6026
ential 6022
upgra@@ 5996
alled 5968
tely 5962
amaz@@ 5943
esterday 5940
martin@@ 5935
etari@@ 5930
jun 5924
close@@ 5910
achos 5907
bble 5894
bow 5881
dam@@ 5859
NY@@ 5855
assor@@ 5847
chun@@ 5836
accord@@ 5801
quil@@ 5791
getic 5788
sket 5787
imag@@ 5785
Des@@ 5742
cock@@ 5734
steak@@ 5733
impor@@ 5724
gol@@ 5700
Mic@@ 5663
eas 5659
ô@@ 5652
ount 5643
corn@@ 5628
kee@@ 5625
Desser@@ 5619
vid 5616
fig@@ 5606
entially 5593
SER@@ 5586
fair@@ 5563
recei@@ 5557
repa@@ 5555
lau@@ 5551
retur@@ 5550
Won@@ 5544
bulous 5542
mmer@@ 5540
seum 5532
Mand@@ 5526
begin@@ 5526
shimi 5521
lowed 5520
leng@@ 5507
ment@@ 5505
Pho@@ 5489
lob@@ 5483
esp@@ 5483
jalapeñ@@ 5454
marin@@ 5442
pared 5434
mole 5431
HU@@ 5427
organ@@ 5414
ssen 5407
surpri@@ 5403
commun@@ 5399
mely 5398
quesad@@ 5396
conut 5387
Sandw@@ 5386
mista@@ 5371
eeded 5365
ès 5347
Avo@@ 5325
erk 5321
ele 5317
revi@@ 5311
warran@@ 5309
switch@@ 5305
mum 5304
ani@@ 5294
promp@@ 5292
RIBLE 5277
.5 5274
abo@@ 5271
recom@@ 5268
appropri@@ 5267
satisfac@@ 5258
blu@@ 5243
favour@@ 5235
neighbor@@ 5218
check@@ 5205
itten 5201
ari 5187
invol@@ 5171
cup@@ 5169
omel@@ 5166
hall@@ 5155
effor@@ 5149
ret 5121
appoin@@ 5100
pest 5095
的@@ 5095
AY@@ 5069
tations 5052
priv@@ 5045
wy 5031
'est 5030
gry 5005
estern 4996
screa@@ 4986
employ@@ 4965
bt 4942
pepp@@ 4941
ired 4941
hip@@ 4936
terri@@ 4934
ome 4920
ption 4918
led@@ 4908
specially 4889
premi@@ 4878
chop@@ 4877
urity 4874
request@@ 4873
laugh@@ 4873
urt 4868
stom@@ 4864
:-@@ 4851
artic@@ 4838
oor 4806
opin@@ 4801
chea@@ 4794
vement 4784
iyaki 4783
ior 4782
presen@@ 4777
ador@@ 4764
ieve 4752
eted 4736
enix 4732
certi@@ 4722
with@@ 4716
mosp@@ 4703
hou@@ 4700
nific@@ 4693
possi@@ 4690
esto 4688
fianc@@ 4670
conf@@ 4649
instal@@ 4631
Luc@@ 4609
oom 4602
vice 4601
rel@@ 4594
lat@@ 4572
diff@@ 4568
big@@ 4567
lege 4541
blue@@ 4523
ler@@ 4518
chin@@ 4512
â@@ 4498
easi@@ 4489
amel 4466
contro@@ 4465
gio 4418
eno@@ 4410
gria 4408
uce 4407
Eng@@ 4407
temper@@ 4401
http://@@ 4395
gency 4381
imi 4380
oran@@ 4322
flav@@ 4310
sag@@ 4301
additi@@ 4294
ility 4274
bling 4272
tally 4262
atty 4247
buff@@ 4238
overwhel@@ 4219
therapi@@ 4206
reserv@@ 4204
atsu 4202
Ital@@ 4193
stard 4176
inks 4172
awk@@ 4170
polit@@ 4122
pura 4114
ide@@ 4092
illage 4066
OUS 4034
emer@@ 3983
itali@@ 3970
illa@@ 3967
apo@@ 3956
wel 3947
else@@ 3936
Sor@@ 3933
tio 3910
pick@@ 3896
incor@@ 3887
construc@@ 3881
recep@@ 3869
pons 3867
mmus 3861
beye 3854
ellar 3832
gent@@ 3828
stat@@ 3827
establi@@ 3802
ghetti 3795
acamole 3794
local@@ 3784
Tow@@ 3761
performan@@ 3760
omele@@ 3754
youn@@ 3750
condi@@ 3749
tren@@ 3741
pid 3730
absolu@@ 3730
ocre 3717
eapple 3713
cuis@@ 3709
origin@@ 3699
Wedn@@ 3698
conveni@@ 3687
deta@@ 3687
tment 3686
barbe@@ 3685
Mont@@ 3676
focu@@ 3666
simil@@ 3664
efore 3656
Jas@@ 3656
crow@@ 3648
volu@@ 3629
Down@@ 3628
recomm@@ 3624
sandw@@ 3619
prote@@ 3609
ramisu 3606
accur@@ 3605
weed 3602
bow@@ 3598
hic@@ 3596
faj@@ 3591
mily 3582
gi 3577
div@@ 3572
issed 3572
contin@@ 3558
cle@@ 3552
dama@@ 3549
esa 3548
ination 3538
ema@@ 3538
ories 3521
chec@@ 3503
ww@@ 3490
knowledg@@ 3490
blic 3489
smoo@@ 3477
éta@@ 3475
selves 3463
porate 3463
esca@@ 3460
spy 3458
Thurs@@ 3434
ynn 3427
occu@@ 3401
tick@@ 3397
ached 3386
regu@@ 3374
tainly 3373
----@@ 3367
ppings 3362
assu@@ 3360
initi@@ 3359
www.@@ 3343
Ob@@ 3341
ambi@@ 3335
^@@ 3333
000 3323
gir@@ 3318
llas 3318
your@@ 3314
Geor@@ 3293
eleg@@ 3285
enjoy@@ 3284
ittle 3279
jal@@ 3276
experi@@ 3274
%@@ 3274
doc@@ 3257
Grou@@ 3248
ñ@@ 3247
onds 3234
clin@@ 3230
com 3230
quant@@ 3228
DEL@@ 3227
kni@@ 3225
opportun@@ 3222
partment 3220
Buff@@ 3219
kim@@ 3218
flavour@@ 3209
outh 3209
nigh@@ 3202
eta 3193
tionist 3174
Stre@@ 3157
burgh 3151
ugh@@ 3145
oughout 3136
rish 3135
make@@ 3122
orizo 3119
compla@@ 3116
GRE@@ 3103
lik@@ 3089
fornia 3084
esome 3071
necess@@ 3070
ecu@@ 3069
articho@@ 3069
assist@@ 3069
tique 3067
dest@@ 3054
­@@ 3039
beau@@ 3030
them@@ 3029
fel@@ 3027
。@@ 3021
aga@@ 3012
ourmet 3010
Lam@@ 3007
tioni@@ 3005
what@@ 2994
help@@ 2990
etnamese 2988
web@@ 2982
surance 2982
mpkin 2979
ilities 2965
vineg@@ 2957
wery 2953
eca@@ 2952
Nee@@ 2950
antast@@ 2949
で@@ 2943
perf@@ 2942
Plan@@ 2942
every@@ 2940
lars 2938
entre@@ 2933
crun@@ 2924
vered 2920
î@@ 2918
sul@@ 2915
の@@ 2914
ope 2912
LOVE@@ 2904
zzarella 2903
| 2899
alo 2880
namon 2879
cheese@@ 2873
`@@ 2851
cev@@ 2844
、@@ 2838
violi 2832
Pau@@ 2828
ester@@ 2824
pleas@@ 2807
Joh@@ 2804
Summer@@ 2798
issu@@ 2793
complet@@ 2777
esday 2772
batter@@ 2760
satis@@ 2753
jewel@@ 2751
rememb@@ 2743
afel 2736
dir@@ 2725
api@@ 2719
し@@ 2706
multi@@ 2700
figu@@ 2700
foot@@ 2698
beha@@ 2698
interest@@ 2697
import@@ 2693
Bee@@ 2692
Sub@@ 2690
Ari@@ 2672
fortunately 2671
topus 2663
thu@@ 2653
spberry 2632
ttsdale 2631
nia 2628
zza 2626
。 2626
inclu@@ 2620
い@@ 2612
fini@@ 2608
advis@@ 2605
Happ@@ 2604
sotto 2599
camp@@ 2592
acknowled@@ 2590
succ@@ 2586
amel@@ 2581
oth@@ 2578
Ow@@ 2575
allen@@ 2567
Mex@@ 2566
Tex@@ 2565
iry 2565
yog@@ 2564
aren@@ 2561
ggest 2561
nocchi 2554
ritos 2544
Eu@@ 2541
ccoli 2537
rently 2535
Chin@@ 2529
Custom@@ 2524
mattre@@ 2522
á@@ 2513
prob@@ 2509
\@@ 2506
refre@@ 2499
choo@@ 2490
lowers 2487
aoke 2482
consist@@ 2479
tments 2472
pment 2471
Mr@@ 2471
^ 2460
AMA@@ 2455
eci@@ 2430
resses 2429
roman@@ 2422
know@@ 2422
€ 2411
sion@@ 2405
schetta 2405
Cali@@ 2402
name@@ 2399
Eg@@ 2394
niture 2393
http@@ 2380
ó@@ 2378
://@@ 2373
fem@@ 2372
tow@@ 2351
esad@@ 2345
environ@@ 2342
sagna 2339
eting 2337
reason@@ 2337
loa@@ 2329
vious 2324
Clu@@ 2317
explan@@ 2316
WO@@ 2316
amen@@ 2301
giri 2299
Donal@@ 2291
viron@@ 2274
maj@@ 2265
WT@@ 2259
í@@ 2259
bage 2244
ー@@ 2238
enomenal 2233
memb@@ 2233
anim@@ 2231
hass@@ 2227
spectac@@ 2224
mpagne 2216
Wonder@@ 2211
appet@@ 2209
lagio 2200
bedr@@ 2182
inations 2180
ender@@ 2171
ests 2169
pop@@ 2164
是@@ 2158
teous 2154
ù 2148
affor@@ 2148
smil@@ 2144
usu@@ 2138
partic@@ 2131
gust 2120
top@@ 2104
stem 2095
sabi 2094
proble@@ 2079
urry 2075
Gil@@ 2053
resp@@ 2044
eese 2030
intenance 2026
adequ@@ 2025
lotte 2018
quila 2018
wood@@ 2015
sciutto 2006
alapeñ@@ 2002
sparagus 1999
swim@@ 1987
ied 1970
actu@@ 1955
ickers 1954
chow@@ 1941
niversary 1908
mazing 1893
Spic@@ 1893
elp 1892
て@@ 1890
agno@@ 1888
vantage 1887
Thur@@ 1883
gredi@@ 1864
entious 1854
一@@ 1852
が@@ 1851
fically 1849
inely 1837
tempor@@ 1836
perior 1834
Chea@@ 1829
busin@@ 1828
Ü@@ 1824
た@@ 1821
whel@@ 1817
atown 1813
sels 1808
onal@@ 1799
YS 1797
ま@@ 1796
pple 1793
set@@ 1787
other@@ 1786
occa@@ 1784
tee@@ 1781
に@@ 1775
不@@ 1766
muff@@ 1766
は@@ 1765
irst 1764
pon 1753
lex 1743
Tac@@ 1743
andler 1735
Med@@ 1735
depos@@ 1716
gnon 1711
ZING 1710
famil@@ 1708
stries 1700
rd 1700
teria 1677
itts@@ 1674
entertain@@ 1665
ruc@@ 1664
Cana@@ 1661
Chic@@ 1658
conversa@@ 1656
impec@@ 1656
{ 1642
liflower 1640
coho@@ 1633
mous 1633
level@@ 1633
も@@ 1629
icken 1627
} 1613
ularly 1612
ante@@ 1608
ccol@@ 1593
loca@@ 1585
mple 1575
offee 1575
convinc@@ 1568
andw@@ 1560
guar@@ 1555
embar@@ 1552
有@@ 1551
tts@@ 1547
な@@ 1546
と@@ 1544
deed 1540
Isl@@ 1516
orly 1515
estab@@ 1504
dison 1501
Wed@@ 1499
acho@@ 1488
iterranean 1485
stead 1477
surg@@ 1470
pare 1469
gula 1467
groc@@ 1464
Pitts@@ 1459
° 1455
thes 1452
quest@@ 1444
À 1418
eah 1417
好@@ 1407
chup 1406
i.@@ 1402
Micha@@ 1396
famili@@ 1393
味@@ 1389
vory 1388
skep@@ 1385
Vs 1382
astly 1375
mise 1361
presso 1355
sappoin@@ 1346
っ@@ 1343
again@@ 1337
PLA@@ 1329
ucchini 1327
か@@ 1307
adver@@ 1306
rents 1304
scallo@@ 1304
ス@@ 1304
itely 1303
zona 1302
ult 1297
！ 1297
RY@@ 1291
eslaw 1288
HOR@@ 1287
IOUS 1280
verages 1279
Beauti@@ 1278
pied 1275
exter@@ 1261
access@@ 1258
esa@@ 1257
clea@@ 1253
shee@@ 1253
leveland 1252
rench 1239
dely 1233
ave@@ 1229
enomen@@ 1216
shir@@ 1212
ilantro 1208
bene@@ 1203
É@@ 1201
人@@ 1200
encoun@@ 1191
Span@@ 1183
hind 1178
\ 1174
！@@ 1168
appeal@@ 1147
beauti@@ 1147
ン@@ 1145
paper@@ 1144
samic 1139
thly 1132
client@@ 1131
www@@ 1131
slow@@ 1130
incre@@ 1119
í 1112
blon@@ 1108
り@@ 1103
passion@@ 1096
redded 1096
る@@ 1090
す@@ 1087
appear@@ 1081
ults 1077
餐@@ 1066
bott@@ 1064
stco 1062
我@@ 1055
vege@@ 1053
ateful 1052
食@@ 1052
œ@@ 1040
mare 1040
è 1028
alay 1024
igno@@ 1021
audi@@ 1011
heaven@@ 1007
apolo@@ 1006
​ 1000
bey@@ 1000
take@@ 996
く@@ 996
rots 984
吃@@ 983
Loc@@ 980
evin 974
ecially 972
desser@@ 970
Simp@@ 967
genu@@ 966
Ö@@ 960
在@@ 953
Nood@@ 951
Sad@@ 950
cor 949
cele@@ 947
near@@ 947
appeti@@ 946
langu@@ 942
tes@@ 942
Ç@@ 940
了@@ 930
etian 920
gare@@ 918
ffic 914
ü 913
大@@ 905
haps 902
neighbour@@ 899
very@@ 899
ú@@ 897
Friend@@ 896
minut@@ 895
店@@ 884
accessi@@ 878
bster 873
ら@@ 871
toge@@ 870
` 850
Hawai@@ 849
margar@@ 847
都@@ 845
多@@ 841
compu@@ 833
e. 832
を@@ 825
れ@@ 822
以@@ 814
Deci@@ 814
informa@@ 812
rup 810
exac@@ 804
arella 801
gni@@ 796
到@@ 796
á 788
appetiz@@ 788
美@@ 777
ellent 775
ade@@ 761
finitely 759
就@@ 758
noc@@ 756
[@@ 754
す 751
肉@@ 745
mally 743
ó 743
offer@@ 737
來@@ 735
sapp@@ 732
vod@@ 729
windo@@ 727
torti@@ 720
nood@@ 716
esit@@ 714
こ@@ 706
很@@ 703
あ@@ 703
enderson 699
cafe@@ 692
alcoho@@ 692
mush@@ 687
也@@ 685
ラ@@ 685
//@@ 684
piec@@ 671
FY@@ 668
wom@@ 667
う@@ 666
eties 660
etti 655
aru@@ 653
Amer@@ 651
上@@ 646
vise 646
ル@@ 646
ト@@ 642
ummy 641
frustr@@ 640
中@@ 632
fore 630
可@@ 628
rito 627
お@@ 620
OOD 619
merous 617
ん@@ 614
ッ@@ 613
¢ 610
lef@@ 607
å 604
nch 601
dback 599
girl@@ 599
き@@ 595
lywood 594
Ä@@ 584
oppo@@ 583
suggest@@ 574
本@@ 570
custo@@ 562
|@@ 557
him@@ 556
菜@@ 553
ould 550
ã@@ 547
kay 544
dividu@@ 543
touri@@ 543
ï@@ 541
感@@ 539
要@@ 537
時@@ 533
rimp 524
イ@@ 520
日@@ 517
ext 516
小@@ 509
這@@ 508
リ@@ 505
用@@ 503
silver@@ 503
點@@ 497
得@@ 493
ë@@ 487
来@@ 484
® 484
さ@@ 483
utto 476
SERVI@@ 475
ridicul@@ 469
desp@@ 463
How@@ 459
但@@ 459
knowled@@ 459
地@@ 459
raid 457
rote 456
dinburgh 450
間@@ 448
口@@ 445
What@@ 444
mosphere 442
enchil@@ 436
料@@ 434
牛@@ 433
culin@@ 433
‍ 429
和@@ 429
出@@ 428
friger@@ 427
treat@@ 422
下@@ 419
レ@@ 418
道@@ 417
自@@ 415
面@@ 412
家@@ 412
casin@@ 408
た 407
mpag@@ 406
最@@ 406
比@@ 398
分@@ 396
chini 394
品@@ 394
個@@ 393
だ@@ 388
服@@ 386
incredi@@ 385
recommen@@ 384
å@@ 384
ilan@@ 382
™ 381
少@@ 380
ク@@ 376
香@@ 375
¡ 374
个@@ 372
度@@ 372
タ@@ 371
フ@@ 370
け@@ 370
カ@@ 369
去@@ 364
過@@ 364
所@@ 363
WAYS 361
然@@ 359
cabb@@ 358
， 358
kily 357
メ@@ 356
safe@@ 355
» 354
位@@ 354
方@@ 353
ち@@ 351
§ 351
前@@ 349
行@@ 348
ア@@ 348
理@@ 348
常@@ 347
´@@ 346
« 346
ど@@ 344
チ@@ 343
外@@ 341
ò 336
そ@@ 334
シ@@ 334
ド@@ 333
sparag@@ 330
iterran@@ 330
û 328
· 328
べ@@ 326
テ@@ 324
onalism 322
点@@ 320
め@@ 320
式@@ 318
veggi@@ 317
入@@ 317
grette 314
cooki@@ 314
物@@ 313
唔@@ 313
DELIC@@ 312
非@@ 311
staur@@ 310
看@@ 310
/or 308
特@@ 305
‼ 305
加@@ 302
還@@ 302
而@@ 301
み@@ 301
其@@ 299
straw@@ 298
他@@ 298
オ@@ 298
次@@ 297
¯@@ 297
​@@ 294
よ@@ 294
movi@@ 291
ø@@ 291
為@@ 288
真@@ 285
算@@ 282
太@@ 282
心@@ 282
misu 281
bably 280
系@@ 280
ched@@ 279
高@@ 279
ghly 279
水@@ 278
nother 277
这@@ 277
子@@ 276
还@@ 276
想@@ 275
}@@ 275
等@@ 274
會@@ 272
種@@ 271
etname@@ 270
プ@@ 269
せ@@ 269
つ@@ 267
係@@ 265
AWES@@ 264
や@@ 264
]@@ 263
之@@ 263
生@@ 261
果@@ 259
排@@ 257
風@@ 257
entiful 250
能@@ 250
内@@ 250
£@@ 249
バ@@ 249
同@@ 249
茶@@ 248
後@@ 248
ベ@@ 248
サ@@ 247
客@@ 247
ì 246
名@@ 246
à@@ 243
裡@@ 243
ジ@@ 239
與@@ 237
起@@ 235
包@@ 234
超@@ 233
甜@@ 233
合@@ 232
pril 232
welcom@@ 232
新@@ 231
ロ@@ 231
意@@ 231
色@@ 230
phar@@ 228
ortun@@ 226
ガ@@ 226
ı@@ 225
天@@ 224
廳@@ 223
讓@@ 222
ツ@@ 217
格@@ 216
如@@ 215
（@@ 214
著@@ 214
thusi@@ 213
rible 213
degre@@ 210
€@@ 210
思@@ 210
没@@ 209
再@@ 209
受@@ 209
‼@@ 209
わ@@ 209
过@@ 208
们@@ 208
因@@ 208
你@@ 207
ュ@@ 207
近@@ 207
當@@ 206
相@@ 206
ybe 204
え@@ 203
ï 203
又@@ 203
酒@@ 203
無@@ 202
類@@ 200
油@@ 200
們@@ 198
烤@@ 197
neigh@@ 196
場@@ 196
）@@ 196
viously 194
daugh@@ 194
会@@ 192
ô 192
コ@@ 192
weet 191
量@@ 191
answ@@ 191
ビ@@ 190
些@@ 189
気@@ 189
見@@ 189
vehic@@ 188
间@@ 188
三@@ 188
É 187
完@@ 187
全@@ 187
ú 187
良@@ 187
嘅@@ 187
biscu@@ 186
时@@ 186
魚@@ 185
鮮@@ 185
パ@@ 184
国@@ 182
务@@ 181
estly 181
只@@ 181
開@@ 181
peñ@@ 180
各@@ 180
司@@ 179
featu@@ 178
海@@ 178
西@@ 178
ナ@@ 178
回@@ 178
更@@ 178
知@@ 177
キ@@ 177
飲@@ 176
い 175
選@@ 175
几@@ 175
米@@ 175
且@@ 173
主@@ 173
明@@ 173
推@@ 172
帶@@ 172
內@@ 172
ブ@@ 172
覺@@ 171
establish@@ 170
助@@ 170
拉@@ 169
價@@ 167
通@@ 165
足@@ 164
友@@ 164
說@@ 163
喜@@ 163
后@@ 163
豆@@ 163
手@@ 163
ople 162
作@@ 162
辣@@ 162
現@@ 162
æ@@ 161
ウ@@ 161
賭@@ 161
份@@ 160
ダ@@ 160
的 159
じ@@ 158
价@@ 157
部@@ 157
ェ@@ 157
配@@ 157
麵@@ 157
員@@ 156
做@@ 156
般@@ 155
沒@@ 155
於@@ 155
那@@ 155
ō 154
實@@ 153
数@@ 152
定@@ 152
ニ@@ 151
屋@@ 150
炒@@ 149
mply 148
提@@ 148
像@@ 148
事@@ 147
經@@ 147
老@@ 147
對@@ 146
成@@ 146
ャ@@ 145
egas 143
城@@ 143
ä 142
務@@ 142
文@@ 141
里@@ 141
年@@ 141
ホ@@ 140
整@@ 139
話@@ 139
ither 138
炸@@ 138
ム@@ 138
早@@ 138
说@@ 137
材@@ 137
kfast 136
蛋@@ 136
呢@@ 136
ィ@@ 135
空@@ 135
粉@@ 135
便@@ 134
×@@ 133
蟹@@ 133
错@@ 133
¯ 132
較@@ 131
錯@@ 131
或@@ 130
設@@ 130
ず@@ 129
‍@@ 128
ば@@ 128
マ@@ 128
花@@ 128
了 127
デ@@ 127
頭@@ 127
國@@ 127
为@@ 126
recommenda@@ 126
放@@ 126
台@@ 126
idea@@ 125
候@@ 125
？@@ 125
汁@@ 125
湯@@ 125
ご@@ 124
富@@ 124
二@@ 124
今@@ 123
原@@ 123
ょ@@ 122
飯@@ 121
雖@@ 121
重@@ 121
利@@ 120
¿ 120
安@@ 119
住@@ 119
グ@@ 119
十@@ 119
asy 119
当@@ 119
光@@ 119
身@@ 119
无@@ 119
larly 118
直@@ 118
朋@@ 118
法@@ 117
Beca@@ 117
旅@@ 117
別@@ 117
容@@ 117
装@@ 116
置@@ 116
tomor@@ 116
待@@ 116
供@@ 116
私@@ 116
È@@ 115
每@@ 115
段@@ 115
金@@ 115
接@@ 114
正@@ 114
跟@@ 114
期@@ 114
已@@ 114
¢@@ 113
打@@ 113
清@@ 113
ョ@@ 112
落@@ 112
試@@ 112
體@@ 111
質@@ 111
糕@@ 111
colate 110
字@@ 110
精@@ 110
edure 110
觉@@ 110
牌@@ 110
注@@ 109
ゃ@@ 109
醬@@ 109
」@@ 109
晚@@ 109
氣@@ 109
奶@@ 108
·@@ 108
幾@@ 107
门@@ 106
市@@ 106
员@@ 106
蝦@@ 106
） 106
滿@@ 106
麻@@ 106
ı 105
沙@@ 105
白@@ 105
ê 105
熱@@ 105
境@@ 104
片@@ 104
性@@ 103
ö 103
單@@ 103
楽@@ 102
先@@ 102
樣@@ 102
館@@ 102
甘@@ 102
么@@ 101
ズ@@ 101
切@@ 101
半@@ 101
第@@ 101
别@@ 100
ろ@@ 100
雞@@ 100
「@@ 100
目@@ 100
ピ@@ 99
差@@ 99
似@@ 99
慢@@ 99
走@@ 99
夜@@ 98
モ@@ 98
訪@@ 98
皮@@ 98
鱼@@ 98
whatso@@ 97
ハ@@ 97
平@@ 97
― 97
座@@ 96
Other@@ 95
收@@ 95
街@@ 95
午@@ 95
¼ 95
持@@ 93
飽@@ 93
級@@ 93
给@@ 92
ş@@ 92
港@@ 92
邊@@ 92
並@@ 92
・@@ 92
適@@ 91
程@@ 91
拿@@ 91
區@@ 91
左@@ 91
ğ@@ 91
ł@@ 89
車@@ 89
饭@@ 89
Î@@ 89
エ@@ 88
杯@@ 88
情@@ 88
值@@ 88
单@@ 88
typic@@ 88
何@@ 87
类@@ 87
應@@ 87
路@@ 87
素@@ 87
开@@ 86
ほ@@ 86
女@@ 86
坐@@ 86
望@@ 86
火@@ 86
ケ@@ 86
凑@@ 85
享@@ 85
着@@ 85
普@@ 85
濃@@ 85
五@@ 85
ワ@@ 84
動@@ 84
鲜@@ 84
力@@ 84
寿@@ 83
付@@ 83
使@@ 83
必@@ 83
許@@ 83
吧@@ 83
四@@ 83
調@@ 83
立@@ 83
佢@@ 83
燒@@ 82
從@@ 82
边@@ 82
造@@ 82
言@@ 81
{@@ 81
喝@@ 80
什@@ 80
实@@ 79
透@@ 79
ソ@@ 79
斯@@ 78
ミ@@ 78
歡@@ 78
豐@@ 78
骨@@ 78
对@@ 77
建@@ 77
快@@ 77
º 77
南@@ 77
己@@ 77
居@@ 77
顧@@ 77
把@@ 77
麵 76
才@@ 76
具@@ 76
板@@ 76
兩@@ 76
于@@ 76
antastic 75
星@@ 75
逛@@ 75
厅@@ 75
周@@ 74
問@@ 74
擇@@ 74
叫@@ 74
挺@@ 73
酸@@ 73
exican 73
環@@ 73
表@@ 73
房@@ 72
经@@ 72
費@@ 72
際@@ 72
它@@ 72
较@@ 72
solutely 72
样@@ 71
咖@@ 71
嚐@@ 71
商@@ 71
？ 71
壽@@ 70
機@@ 70
冷@@ 70
另@@ 70
雪@@ 70
約@@ 70
山@@ 70
楼@@ 70
焼@@ 69
番@@ 69
語@@ 69
士@@ 69
她@@ 69
値@@ 69
紅@@ 68
两@@ 68
由@@ 68
体@@ 68
解@@ 68
元@@ 68
眼@@ 68
腳@@ 68
干@@ 68
吃 68
鸡@@ 68
钱@@ 68
～ 67
煎@@ 67
麺@@ 67
ボ@@ 67
汤@@ 67
舒@@ 67
费@@ 67
离@@ 67
啦@@ 66
留@@ 66
冰@@ 66
乾@@ 66
廚@@ 66
煮@@ 66
州@@ 66
包 65
親@@ 65
厚@@ 65
种@@ 65
越@@ 64
ん 64
英@@ 64
細@@ 64
× 64
面 64
念@@ 64
角@@ 64
者@@ 64
熟@@ 64
景@@ 64
満@@ 63
失@@ 63
黑@@ 63
北@@ 63
々@@ 63
搭@@ 63
夠@@ 63
卻@@ 63
至@@ 63
確@@ 63
結@@ 63
肉 63
び@@ 62
囲@@ 62
頼@@ 62
Desp@@ 62
麗@@ 62
底@@ 61
愛@@ 61
取@@ 61
依@@ 61
送@@ 61
饮@@ 61
題@@ 60
找@@ 60
該@@ 60
給@@ 60
態@@ 60
羊@@ 60
锅@@ 60
卖@@ 60
介@@ 59
流@@ 59
ぎ@@ 59
達@@ 59
薦@@ 59
微@@ 59
難@@ 59
準@@ 59
桌@@ 59
区@@ 59
买@@ 58
腐@@ 58
初@@ 58
tremely 58
買@@ 57
雰@@ 57
ò@@ 57
除@@ 57
貴@@ 57
照@@ 57
久@@ 57
糖@@ 57
東@@ 57
层@@ 57
隔@@ 56
荐@@ 56
哥@@ 56
公@@ 56
级@@ 56
裝@@ 56
埋@@ 56
店 55
椒@@ 55
ポ@@ 55
餅@@ 55
括@@ 55
層@@ 55
话@@ 55
进@@ 55
る 55
ō@@ 55
～@@ 55
席@@ 54
朝@@ 54
セ@@ 54
味 54
う 54
鹹@@ 54
錢@@ 54
芝@@ 54
需@@ 54
門@@ 54
（ 54
活@@ 54
卷@@ 54
丁@@ 54
製@@ 54
腸@@ 54
试@@ 54
热@@ 53
末@@ 53
现@@ 53
型@@ 53
發@@ 53
信@@ 53
龍@@ 53
停@@ 52
ś@@ 52
ザ@@ 52
頂@@ 52
評@@ 52
嘢@@ 52
õ@@ 51
男@@ 51
飯 51
印@@ 51
象@@ 51
師@@ 51
堡@@ 51
根@@ 51
：@@ 50
肚@@ 50
及@@ 50
業@@ 50
工@@ 50
往@@ 50
低@@ 50
附@@ 50
ë 50
¾ 49
進@@ 49
potle 49
Ñ@@ 49
深@@ 49
抹@@ 49
充@@ 49
残@@ 49
川@@ 49
ね 49
鍋@@ 48
対@@ 48
土@@ 48
发@@ 48
碗@@ 48
哋@@ 48
´ 47
連@@ 47
ヒ@@ 47
驚@@ 47
將@@ 47
處@@ 47
盤@@ 47
保@@ 47
月@@ 47
卡@@ 47
韓@@ 47
ネ@@ 47
场@@ 47
啲@@ 47
亮@@ 46
东@@ 46
聞@@ 46
款@@ 46
吸@@ 46
數@@ 46
啡@@ 46
引@@ 46
室@@ 46
強@@ 46
麼@@ 46
げ@@ 46
酱@@ 46
满@@ 46
咗@@ 46
队@@ 45
选@@ 45
求@@ 45
Ó@@ 45
距@@ 45
招@@ 45
長@@ 45
盛@@ 45
仔@@ 45
İ@@ 45
烧@@ 45
粉 45
ż@@ 45
ね@@ 45
鞋@@ 45
野@@ 44
htt@@ 44
菜 44
軟@@ 44
² 44
離@@ 44
治@@ 44
ノ@@ 44
基@@ 44
紹@@ 44
條@@ 44
絕@@ 44
pastra@@ 44
啊@@ 44
头@@ 44
棒@@ 44
电@@ 44
虽@@ 43
气@@ 43
Á@@ 43
态@@ 43
混@@ 43
被@@ 43
此@@ 43
淡@@ 43
任@@ 43
滑@@ 43
価@@ 43
違@@ 43
ぐ@@ 42
辛@@ 42
环@@ 42
華@@ 42
耐@@ 42
薄@@ 42
套@@ 42
好 42
难@@ 42
ペ@@ 42
予@@ 42
ę 42
哈@@ 42
世@@ 41
ぱ@@ 41
広@@ 41
č@@ 41
茄@@ 41
见@@ 41
车@@ 41
界@@ 40
代@@ 40
な 40
豬@@ 40
查@@ 40
計@@ 40
展@@ 40
石@@ 40
速@@ 40
Û@@ 39
蒸@@ 39
贵@@ 39
墨@@ 39
青@@ 39
馬@@ 39
易@@ 39
薯@@ 39
酥@@ 39
脆@@ 39
巴@@ 39
剛@@ 39
凉@@ 39
咁@@ 39
õ 39
惠@@ 38
欢@@ 38
泊@@ 38
籠@@ 38
消@@ 38
交@@ 38
限@@ 38
預@@ 38
議@@ 38
始@@ 38
edict 38
む@@ 38
够@@ 38
§@@ 38
细@@ 38
问@@ 37
ą@@ 37
ā@@ 37
探@@ 37
化@@ 37
電@@ 37
季@@ 37
郁@@ 37
樂@@ 37
豚@@ 37
採@@ 37
爽@@ 37
稍@@ 37
粥@@ 37
简@@ 37
仲@@ 37
餃@@ 36
子 36
º@@ 36
向@@ 36
写@@ 36
ン 36
擺@@ 36
蠻@@ 36
餐 36
修@@ 36
改@@ 36
玉@@ 36
刺@@ 36
总@@ 35
構@@ 35
师@@ 35
红@@ 35
龙@@ 35
虾@@ 35
倒@@ 35
觀@@ 35
示@@ 35
首@@ 35
宜@@ 35
神@@ 35
賣@@ 35
ー 35
ぷ@@ 35
寄@@ 35
ć 35
学@@ 35
宗@@ 35
様@@ 35
律@@ 35
Ê@@ 34
mesan 34
业@@ 34
が 34
千@@ 34
长@@ 34
影@@ 34
線@@ 34
記@@ 34
溫@@ 34
巧@@ 34
廣@@ 34
考@@ 34
教@@ 34
靠@@ 34
泰@@ 34
、 34
℅ 34
itchen 34
寧@@ 34
风@@ 34
银@@ 34
乗@@ 34
百@@ 33
刀@@ 33
ォ@@ 33
応@@ 33
让@@ 33
刚@@ 33
珍@@ 33
刻@@ 33
洲@@ 33
節@@ 33
噌@@ 33
購@@ 33
漢@@ 33
未@@ 33
古@@ 33
馆@@ 33
结@@ 33
¨@@ 33
ū@@ 33
减@@ 33
瓜@@ 32
讲@@ 32
豊@@ 32
ゆ@@ 32
勧@@ 32
ギ@@ 32
令@@ 32
忘@@ 32
八@@ 32
蒜@@ 32
認@@ 32
售@@ 32
形@@ 32
嘗@@ 32
音@@ 32
講@@ 32
即@@ 32
ァ@@ 32
晴@@ 32
ē 32
雞 32
arently 32
件@@ 31
ę@@ 31
帰@@ 31
沢@@ 31
enever 31
夹@@ 31
変@@ 31
ぶ@@ 31
簡@@ 31
希@@ 31
彩@@ 31
偏@@ 31
克@@ 31
仍@@ 31
烈@@ 31
顯@@ 31
帝@@ 31
王@@ 31
笑@@ 31
擔@@ 31
应@@ 31
该@@ 31
猪@@ 31
爱@@ 31
》 30
泡@@ 30
尤@@ 30
隊@@ 30
惜@@ 30
術@@ 30
胃@@ 30
組@@ 30
嫩@@ 30
優@@ 30
週@@ 30
乎@@ 30
支@@ 30
永@@ 30
観@@ 30
で 30
¥ 30
@@ 30
夫@@ 30
连@@ 30
布@@ 29
木@@ 29
廳 29
草@@ 29
歩@@ 29
股@@ 29
菇@@ 29
驗@@ 29
論@@ 29
洗@@ 29
免@@ 29
告@@ 29
游@@ 29
假@@ 29
夏@@ 29
樓@@ 29
揚@@ 29
肥@@ 29
維@@ 29
腹@@ 29
餅 29
站@@ 29
１@@ 29
： 29
絶@@ 29
ş 28
ì@@ 28
へ@@ 28
決@@ 28
š@@ 28
肋@@ 28
茶 28
列@@ 28
關@@ 28
張@@ 28
苦@@ 28
串@@ 28
听@@ 28
条@@ 28
÷ 28
２@@ 28
带@@ 28
设@@ 28
啦 28
ž@@ 28
浓@@ 28
嚟@@ 28
晒@@ 28
《 27
盘@@ 27
鹽@@ 27
潢@@ 27
折@@ 27
巨@@ 27
幫@@ 27
綠@@ 27
興@@ 27
淨@@ 27
怎@@ 27
突@@ 27
欲@@ 27
潔@@ 27
竟@@ 27
管@@ 27
共@@ 27
書@@ 27
ć@@ 27
记@@ 27
ù@@ 27
÷@@ 27
伦@@ 27
动@@ 27
谢@@ 27
货@@ 27
窗@@ 26
È 26
ą 26
叉@@ 26
遠@@ 26
城 26
藝@@ 26
潮@@ 26
指@@ 26
稱@@ 26
耳@@ 26
宿@@ 26
芒@@ 26
暖@@ 26
休@@ 26
道 26
按@@ 26
尝@@ 26
换@@ 26
実@@ 26
适@@ 26
端@@ 25
舌@@ 25
⋯@@ 25
心 25
林@@ 25
換@@ 25
僅@@ 25
班@@ 25
挑@@ 25
制@@ 25
忙@@ 25
園@@ 25
呼@@ 25
點 25
族@@ 25
闆@@ 25
灣@@ 25
đ@@ 25
辺@@ 25
担@@ 25
线@@ 25
从@@ 25
よ 25
に 24
悪@@ 24
屬@@ 24
迷@@ 24
趣@@ 24
鬆@@ 24
尾@@ 24
緻@@ 24
羅@@ 24
網@@ 24
請@@ 24
塊@@ 24
臭@@ 24
饭 24
张@@ 24
评@@ 24
り 24
ゴ@@ 24
ざ@@ 24
余@@ 24
鸡 24
扒@@ 24
强@@ 23
冬@@ 23
儿@@ 23
温@@ 23
餃 23
も 23
ひ@@ 23
腩@@ 23
嬉@@ 23
翻@@ 23
營@@ 23
甚@@ 23
蔬@@ 23
淋@@ 23
旁@@ 23
反@@ 23
極@@ 23
鐘@@ 23
皆@@ 23
质@@ 23
帮@@ 23
･@@ 23
Í@@ 23
专@@ 23
咸@@ 23
并@@ 23
计@@ 23
礼@@ 23
华@@ 23
込@@ 22
ル 22
階@@ 22
焦@@ 22
黄@@ 22
糕 22
蔥@@ 22
旧@@ 22
終@@ 22
掛@@ 22
迎@@ 22
臺@@ 22
善@@ 22
硬@@ 22
句@@ 22
運@@ 22
煙@@ 22
梯@@ 22
鐵@@ 22
典@@ 22
多 22
爛@@ 22
片 22
刷@@ 22
案@@ 22
块@@ 22
择@@ 22
〜@@ 22
¨ 22
；@@ 22
产@@ 22
伺@@ 22
丝@@ 22
鸭@@ 22
駅@@ 22
吾@@ 22
维@@ 21
粗@@ 21
軽@@ 21
粒@@ 21
毛@@ 21
仕@@ 21
腻@@ 21
在 21
視@@ 21
某@@ 21
順@@ 21
燈@@ 21
息@@ 21
黃@@ 21
脂@@ 21
唯@@ 21
蜜@@ 21
標@@ 21
彈@@ 21
到 21
湖@@ 21
堂@@ 21
睡@@ 21
器@@ 21
吧 21
错 21
关@@ 21
惊@@ 21
饱@@ 21
婆@@ 21
ń@@ 21
铁@@ 21
敵@@ 21
饰@@ 21
氛@@ 20
血@@ 20
傅@@ 20
洋@@ 20
 20
筋@@ 20
膩@@ 20
規@@ 20
補@@ 20
模@@ 20
貌@@ 20
傳@@ 20
右@@ 20
泥@@ 20
死@@ 20
裏@@ 20
糟@@ 20
珠@@ 20
怪@@ 20
衣@@ 20
奇@@ 20
拌@@ 20
幸@@ 20
阿@@ 20
ç 20
码@@ 20
河@@ 20
抵@@ 20
払@@ 20
粥 20
Ü 20
论@@ 20
爆@@ 20
负@@ 20
睇@@ 20
鱼 20
冇@@ 20
庆@@ 20
摆@@ 20
柜@@ 20
咩@@ 20
赞@@ 19
荷@@ 19
钟@@ 19
紫@@ 19
万@@ 19
聲@@ 19
概@@ 19
變@@ 19
尖@@ 19
滋@@ 19
嚼@@ 19
激@@ 19
創@@ 19
致@@ 19
總@@ 19
尚@@ 19
枝@@ 19
專@@ 19
學@@ 19
零@@ 19
兒@@ 19
割@@ 19
仁@@ 19
既@@ 19
Â@@ 19
宝@@ 19
．@@ 19
ttom 19
© 19
­ 19
ヘ@@ 19
葱@@ 19
売@@ 19
塩@@ 19
铺@@ 19
５ 19
４ 19
３ 19
ジ 19
２ 19
１ 19
漂@@ 18
遅@@ 18
床@@ 18
ぜ@@ 18
貼@@ 18
紙@@ 18
畫@@ 18
民@@ 18
誘@@ 18
義@@ 18
續@@ 18
追@@ 18
六@@ 18
舊@@ 18
團@@ 18
葉@@ 18
獲@@ 18
七@@ 18
含@@ 18
局@@ 18
皇@@ 18
庭@@ 18
滷@@ 18
倫@@ 18
謝@@ 18
檯@@ 18
説@@ 18
綺@@ 18
笼@@ 18
¡@@ 18
験@@ 18
厨@@ 18
〰@@ 18
广@@ 18
德@@ 18
靓@@ 18
Ô@@ 17
Œ@@ 17
声@@ 17
派@@ 17
移@@ 17
伝@@ 17
â 17
下 17
旗@@ 17
備@@ 17
添@@ 17
淇@@ 17
扣@@ 17
哪@@ 17
略@@ 17
福@@ 17
號@@ 17
波@@ 17
途@@ 17
嘴@@ 17
曾@@ 17
婚@@ 17
醒@@ 17
松@@ 17
返@@ 17
鳥@@ 17
摩@@ 17
版@@ 17
登@@ 17
袋@@ 17
緒@@ 17
０@@ 17
醤@@ 17
転@@ 17
ふ@@ 17
请@@ 17
Ú@@ 17
喔@@ 17
机@@ 17
饺@@ 17
は 17
京@@ 17
您@@ 17
绝@@ 16
培@@ 16
ど 16
绿@@ 16
ゲ@@ 16
域@@ 16
篇@@ 16
功@@ 16
聚@@ 16
集@@ 16
呈@@ 16
佳@@ 16
缺@@ 16
例@@ 16
腿@@ 16
醃@@ 16
散@@ 16
遍@@ 16
省@@ 16
戶@@ 16
臨@@ 16
人 16
亞@@ 16
統@@ 16
竹@@ 16
牙@@ 16
塔@@ 16
隨@@ 16
侍@@ 16
拼@@ 16
負@@ 16
噴@@ 16
企@@ 16
插@@ 16
玻@@ 16
璃@@ 16
密@@ 16
足 16
飾@@ 16
「 16
童@@ 16
肝@@ 16
碟@@ 16
肯@@ 16
営@@ 16
凄@@ 16
ヨ@@ 16
頃@@ 16
″ 16
节@@ 16
肠@@ 16
饼@@ 16
腐 16
嫌@@ 16
续@@ 16
ｗ 16
啊 15
家 15
蒙@@ 15
発@@ 15
馍@@ 15
河 15
皿@@ 15
ã 15
雑@@ 15
哦 15
尺@@ 15
鎖@@ 15
寬@@ 15
施@@ 15
演@@ 15
夾@@ 15
疲@@ 15
寫@@ 15
握@@ 15
浪@@ 15
輕@@ 15
檬@@ 15
存@@ 15
飛@@ 15
差 15
椅@@ 15
球@@ 15
涼@@ 15
江@@ 15
技@@ 15
短@@ 15
湯 15
调@@ 15
懂@@ 15
号@@ 15
３@@ 15
ĺ@@ 15
か 15
韩@@ 15
曜@@ 15
Á 15
喔 15
削@@ 15
‑@@ 15
À@@ 15
麦@@ 15
糯@@ 15
乱@@ 15
尽@@ 15
唐@@ 15
办@@ 15
约@@ 15
ゾ@@ 15
宵@@ 14
渡@@ 14
衛@@ 14
ý@@ 14
来 14
し 14
側@@ 14
関@@ 14
産@@ 14
懷@@ 14
鴨@@ 14
壁@@ 14
理 14
舞@@ 14
閒@@ 14
暗@@ 14
逼@@ 14
箱@@ 14
獨@@ 14
增@@ 14
穿@@ 14
敞@@ 14
擇 14
鬧@@ 14
斷@@ 14
戲@@ 14
眾@@ 14
遇@@ 14
燉@@ 14
黎@@ 14
瘦@@ 14
減@@ 14
絲@@ 14
止@@ 14
九@@ 14
蘭@@ 14
娘@@ 14
牡@@ 14
画@@ 14
¿@@ 14
远@@ 14
せ 14
の 14
ā 14
语@@ 14
軒@@ 14
骨 14
寒@@ 14
呵@@ 14
芋@@ 14
》@@ 14
経@@ 14
断@@ 14
认@@ 14
腸 14
ら 14
变@@ 14
痴@@ 14
奴@@ 14
撮@@ 14
柔@@ 13
滞@@ 13
旺@@ 13
夕@@ 13
口 13
降@@ 13
炭@@ 13
蘑@@ 13
寸@@ 13
睛@@ 13
悠@@ 13
容 13
色 13
均@@ 13
賞@@ 13
食 13
積@@ 13
擁@@ 13
暢@@ 13
圈@@ 13
產@@ 13
殼@@ 13
純@@ 13
用 13
異@@ 13
遊@@ 13
頓@@ 13
史@@ 13
殊@@ 13
祝@@ 13
駐@@ 13
輪@@ 13
否@@ 13
大 13
高 13
豪@@ 13
架@@ 13
露@@ 13
意 13
威@@ 13
以 13
薩@@ 13
酒 13
談@@ 13
乳@@ 13
聽@@ 13
盒@@ 13
裹@@ 13
感 13
楚@@ 13
哩@@ 13
證@@ 13
額@@ 13
陣@@ 13
母@@ 13
蘿@@ 13
葡@@ 13
赤@@ 13
准@@ 13
顾@@ 13
吗@@ 13
煲@@ 13
软@@ 13
蠣@@ 13
毎@@ 13
Ô 13
と 13
盐@@ 13
⁉ 13
怕@@ 13
饼 13
聊@@ 13
看 13
め 13
ý 13
ス 13
点 13
妻@@ 13
肺@@ 13
懐@@ 13
签@@ 13
ensils 13
参@@ 13
亲@@ 13
｡@@ 13
齐@@ 13
鉄@@ 13
优@@ 13
ē@@ 13
盖@@ 13
锁@@ 13
运@@ 13
叶@@ 12
烘@@ 12
嘛@@ 12
春@@ 12
替@@ 12
ñ 12
去 12
凍@@ 12
醋@@ 12
穎@@ 12
響@@ 12
間 12
受 12
避@@ 12
蕾@@ 12
娛@@ 12
秀@@ 12
桃@@ 12
歷@@ 12
慶@@ 12
鼻@@ 12
婦@@ 12
博@@ 12
綿@@ 12
紀@@ 12
藏@@ 12
麥@@ 12
退@@ 12
訂@@ 12
掉@@ 12
搞@@ 12
幼@@ 12
毫@@ 12
梅@@ 12
凱@@ 12
椰@@ 12
上 12
識@@ 12
划@@ 12
姐@@ 12
舗@@ 12
腊@@ 12
墙@@ 12
願@@ 12
盆@@ 12
垃@@ 12
圾@@ 12
Ū@@ 12
昨@@ 12
控@@ 12
ヤ@@ 12
催@@ 12
¤ 12
烟@@ 12
隣@@ 12
ダ 12
购@@ 12
艺@@ 11
确@@ 11
究@@ 11
飽 11
ぼ@@ 11
醉@@ 11
餓@@ 11
状@@ 11
況@@ 11
単@@ 11
錯 11
晶@@ 11
處 11
圍@@ 11
領@@ 11
佐@@ 11
步@@ 11
導@@ 11
品 11
項@@ 11
鋪@@ 11
胸@@ 11
勝@@ 11
蕃@@ 11
輸@@ 11
則@@ 11
群@@ 11
狂@@ 11
蓋@@ 11
薦 11
屋 11
恰@@ 11
圓@@ 11
融@@ 11
香 11
顆@@ 11
陽@@ 11
社@@ 11
欣@@ 11
辦@@ 11
兼@@ 11
效@@ 11
是 11
伴@@ 11
牆@@ 11
笑 11
郊@@ 11
隻@@ 11
轉@@ 11
＄@@ 11
度 11
健@@ 11
爐@@ 11
舍@@ 11
練@@ 11
急@@ 11
樣 11
昼@@ 11
ユ@@ 11
吊@@ 11
若@@ 11
脸@@ 11
孜@@ 11
喱@@ 11
Đ@@ 11
丽@@ 11
诉@@ 11
柳@@ 11
妈@@ 11
〜 11
贵 11
乡@@ 11
奥@@ 11
恶@@ 11
ś 11
痛@@ 11
灯@@ 11
喺@@ 11
俾@@ 11
て 11
魚 11
欧@@ 11
网@@ 11
闲@@ 11
閉@@ 11
婢@@ 11
稳@@ 11
衬@@ 11
İ 11
题@@ 10
烹@@ 10
ぽ@@ 10
判@@ 10
誰@@ 10
詳@@ 10
櫃@@ 10
佈@@ 10
銀@@ 10
瓶@@ 10
檳@@ 10
報@@ 10
累@@ 10
參@@ 10
顏@@ 10
司 10
鼎@@ 10
沾@@ 10
膽@@ 10
漠@@ 10
固@@ 10
澤@@ 10
扶@@ 10
莓@@ 10
勢@@ 10
弱@@ 10
浴@@ 10
咬@@ 10
填@@ 10
爾@@ 10
畢@@ 10
帳@@ 10
鄉@@ 10
有 10
彼@@ 10
試 10
線 10
條 10
芽@@ 10
田@@ 10
萄@@ 10
胡@@ 10
传@@ 10
匹@@ 10
劝@@ 10
宫@@ 10
ㄧ@@ 10
帯@@ 10
寝@@ 10
馍 10
恋@@ 10
据@@ 10
豉@@ 10
害@@ 10
处@@ 10
转@@ 10
Ã@@ 10
净@@ 10
￣@@ 10
Č@@ 10
答@@ 10
玩@@ 10
メ 10
Å@@ 10
笋@@ 10
浆@@ 10
揃@@ 10
税@@ 10
ł 10
贴@@ 10
乜@@ 10
覚@@ 10
汉@@ 10
湾@@ 10
従@@ 10
ů@@ 10
升@@ 10
苗@@ 10
じ 10
¥@@ 10
 10
荐 10
き 10
户@@ 10
ｗ@@ 10
⁃ 10
啱@@ 10
园@@ 10
吐@@ 9
賣 9
ぞ@@ 9
芥@@ 9
乐@@ 9
巻@@ 9
横@@ 9
脚@@ 9
剩@@ 9
舖@@ 9
喉@@ 9
津@@ 9
咀@@ 9
艷@@ 9
魅@@ 9
植@@ 9
館 9
沿@@ 9
亂@@ 9
配 9
絡@@ 9
跑@@ 9
須@@ 9
圖@@ 9
藍@@ 9
堆@@ 9
映@@ 9
衝@@ 9
震@@ 9
雲@@ 9
拍@@ 9
裕@@ 9
央@@ 9
來 9
勉@@ 9
捲@@ 9
尋@@ 9
鈴@@ 9
孩@@ 9
默@@ 9
吞@@ 9
腦@@ 9
方 9
陳@@ 9
縮@@ 9
丸@@ 9
宮@@ 9
蠔@@ 9
切 9
徒@@ 9
繁@@ 9
手 9
官@@ 9
票@@ 9
敢@@ 9
ū 9
米 9
＾@@ 9
訴@@ 9
文 9
併@@ 9
続@@ 9
皮 9
次 9
４@@ 9
効@@ 9
ė 9
ø 9
旨@@ 9
线 9
姨@@ 9
蚊@@ 9
賑@@ 9
ﾟ@@ 9
花 9
云@@ 9
鮮 9
哦@@ 9
杏@@ 9
少 9
丼@@ 9
标@@ 9
貰@@ 9
焗@@ 9
諗@@ 9
杂@@ 9
Ø@@ 9
正 9
继@@ 9
Ć@@ 9
极@@ 9
走 9
窝@@ 9
貼 8
议@@ 8
营@@ 8
扮@@ 8
【 8
堅@@ 8
桂@@ 8
望 8
馨@@ 8
ろ 8
狭@@ 8
⋯ 8
幕@@ 8
智@@ 8
昇@@ 8
碰@@ 8
禮@@ 8
昂@@ 8
悅@@ 8
藥@@ 8
糊@@ 8
範@@ 8
蜂@@ 8
驗 8
浸@@ 8
背@@ 8
彷@@ 8
彿@@ 8
源@@ 8
闊@@ 8
延@@ 8
鮪@@ 8
擊@@ 8
繼@@ 8
貝@@ 8
盡@@ 8
狀@@ 8
病@@ 8
慕@@ 8
閃@@ 8
佔@@ 8
據@@ 8
慣@@ 8
雙@@ 8
橋@@ 8
遜@@ 8
劣@@ 8
釋@@ 8
島@@ 8
頻@@ 8
膠@@ 8
慮@@ 8
嚇@@ 8
劇@@ 8
腰@@ 8
虎@@ 8
朵@@ 8
吉@@ 8
偶@@ 8
堪@@ 8
榮@@ 8
妙@@ 8
暑@@ 8
瞬@@ 8
抱@@ 8
搜@@ 8
載@@ 8
臘@@ 8
蔔@@ 8
院@@ 8
餡@@ 8
统@@ 8
丝 8
诚@@ 8
星 8
択@@ 8
酢@@ 8
露 8
条 8
陆@@ 8
试 8
ī 8
く 8
ト 8
」 8
冲@@ 8
服 8
豆 8
陕@@ 8
挂@@ 8
韭@@ 8
Ì 8
碎@@ 8
馳@@ 8
验@@ 8
拒@@ 8
紧@@ 8
许@@ 8
亚@@ 8
漿@@ 8
将@@ 8
ż 8
恐@@ 8
角 8
账@@ 8
赌@@ 8
嗰@@ 8
仙@@ 8
煲 8
独@@ 8
剪@@ 8
随@@ 8
斜@@ 8
丰@@ 8
歌@@ 8
† 8
′@@ 8
鹿@@ 8
静@@ 8
齊@@ 8
騙@@ 8
脾@@ 8
鍾@@ 8
图@@ 8
韧@@ 8
朱@@ 8
淘@@ 8
ė@@ 7
绍@@ 7
¬@@ 7
榴@@ 7
酥 7
秋@@ 7
释@@ 7
矩@@ 7
迫@@ 7
冠@@ 7
束@@ 7
歐@@ 7
軍@@ 7
昏@@ 7
穩@@ 7
射@@ 7
愧@@ 7
愉@@ 7
寶@@ 7
雅@@ 7
忽@@ 7
螺@@ 7
章@@ 7
彌@@ 7
播@@ 7
腥@@ 7
晨@@ 7
光 7
啤@@ 7
梨@@ 7
凡@@ 7
藉@@ 7
岸@@ 7
苔@@ 7
魔@@ 7
府@@ 7
靜@@ 7
氣 7
劃@@ 7
漫@@ 7
染@@ 7
檸@@ 7
醇@@ 7
甲@@ 7
卵@@ 7
廉@@ 7
於 7
等 7
述@@ 7
槍@@ 7
哭@@ 7
陸@@ 7
缸@@ 7
俱@@ 7
貨@@ 7
蕉@@ 7
夷@@ 7
稀@@ 7
養@@ 7
尼@@ 7
塑@@ 7
宴@@ 7
勁@@ 7
肌@@ 7
貫@@ 7
策@@ 7
冒@@ 7
承@@ 7
襯@@ 7
互@@ 7
宜 7
索@@ 7
定 7
薑@@ 7
估@@ 7
蛋 7
一 7
題 7
辣 7
故@@ 7
骗@@ 7
抜@@ 7
ě@@ 7
念 7
砂@@ 7
却@@ 7
Ò 7
沙 7
串 7
习@@ 7
坑@@ 7
视@@ 7
汤 7
炉@@ 7
卷 7
蓉@@ 7
爹@@ 7
呀@@ 7
î 7
观@@ 7
Ō@@ 7
鷄@@ 7
烫@@ 7
抄@@ 7
达@@ 7
庫@@ 7
呢 7
值 7
预@@ 7
幣@@ 7
問 7
般 7
士 7
妹@@ 7
水 7
校@@ 7
山 7
ă@@ 7
炖@@ 7
庄@@ 7
饿@@ 7
睫@@ 7
壮@@ 7
銃@@ 7
膳@@ 7
顺@@ 7
忍@@ 7
餸@@ 7
衫@@ 7
妆@@ 7
炒 6
情 6
】 6
富 6
困@@ 6
鬼 6
柄@@ 6
ぁ@@ 6
街 6
壞@@ 6
擦@@ 6
拘@@ 6
暫@@ 6
喧@@ 6
眉@@ 6
餘@@ 6
泳@@ 6
耗@@ 6
頭 6
量 6
癮@@ 6
力 6
洽@@ 6
磨@@ 6
臉@@ 6
奔@@ 6
歇@@ 6
惡@@ 6
鮭@@ 6
滾@@ 6
炙@@ 6
糬@@ 6
命@@ 6
柱@@ 6
政@@ 6
吵@@ 6
地 6
飢@@ 6
習@@ 6
燃@@ 6
燻@@ 6
奮@@ 6
倍@@ 6
湧@@ 6
趕@@ 6
券@@ 6
轆@@ 6
乘@@ 6
緊@@ 6
唱@@ 6
通 6
跡@@ 6
昔@@ 6
戰@@ 6
率@@ 6
振@@ 6
鳳@@ 6
鎮@@ 6
壓@@ 6
囊@@ 6
乏@@ 6
銜@@ 6
俗@@ 6
得 6
夢@@ 6
務 6
誠@@ 6
場 6
扎@@ 6
粽@@ 6
頤@@ 6
樸@@ 6
熊@@ 6
村@@ 6
投@@ 6
築@@ 6
¬ 6
养@@ 6
行 6
啥@@ 6
‰ 6
煩@@ 6
玛@@ 6
顿@@ 6
づ@@ 6
卤@@ 6
ず 6
８@@ 6
姜@@ 6
柠@@ 6
丁 6
瓜 6
丢@@ 6
圧@@ 6
赞 6
卫@@ 6
康@@ 6
决@@ 6
鶏@@ 6
马@@ 6
檢@@ 6
歉@@ 6
危@@ 6
鴛@@ 6
ď 6
Í 6
菠@@ 6
弄@@ 6
漬@@ 6
℉ 6
煸@@ 6
桥@@ 6
须@@ 6
蝦 6
兴@@ 6
拜@@ 6
傻@@ 6
キ 6
申@@ 6
š 6
贝@@ 6
Ï@@ 6
鱿@@ 6
孔@@ 6
曲@@ 6
鲁@@ 6
鰻@@ 6
育@@ 6
貴 6
双@@ 6
怖@@ 6
仅@@ 6
onight 6
坡@@ 6
果 6
围@@ 6
斑@@ 6
锅 6
黒@@ 6
烂@@ 6
卡 6
球 6
眺@@ 6
閑@@ 6
熏@@ 6
筒@@ 6
蚝@@ 6
终@@ 6
琳@@ 6
费 6
； 6
赶@@ 6
卜@@ 6
识@@ 6
孟@@ 6
儒@@ 6
雨@@ 6
哈 6
咯 6
椒 6
烏@@ 6
ų 6
积@@ 6
劲@@ 5
尔@@ 5
＆@@ 5
蛮@@ 5
莎@@ 5
物 5
帅@@ 5
陈@@ 5
液@@ 5
廚 5
南 5
繞@@ 5
醺@@ 5
飪@@ 5
綴@@ 5
格 5
緩@@ 5
池@@ 5
熬@@ 5
撩@@ 5
旋@@ 5
準 5
鄰@@ 5
酪@@ 5
快 5
紐@@ 5
勞@@ 5
與 5
碌@@ 5
位 5
討@@ 5
柚@@ 5
鰤@@ 5
蘇@@ 5
谷@@ 5
防@@ 5
思 5
客 5
滴@@ 5
益@@ 5
粹@@ 5
過 5
奈@@ 5
慾@@ 5
厲@@ 5
禁@@ 5
嬌@@ 5
訊@@ 5
程 5
懸@@ 5
髮@@ 5
備 5
踏@@ 5
坊@@ 5
油 5
敬@@ 5
聖@@ 5
齒@@ 5
眠@@ 5
麩@@ 5
幻@@ 5
廊@@ 5
丟@@ 5
讚@@ 5
現 5
霜@@ 5
陪@@ 5
航@@ 5
托@@ 5
契@@ 5
疑@@ 5
亭@@ 5
符@@ 5
鼓@@ 5
喊@@ 5
莫@@ 5
雷@@ 5
撒@@ 5
排 5
菲@@ 5
鍵@@ 5
秘@@ 5
Ş@@ 5
ヽ@@ 5
ﾉ 5
謝 5
圆@@ 5
桶@@ 5
胖@@ 5
妥@@ 5
讚 5
肢@@ 5
を 5
欠@@ 5
Ç 5
泼@@ 5
楊@@ 5
鸭 5
損@@ 5
欺@@ 5
农@@ 5
ゼ@@ 5
钱 5
両@@ 5
圓 5
⁉@@ 5
临@@ 5
汁 5
± 5
釜@@ 5
针@@ 5
蓮@@ 5
纸@@ 5
父@@ 5
说 5
轮@@ 5
责@@ 5
リ 5
乌@@ 5
¹ 5
酱 5
塘@@ 5
头 5
糊 5
ŕ@@ 5
・ 5
纯@@ 5
奶 5
搬@@ 5
非 5
况@@ 5
和 5
厅 5
妃@@ 5
贴 5
髒@@ 5
脑@@ 5
ň@@ 5
漿 5
羹 5
搵@@ 5
艇@@ 5
勿@@ 5
覧@@ 5
後 5
枱@@ 5
複@@ 5
―@@ 5
烦@@ 5
币@@ 5
志@@ 5
脏@@ 5
警@@ 5
术@@ 5
み 5
ぴ@@ 5
＋@@ 5
酷@@ 5
‐@@ 5
咔@@ 5
菇 5
鑊@@ 5
ぬ@@ 5
璧@@ 5
磯@@ 5
戚@@ 5
皇 5
药@@ 5
顶@@ 5
拖@@ 5
筷@@ 5
胞@@ 5
隐@@ 5
馅@@ 5
料 5
爪@@ 5
称@@ 5
课@@ 5
披@@ 5
ゅ@@ 5
Ｘ@@ 5
Ｄ 5
Ｄ@@ 5
嗚@@ 5
胆@@ 5
隆@@ 5
翠@@ 5
剔@@ 5
窮@@ 5
萝@@ 5
湘@@ 5
甜 5
李@@ 5
鲜 5
鮑@@ 5
劳@@ 5
咯@@ 5
咪@@ 5
囉@@ 5
痕@@ 5
轻@@ 5
冻@@ 5
ľ@@ 5
＼@@ 4
／ 4
Ë 4
草 4
悔@@ 4
Š@@ 4
捞@@ 4
ヌ@@ 4
规@@ 4
佳 4
賴@@ 4
Ż@@ 4
袖@@ 4
憾@@ 4
肩@@ 4
豔@@ 4
怨@@ 4
衡@@ 4
芙@@ 4
爭@@ 4
資@@ 4
攻@@ 4
渴@@ 4
睞@@ 4
擠@@ 4
旦@@ 4
蟲@@ 4
悄@@ 4
貌 4
濟@@ 4
捏@@ 4
性 4
媒@@ 4
瑞@@ 4
出 4
曠@@ 4
佇@@ 4
撼@@ 4
雜@@ 4
宅@@ 4
底 4
吹@@ 4
舉@@ 4
喚@@ 4
研@@ 4
橘@@ 4
垂@@ 4
美 4
時 4
爍@@ 4
奢@@ 4
憑@@ 4
獎@@ 4
勾@@ 4
責@@ 4
棉@@ 4
些 4
召@@ 4
聯@@ 4
雀@@ 4
覽@@ 4
憩@@ 4
螂@@ 4
迪@@ 4
喫@@ 4
個 4
熱 4
亮 4
求 4
勒@@ 4
截@@ 4
掌@@ 4
咱@@ 4
悉@@ 4
蹄@@ 4
棟@@ 4
遺@@ 4
腳 4
福 4
核@@ 4
澀@@ 4
式 4
肪@@ 4
描@@ 4
窩@@ 4
曉@@ 4
迅@@ 4
猛@@ 4
販@@ 4
牢@@ 4
筆@@ 4
晃@@ 4
嘉@@ 4
勤@@ 4
份 4
粿@@ 4
緣@@ 4
滅@@ 4
髓@@ 4
鵝@@ 4
兹@@ 4
误@@ 4
频@@ 4
响@@ 4
藤@@ 4
灼@@ 4
溜@@ 4
蟹 4
齢@@ 4
だ 4
頑@@ 4
諦@@ 4
臊@@ 4
敷@@ 4
総@@ 4
毕@@ 4
哒 4
弾@@ 4
姉@@ 4
隠@@ 4
仔 4
伙@@ 4
¤@@ 4
師 4
分 4
鍋 4
韮@@ 4
ť@@ 4
｡ 4
嫩 4
Ö 4
腌@@ 4
焖@@ 4
盖 4
奏@@ 4
拉 4
儘@@ 4
藕@@ 4
联@@ 4
苏@@ 4
ム 4
咋@@ 4
浅@@ 4
坦@@ 4
ヴ@@ 4
挙@@ 4
廿@@ 4
异@@ 4
寛@@ 4
ķ@@ 4
Ù 4
入 4
丈@@ 4
窓@@ 4
読@@ 4
螃@@ 4
當 4
棒 4
犯@@ 4
羹@@ 4
嘅 4
窄@@ 4
身 4
±@@ 4
†@@ 4
际@@ 4
梦@@ 4
虑@@ 4
团@@ 4
么 4
剁@@ 4
曰@@ 4
爪 4
你 4
針@@ 4
泪@@ 4
⁄@@ 4
订@@ 4
则@@ 4
袍@@ 4
穴@@ 4
ħ@@ 4
狗@@ 4
时 4
į 4
蔵@@ 4
妳@@ 4
戻@@ 4
推 4
鴨 4
鴦 4
撑@@ 4
肠 4
破@@ 4
｀ 4
蓝@@ 4
媽@@ 4
訳@@ 4
顔@@ 4
へ 4
井@@ 4
饺 4
资@@ 4
円@@ 4
众@@ 4
兰@@ 4
个 4
哗@@ 4
ń 4
粵@@ 4
／@@ 4
戦@@ 4
择 4
¹@@ 4
生 4
門 4
伤@@ 4
属@@ 4
ゥ@@ 4
严@@ 4
灌@@ 4
缘@@ 4
ち 4
挽@@ 4
町@@ 4
萬@@ 4
闹@@ 4
敘@@ 4
询@@ 4
塞@@ 4
摔@@ 4
菌@@ 4
錦@@ 4
吗 4
酔@@ 4
御@@ 4
惯@@ 4
义@@ 4
饅@@ 4
ﾉ@@ 4
谁@@ 4
导@@ 4
Ë@@ 4
鬼@@ 4
闭@@ 4
懂 4
係 4
茗@@ 4
駛@@ 4
败 4
音 4
嘈@@ 4
胜@@ 4
弹@@ 4
逊@@ 4
玫@@ 4
瑰@@ 4
窿@@ 4
復@@ 4
先 4
锦@@ 4
贯@@ 4
缩@@ 4
领@@ 4
《@@ 3
帘@@ 3
ź@@ 3
夜 3
汚@@ 3
粢@@ 3
げ 3
膩 3
撐@@ 3
狹@@ 3
外 3
采@@ 3
臟@@ 3
勻@@ 3
膜@@ 3
妝@@ 3
詢@@ 3
競@@ 3
巡@@ 3
傷@@ 3
汽@@ 3
逸@@ 3
沈@@ 3
怡@@ 3
稠@@ 3
屈@@ 3
掩@@ 3
愛 3
裔@@ 3
俏@@ 3
罪@@ 3
撲@@ 3
合 3
類 3
拔@@ 3
驅@@ 3
紛@@ 3
疊@@ 3
輝@@ 3
韻@@ 3
飄@@ 3
畔@@ 3
鋼@@ 3
朗@@ 3
涎@@ 3
憶 3
奐@@ 3
忌@@ 3
猶@@ 3
持 3
碩@@ 3
揮@@ 3
釉@@ 3
侈@@ 3
棄@@ 3
銷@@ 3
愈@@ 3
獄@@ 3
抽@@ 3
鏡@@ 3
促@@ 3
潤@@ 3
躺@@ 3
奇 3
園 3
霸@@ 3
趁@@ 3
質 3
龐@@ 3
唇@@ 3
治 3
做 3
別 3
邀@@ 3
陌@@ 3
財@@ 3
浮@@ 3
因 3
糙@@ 3
燙@@ 3
蛤@@ 3
帥@@ 3
偉@@ 3
躍@@ 3
落 3
纖@@ 3
楓@@ 3
考 3
船@@ 3
澱@@ 3
奪@@ 3
中 3
贈@@ 3
虛@@ 3
農@@ 3
罷@@ 3
醬 3
憶@@ 3
崇@@ 3
餚@@ 3
恩@@ 3
飲 3
糰@@ 3
完 3
謹@@ 3
黏@@ 3
纜@@ 3
壯@@ 3
稅@@ 3
撤@@ 3
勇@@ 3
壺@@ 3
啡 3
綜@@ 3
攪@@ 3
餛@@ 3
柴@@ 3
慰@@ 3
境 3
鯛@@ 3
膏@@ 3
翅@@ 3
‿@@ 3
备@@ 3
ッ 3
蟑@@ 3
嗎@@ 3
喜 3
党@@ 3
扩@@ 3
历@@ 3
･ 3
触@@ 3
記 3
‽ 3
苓@@ 3
loody 3
歯@@ 3
镇@@ 3
乙@@ 3
狮@@ 3
チ 3
押@@ 3
伊@@ 3
题 3
Ä 3
键@@ 3
评 3
ÿ@@ 3
宗 3
噶@@ 3
抓@@ 3
咸 3
捲 3
悲@@ 3
销@@ 3
繊@@ 3
牛 3
歧@@ 3
斗@@ 3
碗 3
莲@@ 3
乾 3
棚@@ 3
块 3
歲@@ 3
脷@@ 3
嗯@@ 3
送 3
³ 3
プ 3
遂@@ 3
扇@@ 3
赛@@ 3
泉@@ 3
佩@@ 3
内 3
ŋ@@ 3
谢 3
慢 3
į@@ 3
ő@@ 3
徴@@ 3
ヶ@@ 3
鹹 3
他 3
员 3
单 3
市 3
翼@@ 3
喇@@ 3
梗@@ 3
喇 3
塗@@ 3
哂@@ 3
鳗@@ 3
读@@ 3
书@@ 3
哄@@ 3
纪@@ 3
筋 3
撻 3
‿ 3
蘋@@ 3
₩ 3
ゞ 3
报@@ 3
气 3
匂@@ 3
队 3
嗓@@ 3
暂@@ 3
儿 3
蚵@@ 3
敏@@ 3
丸 3
咕@@ 3
腩 3
样 3
錢 3
Ø 3
院 3
豐 3
凝@@ 3
イ 3
蜇@@ 3
薬@@ 3
噛@@ 3
丹@@ 3
瑤@@ 3
兄@@ 3
髪@@ 3
腕@@ 3
゜@@ 3
杯 3
増@@ 3
＾ 3
æ 3
允@@ 3
菊@@ 3
跳@@ 3
馄@@ 3
利 3
奉@@ 3
苗 3
楚 3
幹@@ 3
争@@ 3
甩@@ 3
糰 3
７@@ 3
灰@@ 3
盅@@ 3
障@@ 3
⁠@@ 3
ŕ 3
僕@@ 3
柳 3
Ý@@ 3
円 3
働@@ 3
歴@@ 3
ょ 3
撃@@ 3
憧@@ 3
つ 3
萨@@ 3
圏@@ 3
炊@@ 3
帽@@ 3
５@@ 3
毒@@ 3
ī@@ 3
秤@@ 3
踊@@ 3
翡@@ 3
漁@@ 3
膀@@ 3
輩@@ 3
磅@@ 3
戴@@ 3
呆@@ 3
野 3
毯@@ 3
碧@@ 3
蜀@@ 3
詰@@ 3
澳@@ 3
蠟@@ 3
复@@ 3
西 3
呀 3
晰@@ 3
咨@@ 3
翌@@ 3
証@@ 3
険@@ 3
拭@@ 3
邮@@ 3
猫@@ 3
ば 3
茅@@ 3
武@@ 3
粤@@ 3
本 3
能 3
嘆@@ 3
洁@@ 3
殘@@ 3
蜆@@ 3
阳@@ 3
麻 3
副@@ 3
昆@@ 3
罗@@ 3
我 3
糍@@ 3
症@@ 3
渣@@ 3
创@@ 3
Ê 3
粘@@ 3
爛 3
漏@@ 3
槟@@ 3
】@@ 3
弯@@ 3
挞@@ 3
护@@ 3
肤@@ 3
架 3
页@@ 3
阁@@ 3
怀@@ 3
显@@ 3
叹@@ 3
靚@@ 3
失 3
卦@@ 3
构@@ 3
卧@@ 3
录@@ 3
芭@@ 3
镜@@ 3
槽@@ 3
系 3
主 3
′ 3
荔@@ 3
說 3
卓@@ 2
凑 2
饪@@ 2
槤@@ 2
粒 2
虫@@ 2
贅@@ 2
金 2
翔 2
ツ 2
頰@@ 2
燒 2
玄@@ 2
譽@@ 2
檔@@ 2
肚 2
咽@@ 2
慧@@ 2
鬧 2
職@@ 2
織@@ 2
瞭@@ 2
蹤@@ 2
惜 2
絢@@ 2
種 2
胃 2
價 2
霄@@ 2
著 2
氛 2
莉@@ 2
乃@@ 2
堡 2
芹@@ 2
級 2
犒@@ 2
舟@@ 2
觸@@ 2
伸@@ 2
材 2
鰭@@ 2
艦@@ 2
遼@@ 2
呎@@ 2
噸@@ 2
贊@@ 2
助 2
簾@@ 2
致 2
抖@@ 2
潑@@ 2
錄@@ 2
景 2
琴@@ 2
頁@@ 2
滲@@ 2
二 2
跨@@ 2
批@@ 2
剝@@ 2
嚐 2
糧@@ 2
站 2
洶@@ 2
頒@@ 2
覺 2
握 2
灑@@ 2
酣@@ 2
象 2
況 2
覓@@ 2
輪 2
芳@@ 2
劑@@ 2
兀@@ 2
攜@@ 2
池 2
樂 2
螳@@ 2
澎@@ 2
湃@@ 2
嘖@@ 2
由 2
牌 2
嚴@@ 2
肅@@ 2
慌@@ 2
惺@@ 2
忪@@ 2
惑@@ 2
訪 2
靈@@ 2
錫@@ 2
箔@@ 2
滿 2
耀@@ 2
比 2
饗@@ 2
佛@@ 2
杜@@ 2
拜 2
科@@ 2
迴@@ 2
倪@@ 2
靡@@ 2
謂@@ 2
梁@@ 2
審@@ 2
棕@@ 2
譜@@ 2
雕@@ 2
抗@@ 2
撞@@ 2
襲@@ 2
覷 2
豎@@ 2
拇@@ 2
啃@@ 2
屁@@ 2
漲@@ 2
捨@@ 2
扣 2
憚@@ 2
酌@@ 2
消 2
詞@@ 2
賓@@ 2
慨@@ 2
礎@@ 2
樹@@ 2
裊@@ 2
們 2
攤@@ 2
炎@@ 2
動 2
縫@@ 2
燦@@ 2
斯 2
放 2
誤@@ 2
鱈@@ 2
趣 2
測@@ 2
坐 2
法 2
巷@@ 2
覆@@ 2
化 2
瘋@@ 2
嚮@@ 2
殿@@ 2
設 2
癡@@ 2
伍@@ 2
占@@ 2
皺@@ 2
睛 2
恭@@ 2
摸@@ 2
飩@@ 2
鄉 2
搏@@ 2
艾@@ 2
莊@@ 2
紋@@ 2
小 2
攝@@ 2
守@@ 2
桑@@ 2
悔 2
惠 2
耽@@ 2
班 2
誓@@ 2
毁@@ 2
柿@@ 2
仁 2
偷@@ 2
懒@@ 2
已 2
爺@@ 2
屍@@ 2
喎@@ 2
壳@@ 2
尿@@ 2
犬@@ 2
騒@@ 2
烧 2
膏 2
冤@@ 2
枉@@ 2
沖@@ 2
縄@@ 2
国 2
忆@@ 2
洛@@ 2
撕@@ 2
豫@@ 2
吉 2
歳@@ 2
尊@@ 2
借@@ 2
ィ 2
pefully 2
酸 2
桌 2
ひ 2
ģ@@ 2
軒 2
坚@@ 2
遍 2
两 2
凶@@ 2
煱@@ 2
麽@@ 2
險@@ 2
鴦@@ 2
Ė 2
算 2
扁@@ 2
动 2
辈@@ 2
久 2
胎@@ 2
ř@@ 2
ě 2
銅@@ 2
濕@@ 2
脊@@ 2
ℴ@@ 2
〰 2
鳝@@ 2
干 2
涮@@ 2
ĺ 2
虾 2
腔@@ 2
园 2
葩@@ 2
满 2
哒@@ 2
撸@@ 2
耶@@ 2
％@@ 2
着 2
Ó 2
宰@@ 2
挡@@ 2
呵 2
臘 2
謎@@ 2
殆@@ 2
逆@@ 2
晩@@ 2
租@@ 2
逐@@ 2
洩@@ 2
鹅@@ 2
＜@@ 2
ナ 2
箇@@ 2
逃@@ 2
室 2
粧@@ 2
涨@@ 2
暮@@ 2
ュ 2
墟 2
ķ 2
钵@@ 2
械@@ 2
师 2
浆 2
败@@ 2
瘾@@ 2
傅 2
煎 2
准 2
聘@@ 2
履@@ 2
謙@@ 2
柏@@ 2
葉 2
費 2
専@@ 2
納@@ 2
嵐@@ 2
貸@@ 2
弟@@ 2
呑@@ 2
れ 2
悪 2
字 2
冰 2
雜 2
鐘 2
盞@@ 2
畀@@ 2
曬@@ 2
攞@@ 2
羽@@ 2
仿@@ 2
举@@ 2
操@@ 2
沟@@ 2
仪@@ 2
与@@ 2
坨@@ 2
燥@@ 2
魷@@ 2
堂 2
肘@@ 2
叶 2
拨@@ 2
谓@@ 2
档@@ 2
Ħ@@ 2
访@@ 2
喝 2
摩 2
句 2
迄@@ 2
瑟@@ 2
帅 2
赠@@ 2
嗯 2
吼@@ 2
爱 2
馆 2
ク 2
跟 2
膚@@ 2
救@@ 2
粟@@ 2
腿 2
务 2
叔@@ 2
µ@@ 2
哇@@ 2
耶 2
蕎@@ 2
ロ 2
元 2
敲@@ 2
ゃ 2
亀@@ 2
傾@@ 2
ぅ@@ 2
鰹@@ 2
茉@@ 2
テ 2
署@@ 2
Ì@@ 2
州 2
树 2
舎@@ 2
座 2
媽 2
醸@@ 2
ぢ@@ 2
嗜@@ 2
暇@@ 2
祈@@ 2
咲@@ 2
洒@@ 2
黎 2
ă 2
瞌@@ 2
訓@@ 2
檔 2
屎@@ 2
刁 2
Ò@@ 2
视 2
楼 2
翅 2
Ŕ@@ 2
饨@@ 2
茹@@ 2
ぁ 2
肝 2
Ď@@ 2
⁍@@ 2
梨 2
虚@@ 2
％ 2
额@@ 2
扒 2
－@@ 2
龜@@ 2
９@@ 2
傷 2
郎 2
豬 2
淮@@ 2
新 2
笔@@ 2
像 2
甲 2
嫁@@ 2
ő 2
庆 2
緑@@ 2
橙@@ 2
事 2
骂@@ 2
蔽@@ 2
艳@@ 2
締@@ 2
ノ 2
药 2
种 2
‌ 2
姿@@ 2
抢@@ 2
雇@@ 2
坂@@ 2
涙@@ 2
阪@@ 2
溏@@ 2
幽@@ 2
斤@@ 2
嚕@@ 2
拆@@ 2
汕@@ 2
衆@@ 2
暴@@ 2
馴@@ 2
見 2
掘@@ 2
厳@@ 2
雄@@ 2
陰@@ 2
匯 2
壩@@ 2
＞@@ 2
＜ 2
倌@@ 2
愤@@ 2
怒@@ 2
‑ 2
选 2
房 2
悍@@ 2
役@@ 2
详@@ 2
誕@@ 2
憐@@ 2
寓@@ 2
Ï 2
扉@@ 2
処@@ 2
‾ 2
川 2
欄@@ 2
们 2
亲 2
凤@@ 2
撚@@ 2
兩 2
穷@@ 2
疯@@ 2
极 2
清 2
脱@@ 2
兒 2
天 2
藜@@ 2
収@@ 2
泣@@ 2
所 2
継@@ 2
馒@@ 2
嗎 2
便 2
偿@@ 2
款 2
医@@ 2
项@@ 2
逢@@ 2
开 2
崩@@ 2
敦@@ 2
闻@@ 2
罢@@ 2
哟@@ 2
ª 2
凡 2
里 2
番 2
検@@ 2
驾@@ 2
跺@@ 2
颗@@ 2
察@@ 2
善 2
«@@ 2
犹@@ 2
觉 2
賽@@ 2
可 2
鯪@@ 2
嗷@@ 2
坏@@ 2
蚬@@ 2
蚌@@ 2
斋@@ 2
绵@@ 2
候 2
夸@@ 2
岛@@ 2
亦@@ 2
咁 2
暈@@ 2
鱔@@ 2
課@@ 2
妨@@ 2
糍 2
杨@@ 2
ｏ@@ 2
託@@ 2
Ł@@ 2
員 2
战@@ 2
绕@@ 2
廁@@ 2
図@@ 2
妇@@ 2
兴 2
｀@@ 2
娃@@ 2
寻@@ 2
泻@@ 2
洞@@ 2
驻@@ 2
琅@@ 2
屹@@ 2
戏@@ 2
宝 2
储@@ 2
迁@@ 2
岩@@ 2
胶@@ 2
缭@@ 2
療@@ 2
ド 2
脇@@ 2
喳@@ 2
駕@@ 2
熟 2
肴@@ 2
载@@ 2
樱@@ 2
赏@@ 2
悦@@ 2
妨 2
奖@@ 2
甘 2
抬@@ 2
左 2
蒡@@ 2
蔗@@ 2
具 2
圣@@ 2
兽@@ 2
溝@@ 2
焙@@ 2
斑 2
爲@@ 2
麼 2
廉 2
〒 2
Ã 2
闷@@ 2
屡@@ 2
弃@@ 2
补@@ 2
飞@@ 2
涂@@ 2
炼@@ 2
@@ 2
解 2
翔@@ 2
吓@@ 2
坑 2
歌 2
疏@@ 2
浄@@ 2
邪@@ 2
ﾟ 2
々 2
茨@@ 2
濯@@ 2
十 2
段 2
ť 2
蜆 2
拿 2
幅@@ 2
咝@@ 2
哎@@ 2
廻@@ 2
伎@@ 2
禦@@ 2
窩 2
帘 1
刘@@ 1
盅 1
输@@ 1
拔 1
挤@@ 1
数 1
要 1
ぞ 1
え 1
ĩ 1
ğ 1
饑@@ 1
¶ 1
挌@@ 1
棧 1
吔 1
棧@@ 1
歸 1
鱸@@ 1
鎮 1
漸@@ 1
橫@@ 1
疚@@ 1
然 1
缺 1
矩 1
祟@@ 1
嘻@@ 1
瑪@@ 1
瞄@@ 1
調 1
綴 1
碑@@ 1
憊@@ 1
軀@@ 1
沸@@ 1
繹@@ 1
莢@@ 1
懈@@ 1
嗅@@ 1
開 1
饞@@ 1
籌@@ 1
往 1
繽@@ 1
術 1
螢@@ 1
繪@@ 1
介 1
暉@@ 1
仰@@ 1
聳@@ 1
擊 1
曬 1
砌@@ 1
脈@@ 1
沉@@ 1
蘊@@ 1
璀@@ 1
璨@@ 1
區 1
湖 1
拂@@ 1
盎@@ 1
聲 1
泌@@ 1
挖@@ 1
柑@@ 1
瀰@@ 1
沛@@ 1
悅 1
詩@@ 1
晚 1
侖@@ 1
詬@@ 1
攬@@ 1
饕@@ 1
鱘@@ 1
溺@@ 1
援@@ 1
囧@@ 1
找 1
壤@@ 1
欸@@ 1
碳@@ 1
迎 1
賴 1
制 1
萊@@ 1
塢@@ 1
禮 1
侷@@ 1
盥@@ 1
沐@@ 1
遷@@ 1
樑@@ 1
演 1
廢@@ 1
焰@@ 1
濫@@ 1
竽@@ 1
嶄@@ 1
遺 1
榨@@ 1
姓@@ 1
知 1
辨@@ 1
薰@@ 1
匯@@ 1
燈 1
軸@@ 1
隸@@ 1
帷@@ 1
為 1
誇@@ 1
趨@@ 1
蜊@@ 1
惆@@ 1
悵 1
頹@@ 1
響 1
緻 1
益 1
齣@@ 1
邃@@ 1
陶@@ 1
戀@@ 1
湛@@ 1
拳@@ 1
目 1
踴@@ 1
熔@@ 1
潑 1
嘩@@ 1
嘯@@ 1
綽@@ 1
活 1
徹@@ 1
輔@@ 1
捏 1
詮@@ 1
它 1
頗@@ 1
盪@@ 1
縱@@ 1
影 1
貓@@ 1
慷@@ 1
穌@@ 1
勢 1
騎@@ 1
臥@@ 1
選 1
撼 1
儲@@ 1
窺@@ 1
蔭@@ 1
綻@@ 1
癮 1
屏@@ 1
啟@@ 1
澤 1
頸@@ 1
哉@@ 1
積 1
溢@@ 1
孰@@ 1
喻@@ 1
搾@@ 1
箭@@ 1
瞰@@ 1
遭@@ 1
億@@ 1
揪@@ 1
陲@@ 1
嘔@@ 1
毀@@ 1
筍@@ 1
瞇@@ 1
吶@@ 1
淪@@ 1
驚 1
睞 1
壞 1
囂 1
鑄@@ 1
罐@@ 1
瑕@@ 1
疵@@ 1
叢@@ 1
揚 1
璞@@ 1
歸@@ 1
盼@@ 1
澈@@ 1
盯@@ 1
賞 1
麓@@ 1
磚@@ 1
貧@@ 1
息 1
盤 1
繫@@ 1
刻 1
盡 1
圍 1
凍 1
衰@@ 1
緬@@ 1
螯@@ 1
揭@@ 1
紗 1
摯@@ 1
似 1
门 1
束 1
质 1
证@@ 1
唉@@ 1
扔@@ 1
誉 1
呗 1
噁@@ 1
显 1
摄@@ 1
稼@@ 1
労@@ 1
済@@ 1
偽@@ 1
龟@@ 1
腊 1
輸 1
顧 1
桔@@ 1
杉@@ 1
矶@@ 1
寬 1
为 1
髈@@ 1
挨@@ 1
拶@@ 1
恒@@ 1
超 1
撃 1
想 1
＊@@ 1
崗@@ 1
蝎@@ 1
寶 1
ｉ@@ 1
匪@@ 1
軍 1
釀@@ 1
黛@@ 1
很 1
海 1
棠 1
忙 1
勵@@ 1
㕑@@ 1
鈡@@ 1
绞@@ 1
進 1
衞@@ 1
臨 1
麪@@ 1
尷@@ 1
尬@@ 1
¸@@ 1
ņ@@ 1
厌 1
及 1
惯 1
沫@@ 1
₩@@ 1
功 1
ヘ 1
母 1
Ú 1
ﾊ@@ 1
ﾁ@@ 1
ｸ@@ 1
ﾘ@@ 1
名 1
鳥 1
Ğ@@ 1
蔵 1
太 1
熨@@ 1
‣ 1
哀 1
揶@@ 1
挞 1
舀@@ 1
阴@@ 1
亭 1
嘿@@ 1
扯@@ 1
渔@@ 1
贡@@ 1
暹@@ 1
邏@@ 1
盛 1
后 1
籃@@ 1
倫 1
艷 1
嚷@@ 1
嚷 1
节 1
棺@@ 1
傻 1
虎 1
彩 1
粋@@ 1
壊@@ 1
涵@@ 1
繳@@ 1
撰@@ 1
評 1
努@@ 1
討 1
鸽 1
蓬@@ 1
Æ@@ 1
賛@@ 1
＞ 1
※@@ 1
荀@@ 1
殼 1
璜@@ 1
顕@@ 1
殻@@ 1
侮@@ 1
さ 1
孔 1
猫 1
＋ 1
丰 1
吸 1
噌 1
語 1
け 1
恼@@ 1
阔@@ 1
苍@@ 1
蝇@@ 1
籠 1
針 1
齋@@ 1
あ 1
挟@@ 1
歎@@ 1
形 1
曇@@ 1
怖 1
初 1
扱@@ 1
駄@@ 1
實 1
何 1
隻 1
漠 1
勸@@ 1
台 1
问 1
逼 1
ℒ@@ 1
ℯ 1
车 1
溶@@ 1
盬@@ 1
咭@@ 1
徦@@ 1
則 1
惟@@ 1
啲 1
邊 1
佢 1
同 1
無 1
慳@@ 1
鳮 1
塩 1
亨@@ 1
氏@@ 1
划 1
厌@@ 1
谈@@ 1
宾@@ 1
真 1
禾@@ 1
鬚 1
薑 1
瀨@@ 1
躁@@ 1
馈@@ 1
ｏ 1
篤@@ 1
ġ@@ 1
不 1
撑 1
扬 1
住 1
斧@@ 1
Ť@@ 1
詫@@ 1
痛 1
涕 1
特 1
刁@@ 1
发 1
长 1
厉@@ 1
翘@@ 1
朔@@ 1
淸@@ 1
哟 1
腻 1
右 1
患 1
㗎@@ 1
順 1
債 1
也 1
労 1
夢 1
犠@@ 1
牲@@ 1
獄 1
鮑 1
范@@ 1
噜@@ 1
实 1
您 1
湾 1
龍 1
就 1
己 1
搭 1
喲@@ 1
唰@@ 1
嘴 1
枕@@ 1
剤@@ 1
獅@@ 1
鎧 1
烫 1
杭@@ 1
麥 1
珠 1
腥 1
污@@ 1
籲@@ 1
蒼@@ 1
蠅@@ 1
壶@@ 1
晕 1
₱@@ 1
薏@@ 1
＠@@ 1
脳 1
傢@@ 1
醍@@ 1
醐@@ 1
掲@@ 1
薫@@ 1
言 1
蚂@@ 1
蚁@@ 1
ヨ 1
齧@@ 1
栄@@ 1
護@@ 1
磨 1
Ñ 1
惧@@ 1
蛎@@ 1
敗@@ 1
籽@@ 1
翼 1
餞@@ 1
゜ 1
迟@@ 1
ブ 1
ェ 1
菓@@ 1
マ 1
決 1
嘎@@ 1
饱 1
媲@@ 1
嬲@@ 1
倦@@ 1
令 1
斥@@ 1
ĕ@@ 1
療 1
蹈@@ 1
闪@@ 1
踢@@ 1
茵@@ 1
媺 1
荳@@ 1
@@ 1
鹤@@ 1
珍 1
眷@@ 1
村 1
刈@@ 1
昭@@ 1
倾@@ 1
倒 1
慰 1
陨@@ 1
噂@@ 1
巻 1
港 1
泊 1
僚@@ 1
⁎@@ 1
⁎ 1
絲 1
鲈@@ 1
č 1
蘸@@ 1
叠@@ 1
娜@@ 1
娴@@ 1
隆 1
ź 1
梭 1
垣@@ 1
烊 1
髭@@ 1
剃@@ 1
風 1
浙 1
籤@@ 1
餠 1
Ď 1
彫@@ 1
责 1
隊 1
ぃ@@ 1
ぃ 1
学 1
芯@@ 1
饿 1
酶@@ 1
话 1
呒@@ 1
昌@@ 1
煮 1
盈@@ 1
〝@@ 1
皿 1
ヮ 1
わ 1
即 1
件 1
敌@@ 1
待 1
顿 1
代 1
压@@ 1
湿@@ 1
散 1
过 1
宮 1
茲 1
鷄 1
Õ@@ 1
₤@@ 1
藁@@ 1
血 1
枚@@ 1
唷 1
盘 1
饨 1
掉 1
幣 1
隈@@ 1
胗@@ 1
鯖@@ 1
笠@@ 1
診@@ 1
尻@@ 1
芫@@ 1
茜@@ 1
淋 1
厚 1
抗 1
顶 1
盐 1
陀@@ 1
ネ 1
カ 1
女 1
貢@@ 1
献@@ 1
栓@@ 1
祭@@ 1
繰@@ 1
秦@@ 1
鼠@@ 1
妹 1
業 1
塵@@ 1
囉 1
枯@@ 1
洪@@ 1
確 1
炫@@ 1
車 1
取 1
嗚 1
胆 1
渉@@ 1
拍 1
呂@@ 1
踩@@ 1
兔@@ 1
甥@@ 1
鲫@@ 1
ň 1
馋@@ 1
流 1
‐ 1
蕾 1
頌 1
惱@@ 1
靶@@ 1
照 1
徵@@ 1
紓@@ 1
壓 1
玩 1
查 1
羔@@ 1
径@@ 1
扬@@ 1
砸@@ 1
况 1
鄙@@ 1
齡@@ 1
达 1
嘉 1
丧@@ 1
闘@@ 1
丘@@ 1
荒@@ 1
絨@@ 1
歓@@ 1
蔦@@ 1
訛@@ 1
萵@@ 1
苣@@ 1
吮@@ 1
闆 1
源 1
乛@@ 1
乛 1
麒@@ 1
麟@@ 1
鳯@@ 1
鳳 1
布 1
讳@@ 1
谨@@ 1
シ 1
簽@@ 1
矇@@ 1
按 1
矿@@ 1
馨 1
见 1
摘@@ 1
环 1
欢 1
擀@@ 1
 1
Ō 1
噤@@ 1
嘢 1
ļ@@ 1
馬 1
哲 1
嘮@@ 1
锡@@ 1
堆 1
王 1
棉 1
籍@@ 1
恥@@ 1
陝@@ 1
舔@@ 1
累 1
甩 1
論 1
帯 1
栄 1
六 1
醋 1
砵@@ 1
赢@@ 1
析@@ 1
逻@@ 1
辑@@ 1
损@@ 1
协@@ 1
艱@@ 1
信 1
仮@@ 1
処 1
戒@@ 1
怪 1
ま 1
鹼@@ 1
鬆 1
６@@ 1
灾@@ 1
难 1
匙@@ 1
博 1
蘭 1
月 1
缴@@ 1
训 1
饶@@ 1
轰@@ 1
赔@@ 1
罚@@ 1
齿@@ 1
烊@@ 1
癖@@ 1
裙@@ 1
棍@@ 1
Þ 1
蝶@@ 1
榚@@ 1
ů 1
剣@@ 1
裂@@ 1
谱@@ 1
崧@@ 1
批 1
尾 1
诱@@ 1
泽@@ 1
忘 1
ĥ@@ 1
瀉@@ 1
藥 1
媚@@ 1
娘 1
ャ 1
检@@ 1
溃 1
窗 1
历 1
陷@@ 1
荠@@ 1
货 1
返 1
飘@@ 1
垫@@ 1
苹@@ 1
雾 1
裡 1
阅@@ 1
业 1
査@@ 1
梅 1
踫@@ 1
強 1
耍@@ 1
． 1
索 1
侣@@ 1
袜@@ 1
滤@@ 1
滑 1
颌@@ 1
咂@@ 1
舌 1
炸 1
妙 1
烚@@ 1
骑@@ 1
钢@@ 1
死 1
霉@@ 1
确 1
煌@@ 1
摧@@ 1
捧 1
壅@@ 1
擠 1
傑@@ 1
语 1
醡@@ 1
刀 1
拌 1
飩 1
三 1
籤 1
結 1
そ 1
塘 1
Ń@@ 1
笃@@ 1
卖 1
父 1
勘@@ 1
忠@@ 1
喷@@ 1
弗@@ 1
都 1
珈@@ 1
琲@@ 1
辿@@ 1
委@@ 1
埃@@ 1
促 1
膜 1
螂 1
腹 1
習 1
刨@@ 1
沮@@ 1
喪@@ 1
殺@@ 1
倆@@ 1
寂@@ 1
寞@@ 1
撈@@ 1
朝 1
伏 1
跣@@ 1
惱 1
徑@@ 1
揸@@ 1
阻@@ 1
礙@@ 1
淡 1
侶@@ 1
閣@@ 1
伏@@ 1
骯@@ 1
嘗 1
猜@@ 1
峰@@ 1
菓 1
札 1
锟@@ 1
钝 1
侯@@ 1
戟 1
Ｍ@@ 1
ｃ@@ 1
ｎ@@ 1
ａ@@ 1
ｌ@@ 1
ｄ@@ 1
ｓ 1
ĸ@@ 1
ĸ 1
咩 1
遲@@ 1
爸@@ 1
佬@@ 1
嚟 1
惨@@ 1
坨 1
Æ 1
俭@@ 1
簿@@ 1
ぎ 1
餌@@ 1
Ġ@@ 1
コ 1
粮 1
@@ 1
黑 1
浜@@ 1
谎@@ 1
灣 1
狡@@ 1
辩@@ 1
墓@@ 1
畳@@ 1
齁@@ 1
扫@@ 1
火 1
荁 1
煉@@ 1
衫 1
匆@@ 1
区 1
狠@@ 1
陋@@ 1
筹@@ 1
邋@@ 1
遢@@ 1
辅@@ 1
殖@@ 1
愿@@ 1
缝@@ 1
纫@@ 1
童 1
镬@@ 1
樟@@ 1
获@@ 1
仓@@ 1
兜@@ 1
衬 1
脚 1
买 1
训@@ 1
侧@@ 1
【@@ 1
教 1
籮@@ 1
碲@@ 1
煱 1
Ｉ 1
様 1
喳 1
鮎@@ 1
燑@@ 1
資 1
址@@ 1
腾@@ 1
韌@@ 1
矮@@ 1
折 1
宏@@ 1
绣@@ 1
馃@@ 1
晤@@ 1
综@@ 1
组@@ 1
颜@@ 1
势@@ 1
荞@@ 1
励@@ 1
筑@@ 1
部 1
族 1
舰@@ 1
虹@@ 1
凌@@ 1
雾@@ 1
汇@@ 1
夺@@ 1
鸟@@ 1
萱@@ 1
趸@@ 1
带 1
贪@@ 1
磳@@ 1
郁 1
栽@@ 1
萍@@ 1
厘@@ 1
挚@@ 1
渝@@ 1
霖@@ 1
钉@@ 1
砍@@ 1
诞@@ 1
漏 1
鸿@@ 1
［@@ 1
］@@ 1
缀@@ 1
獸@@ 1
绘@@ 1
册@@ 1
涩@@ 1
链@@ 1
递@@ 1
邻@@ 1
孤@@ 1
控 1
近 1
捌@@ 1
痲@@ 1
痹@@ 1
藹@@ 1
魁@@ 1
議 1
蜘@@ 1
蛛@@ 1
囤@@ 1
潔 1
數 1
隙@@ 1
乎 1
婁@@ 1
闡@@ 1
紗@@ 1
絞@@ 1
夠 1
苛@@ 1
精 1
冑 1
诺@@ 1
狙@@ 1
康 1
䚄@@ 1
癒 1
゛ 1
ヅ@@ 1
汗 1
添 1
嫁 1
平 1
轨@@ 1
购 1
裁@@ 1
橱@@ 1
层 1
灵@@ 1
渐@@ 1
栏@@ 1
逛 1
凳@@ 1
梳@@ 1
哝@@ 1
肆@@ 1
董@@ 1
现 1
伯@@ 1
杀@@ 1
纤@@ 1
拐@@ 1
亏@@ 1
窜@@ 1
粮@@ 1
颗 1
鲑@@ 1
谐@@ 1
编@@ 1
壶 1
盗@@ 1
锻@@ 1
泛@@ 1
舟 1
＂@@ 1
実 1
悟@@ 1
‌@@ 1
吞 1
匀@@ 1
济@@ 1
竞@@ 1
繡@@ 1
蚝 1
甫 1
乳 1
〽 1
薺@@ 1
価 1
»@@ 1
蓑@@ 1
炝@@ 1
譜 1
引 1
凖@@ 1
› 1
燴@@ 1
謎 1
窯@@ 1
Ｂ@@ 1
荤@@ 1
凯@@ 1
萧@@ 1
仙 1
愚@@ 1
巾@@ 1
瀟@@ 1
¦ 1
须 1
ヮ@@ 1
鞠@@ 1
躬 1
今 1
踪 1
县@@ 1
逗@@ 1
对 1
销 1
注 1
居 1
权@@ 1
薯 1
約 1
Ｌ@@ 1
Ｅ@@ 1
蛇@@ 1
＝@@ 1
閉 1
『@@ 1
』@@ 1
聴@@ 1
羨@@ 1
激 1
缓@@ 1
槐@@ 1
弁@@ 1
团 1
挫@@ 1
谅@@ 1
嚒@@ 1
噎@@ 1
唦@@ 1
饃 1
Ｇ@@ 1
ｙ@@ 1
ｚ@@ 1
ａ 1
遗@@ 1
矫@@ 1
 1
斐@@ 1
稚@@ 1
児@@ 1
呲@@ 1
ㄕ@@ 1
覗@@ 1
悩@@ 1
碼@@ 1
疍 1
適 1
朴@@ 1
録@@ 1
拠@@ 1
謡@@ 1
ž 1
纹@@ 1
扑@@ 1
擅@@ 1
曼@@ 1
浏@@ 1
览@@ 1
瞎@@ 1
愕@@ 1
耳 1
塔 1
蜇 1
江 1
柴 1
膀 1
鮟@@ 1
縞@@ 1
鯵 1
帆@@ 1
立 1
鮃 1
鯖 1
卵 1
鰹 1
老 1
鰤 1
型 1
剪 1
神 1
竜@@ 1
須 1
旭@@ 1
祭 1
優 1
塌@@ 1
¼@@ 1
遣@@ 1
收 1
淀@@ 1
勺@@ 1
唏@@ 1
嘘@@ 1
擋 1
滚@@ 1
叧@@ 1
誏@@ 1
苃@@ 1
者 1
崽@@ 1
歡 1
糠@@ 1
甸 1
弥@@ 1
军 1
こ 1
淹@@ 1
拓@@ 1
賢@@ 1
疎@@ 1
坊 1
榜@@ 1
僮@@ 1
側 1
娑 1
鯉@@ 1
紅 1
飾 1
株@@ 1
茂@@ 1
塑 1
華 1
鑑@@ 1
瑯@@ 1
麗 1
至 1
懶@@ 1
彰@@ 1
帕@@ 1
銘@@ 1
脆 1
層 1
腴@@ 1
翩@@ 1
翩 1
吝@@ 1
牧@@ 1
衷@@ 1
虧@@ 1
赴@@ 1
儉@@ 1
捧@@ 1
霞@@ 1
俄@@ 1
岡@@ 1
宋@@ 1
茄 1
封@@ 1
籽 1
腦 1
菌 1
抽 1
易 1
爽 1
示 1
裝 1
褲 1
鞋 1
傍@@ 1
忒@@ 1
蔫@@ 1
橡@@ 1
吐 1
奸@@ 1
玛 1
聋@@ 1
吵 1
っ 1
ľ 1
芡 1
哇 1
季 1
Đ 1
旺 1
逮@@ 1
拾@@ 1
庄 1
蛳@@ 1
半 1
谱 1
慎@@ 1
懵@@ 1
炳@@ 1
賬@@ 1
噢@@ 1
枪@@ 1
击@@ 1
洱 1
