{"<pad>": 0, "<bos>": 1, "<eos>": 2, "<unk>": 3, "!": 4, "%": 5, "'": 6, "*": 7, "+": 8, "++": 9, "-": 10, ".": 11, "/": 12, "/0": 13, "0": 14, "@": 15, "[": 16, "]": 17, "_": 18, "``": 19, "a": 20, "aa": 21, "ab": 22, "abi": 23, "abil": 24, "able": 25, "ablo": 26, "ably": 27, "ac": 28, "aca": 29, "acc": 30, "acceptable": 31, "ace": 32, "aced": 33, "ach": 34, "acha": 35, "ache": 36, "ached": 37, "aches": 38, "achi": 39, "ack": 40, "acks": 41, "acle": 42, "aco": 43, "act": 44, "active": 45, "actory": 46, "actus": 47, "acy": 48, "ad": 49, "ada": 50, "adam": 51, "adas": 52, "add": 53, "addy": 54, "ade": 55, "aded": 56, "adia": 57, "ading": 58, "ado": 59, "ads": 60, "ady": 61, "ae": 62, "af": 63, "afe": 64, "aff": 65, "affe": 66, "ag": 67, "age": 68, "ages": 69, "agi": 70, "agne": 71, "ago": 72, "agus": 73, "ah": 74, "aha": 75, "ai": 76, "aid": 77, "aign": 78, "ail": 79, "ailed": 80, "ails": 81, "ain": 82, "aine": 83, "ained": 84, "aining": 85, "ains": 86, "aint": 87, "airs": 88, "aise": 89, "ak": 90, "ake": 91, "aked": 92, "aker": 93, "akers": 94, "akes": 95, "akh": 96, "aki": 97, "akin": 98, "aking": 99, "aks": 100, "al": 101, "ala": 102, "ale": 103, "aled": 104, "ales": 105, "aling": 106, "all": 107, "alled": 108, "alling": 109, "ally": 110, "als": 111, "alsa": 112, "am": 113, "ama": 114, "amb": 115, "amba": 116, "ame": 117, "amed": 118, "amel": 119, "ami": 120, "amic": 121, "aming": 122, "amo": 123, "amon": 124, "amp": 125, "amped": 126, "ams": 127, "an": 128, "ana": 129, "anas": 130, "anc": 131, "ance": 132, "ancer": 133, "ancy": 134, "anda": 135, "ando": 136, "ands": 137, "ane": 138, "ang": 139, "anga": 140, "ank": 141, "anne": 142, "anner": 143, "annie": 144, "anning": 145, "ano": 146, "ans": 147, "ant": 148, "antha": 149, "anti": 150, "antic": 151, "antly": 152, "ants": 153, "any": 154, "ap": 155, "ape": 156, "aping": 157, "apo": 158, "app": 159, "appe": 160, "apped": 161, "apple": 162, "appointed": 163, "aps": 164, "ar": 165, "ara": 166, "ard": 167, "ardi": 168, "ards": 169, "are": 170, "ared": 171, "arel": 172, "ares": 173, "arettes": 174, "ari": 175, "arian": 176, "arians": 177, "arily": 178, "arity": 179, "ark": 180, "arn": 181, "aro": 182, "around": 183, "arr": 184, "ars": 185, "art": 186, "ary": 187, "as": 188, "ase": 189, "ased": 190, "ash": 191, "asha": 192, "ashed": 193, "asing": 194, "ask": 195, "ason": 196, "ass": 197, "assy": 198, "ast": 199, "aste": 200, "asted": 201, "astically": 202, "asting": 203, "asts": 204, "asty": 205, "asy": 206, "at": 207, "ata": 208, "atch": 209, "ate": 210, "ated": 211, "ately": 212, "ater": 213, "ates": 214, "athe": 215, "athy": 216, "ati": 217, "atile": 218, "atin": 219, "ating": 220, "ation": 221, "ational": 222, "ations": 223, "atisf": 224, "ative": 225, "atives": 226, "ato": 227, "aton": 228, "ator": 229, "ators": 230, "ats": 231, "atsu": 232, "att": 233, "atta": 234, "atty": 235, "atur": 236, "atz": 237, "aur": 238, "aut": 239, "aux": 240, "ava": 241, "ave": 242, "aved": 243, "aw": 244, "away": 245, "aws": 246, "ax": 247, "ay": 248, "aya": 249, "ays": 250, "az": 251, "aze": 252, "b": 253, "ba": 254, "bab": 255, "back": 256, "bage": 257, "bah": 258, "bal": 259, "ball": 260, "bar": 261, "bb": 262, "be": 263, "bear": 264, "bearing": 265, "beat": 266, "bec": 267, "bed": 268, "bee": 269, "bel": 270, "ben": 271, "ber": 272, "berg": 273, "berry": 274, "bers": 275, "bert": 276, "berts": 277, "bet": 278, "bi": 279, "bie": 280, "bird": 281, "birds": 282, "bl": 283, "ble": 284, "bler": 285, "bles": 286, "bly": 287, "bo": 288, "board": 289, "body": 290, "bol": 291, "bone": 292, "box": 293, "boy": 294, "br": 295, "bread": 296, "brew": 297, "bro": 298, "brown": 299, "bs": 300, "bud": 301, "burg": 302, "burger": 303, "burgh": 304, "bush": 305, "by": 306, "c": 307, "ca": 308, "can": 309, "cans": 310, "car": 311, "care": 312, "cas": 313, "cast": 314, "cc": 315, "ce": 316, "ced": 317, "cer": 318, "ces": 319, "ch": 320, "cha": 321, "chain": 322, "chan": 323, "charge": 324, "charged": 325, "che": 326, "check": 327, "ched": 328, "chel": 329, "cheon": 330, "cher": 331, "chers": 332, "ches": 333, "chet": 334, "chi": 335, "ching": 336, "cho": 337, "chool": 338, "chy": 339, "ci": 340, "cia": 341, "cial": 342, "cing": 343, "cious": 344, "cker": 345, "cks": 346, "cl": 347, "claim": 348, "clin": 349, "clock": 350, "closure": 351, "cluded": 352, "co": 353, "coal": 354, "com": 355, "comes": 356, "coming": 357, "comm": 358, "connected": 359, "corn": 360, "cr": 361, "cra": 362, "criptions": 363, "crow": 364, "ct": 365, "ctic": 366, "ction": 367, "cul": 368, "cus": 369, "cut": 370, "d": 371, "da": 372, "dale": 373, "dar": 374, "date": 375, "dated": 376, "day": 377, "days": 378, "de": 379, "ded": 380, "der": 381, "dia": 382, "ding": 383, "dings": 384, "dog": 385, "doors": 386, "dos": 387, "dow": 388, "down": 389, "dress": 390, "ds": 391, "due": 392, "dy": 393, "e": 394, "ean": 395, "earth": 396, "ec": 397, "ect": 398, "ected": 399, "ective": 400, "ed": 401, "edo": 402, "edy": 403, "ee": 404, "ees": 405, "efficient": 406, "ek": 407, "eks": 408, "el": 409, "ela": 410, "ele": 411, "eled": 412, "eless": 413, "eline": 414, "eling": 415, "ell": 416, "ella": 417, "elled": 418, "elli": 419, "elling": 420, "ello": 421, "ellow": 422, "ells": 423, "elly": 424, "els": 425, "elt": 426, "elves": 427, "ely": 428, "em": 429, "embers": 430, "emed": 431, "ement": 432, "ems": 433, "en": 434, "enburg": 435, "ence": 436, "end": 437, "endale": 438, "ended": 439, "ender": 440, "enders": 441, "ending": 442, "ends": 443, "ene": 444, "ened": 445, "eness": 446, "ening": 447, "enna": 448, "eno": 449, "enos": 450, "ens": 451, "ense": 452, "ent": 453, "ented": 454, "ential": 455, "ently": 456, "ents": 457, "ep": 458, "ept": 459, "er": 460, "era": 461, "erable": 462, "ere": 463, "ered": 464, "erg": 465, "ergic": 466, "ergy": 467, "eria": 468, "erie": 469, "ering": 470, "ern": 471, "ero": 472, "ers": 473, "ership": 474, "ert": 475, "erts": 476, "erv": 477, "erve": 478, "erved": 479, "ery": 480, "es": 481, "esc": 482, "ese": 483, "ess": 484, "essa": 485, "essed": 486, "esses": 487, "ession": 488, "est": 489, "este": 490, "ested": 491, "esterday": 492, "estone": 493, "esty": 494, "estyle": 495, "et": 496, "eta": 497, "eter": 498, "eth": 499, "etic": 500, "eting": 501, "ets": 502, "ett": 503, "ette": 504, "ettes": 505, "ev": 506, "eve": 507, "even": 508, "ever": 509, "ew": 510, "ex": 511, "exper": 512, "ey": 513, "eye": 514, "ez": 515, "f": 516, "fa": 517, "fall": 518, "fashion": 519, "fast": 520, "fc": 521, "fe": 522, "fest": 523, "ff": 524, "fi": 525, "field": 526, "fil": 527, "fish": 528, "fits": 529, "flow": 530, "flower": 531, "fo": 532, "food": 533, "for": 534, "fort": 535, "fr": 536, "free": 537, "friendly": 538, "front": 539, "fs": 540, "ft": 541, "fted": 542, "fts": 543, "fu": 544, "ful": 545, "full": 546, "fully": 547, "fulness": 548, "g": 549, "gage": 550, "gan": 551, "gans": 552, "gar": 553, "gary": 554, "gas": 555, "ge": 556, "ged": 557, "gely": 558, "gement": 559, "gency": 560, "gent": 561, "ger": 562, "gers": 563, "ges": 564, "get": 565, "gets": 566, "gg": 567, "gh": 568, "ghan": 569, "gi": 570, "gia": 571, "gic": 572, "gie": 573, "gin": 574, "ging": 575, "gio": 576, "go": 577, "going": 578, "gon": 579, "got": 580, "gr": 581, "grace": 582, "gran": 583, "grant": 584, "grav": 585, "gre": 586, "green": 587, "gs": 588, "gu": 589, "gy": 590, "h": 591, "ha": 592, "hal": 593, "hand": 594, "hany": 595, "he": 596, "hea": 597, "head": 598, "health": 599, "heart": 600, "hearted": 601, "hed": 602, "hel": 603, "help": 604, "her": 605, "here": 606, "hered": 607, "hers": 608, "hes": 609, "hest": 610, "het": 611, "hetic": 612, "hi": 613, "hill": 614, "hin": 615, "hing": 616, "hl": 617, "hn": 618, "ho": 619, "hol": 620, "hole": 621, "home": 622, "hop": 623, "hound": 624, "house": 625, "how": 626, "hp": 627, "hr": 628, "hy": 629, "i": 630, "ia": 631, "ial": 632, "iam": 633, "ian": 634, "iana": 635, "iance": 636, "iances": 637, "ians": 638, "iant": 639, "iary": 640, "iatric": 641, "ib": 642, "iber": 643, "ible": 644, "ibles": 645, "ibly": 646, "ic": 647, "ica": 648, "ical": 649, "icated": 650, "icating": 651, "ice": 652, "iced": 653, "ices": 654, "ich": 655, "iche": 656, "icia": 657, "ician": 658, "icians": 659, "icient": 660, "icing": 661, "icious": 662, "ick": 663, "icking": 664, "icks": 665, "icles": 666, "ico": 667, "icop": 668, "ics": 669, "ict": 670, "icted": 671, "icy": 672, "id": 673, "idays": 674, "ide": 675, "ider": 676, "iders": 677, "ides": 678, "idge": 679, "idi": 680, "ido": 681, "ids": 682, "idy": 683, "ie": 684, "ied": 685, "ield": 686, "ien": 687, "ience": 688, "ient": 689, "ier": 690, "iers": 691, "ies": 692, "iest": 693, "iev": 694, "if": 695, "iff": 696, "ifferent": 697, "ifi": 698, "ified": 699, "ift": 700, "iful": 701, "ify": 702, "ig": 703, "ige": 704, "igh": 705, "ighter": 706, "ights": 707, "ign": 708, "ignment": 709, "ignon": 710, "igon": 711, "igs": 712, "ih": 713, "ihu": 714, "ij": 715, "ik": 716, "ika": 717, "ike": 718, "ikes": 719, "iki": 720, "il": 721, "ila": 722, "ilar": 723, "ile": 724, "iled": 725, "iles": 726, "iley": 727, "iling": 728, "ill": 729, "illa": 730, "illas": 731, "ille": 732, "illed": 733, "illing": 734, "ills": 735, "illy": 736, "ils": 737, "ilt": 738, "ily": 739, "im": 740, "ima": 741, "imb": 742, "ime": 743, "iment": 744, "iments": 745, "imi": 746, "imin": 747, "imp": 748, "ims": 749, "in": 750, "ina": 751, "inary": 752, "inas": 753, "ind": 754, "inder": 755, "inders": 756, "indy": 757, "ine": 758, "ined": 759, "iner": 760, "ines": 761, "iness": 762, "inet": 763, "ing": 764, "ingly": 765, "ingo": 766, "ings": 767, "ini": 768, "ining": 769, "ink": 770, "inks": 771, "inn": 772, "inner": 773, "inners": 774, "inning": 775, "inny": 776, "ino": 777, "inos": 778, "ins": 779, "inspired": 780, "int": 781, "inted": 782, "inter": 783, "ints": 784, "iny": 785, "io": 786, "ion": 787, "ions": 788, "ior": 789, "iors": 790, "ios": 791, "iot": 792, "ious": 793, "iously": 794, "ipe": 795, "ipped": 796, "ips": 797, "iqu": 798, "ique": 799, "ir": 800, "iration": 801, "ird": 802, "ire": 803, "ired": 804, "iri": 805, "iring": 806, "irl": 807, "irs": 808, "irt": 809, "irts": 810, "is": 811, "isan": 812, "isc": 813, "ise": 814, "ised": 815, "ises": 816, "ish": 817, "ished": 818, "isions": 819, "isk": 820, "isle": 821, "ism": 822, "ismatic": 823, "iss": 824, "issa": 825, "ist": 826, "ista": 827, "istent": 828, "isters": 829, "istle": 830, "istry": 831, "ists": 832, "isy": 833, "it": 834, "ita": 835, "itable": 836, "itary": 837, "itas": 838, "itate": 839, "itation": 840, "itations": 841, "itch": 842, "ite": 843, "ited": 844, "iter": 845, "ites": 846, "iti": 847, "ities": 848, "iting": 849, "ito": 850, "its": 851, "ity": 852, "itz": 853, "iva": 854, "ive": 855, "iveness": 856, "ives": 857, "ivid": 858, "iving": 859, "iy": 860, "iz": 861, "iza": 862, "ize": 863, "ized": 864, "izer": 865, "izers": 866, "izes": 867, "izing": 868, "izon": 869, "izz": 870, "j": 871, "jack": 872, "jet": 873, "jo": 874, "jun": 875, "k": 876, "ka": 877, "ke": 878, "ked": 879, "kee": 880, "keeping": 881, "ken": 882, "ker": 883, "ket": 884, "key": 885, "ki": 886, "kie": 887, "kin": 888, "king": 889, "kins": 890, "ks": 891, "ky": 892, "l": 893, "la": 894, "lace": 895, "land": 896, "lass": 897, "law": 898, "lay": 899, "lc": 900, "le": 901, "led": 902, "leep": 903, "len": 904, "ler": 905, "lers": 906, "les": 907, "less": 908, "let": 909, "lette": 910, "ley": 911, "li": 912, "lic": 913, "liest": 914, "lif": 915, "like": 916, "lim": 917, "lin": 918, "line": 919, "ling": 920, "lish": 921, "ll": 922, "lla": 923, "lo": 924, "load": 925, "look": 926, "looked": 927, "lot": 928, "lower": 929, "ls": 930, "lv": 931, "ly": 932, "lyn": 933, "lyss": 934, "m": 935, "ma": 936, "made": 937, "maid": 938, "mail": 939, "mal": 940, "man": 941, "manship": 942, "mars": 943, "mart": 944, "mas": 945, "mat": 946, "mate": 947, "max": 948, "me": 949, "med": 950, "mel": 951, "men": 952, "ment": 953, "ments": 954, "mer": 955, "mes": 956, "met": 957, "mex": 958, "mic": 959, "mills": 960, "min": 961, "mine": 962, "ming": 963, "mm": 964, "mo": 965, "mon": 966, "moon": 967, "more": 968, "most": 969, "mouth": 970, "ms": 971, "mus": 972, "my": 973, "n": 974, "na": 975, "nd": 976, "ne": 977, "ned": 978, "nee": 979, "nell": 980, "ness": 981, "ney": 982, "night": 983, "ning": 984, "no": 985, "not": 986, "ns": 987, "nt": 988, "num": 989, "nut": 990, "ny": 991, "o": 992, "oa": 993, "ob": 994, "oba": 995, "obe": 996, "obs": 997, "oc": 998, "oche": 999, "oco": 1000, "ocol": 1001, "od": 1002, "oda": 1003, "ody": 1004, "oe": 1005, "of": 1006, "off": 1007, "oft": 1008, "og": 1009, "ogs": 1010, "oh": 1011, "ok": 1012, "oke": 1013, "oked": 1014, "oker": 1015, "oking": 1016, "oks": 1017, "ol": 1018, "ola": 1019, "old": 1020, "ole": 1021, "oli": 1022, "olis": 1023, "olly": 1024, "olo": 1025, "olog": 1026, "ologies": 1027, "ologist": 1028, "ology": 1029, "om": 1030, "ome": 1031, "omed": 1032, "omen": 1033, "omer": 1034, "omers": 1035, "omet": 1036, "oming": 1037, "omm": 1038, "oms": 1039, "on": 1040, "ona": 1041, "onda": 1042, "one": 1043, "ones": 1044, "ong": 1045, "oni": 1046, "onic": 1047, "onica": 1048, "onn": 1049, "onna": 1050, "ons": 1051, "ont": 1052, "oo": 1053, "ood": 1054, "ool": 1055, "oon": 1056, "oons": 1057, "oop": 1058, "oor": 1059, "oos": 1060, "oot": 1061, "op": 1062, "ope": 1063, "ops": 1064, "opus": 1065, "or": 1066, "ora": 1067, "oran": 1068, "ordin": 1069, "ore": 1070, "ored": 1071, "organized": 1072, "ori": 1073, "oria": 1074, "ories": 1075, "oring": 1076, "ork": 1077, "orm": 1078, "orn": 1079, "ors": 1080, "ort": 1081, "orted": 1082, "ory": 1083, "os": 1084, "osa": 1085, "ose": 1086, "osh": 1087, "osphere": 1088, "ot": 1089, "ote": 1090, "oth": 1091, "other": 1092, "oths": 1093, "otic": 1094, "ots": 1095, "ott": 1096, "otta": 1097, "otti": 1098, "otto": 1099, "ou": 1100, "oub": 1101, "ough": 1102, "oun": 1103, "ound": 1104, "ounder": 1105, "ounding": 1106, "oured": 1107, "ours": 1108, "ous": 1109, "ouses": 1110, "ously": 1111, "out": 1112, "outs": 1113, "ov": 1114, "ove": 1115, "over": 1116, "overs": 1117, "ow": 1118, "owed": 1119, "owing": 1120, "own": 1121, "owned": 1122, "ows": 1123, "ox": 1124, "oz": 1125, "oza": 1126, "p": 1127, "pac": 1128, "paid": 1129, "pan": 1130, "paper": 1131, "par": 1132, "park": 1133, "pd": 1134, "pe": 1135, "pected": 1136, "ped": 1137, "people": 1138, "per": 1139, "pered": 1140, "pers": 1141, "person": 1142, "pes": 1143, "pet": 1144, "pets": 1145, "pie": 1146, "pies": 1147, "ping": 1148, "pl": 1149, "place": 1150, "plant": 1151, "ple": 1152, "pleasant": 1153, "plements": 1154, "pler": 1155, "pling": 1156, "pm": 1157, "po": 1158, "pot": 1159, "power": 1160, "powered": 1161, "ppers": 1162, "pres": 1163, "press": 1164, "prises": 1165, "professional": 1166, "ps": 1167, "pt": 1168, "py": 1169, "q": 1170, "qu": 1171, "quality": 1172, "que": 1173, "ques": 1174, "quet": 1175, "quis": 1176, "r": 1177, "ra": 1178, "rab": 1179, "ract": 1180, "racted": 1181, "ral": 1182, "rally": 1183, "ram": 1184, "rank": 1185, "rano": 1186, "rant": 1187, "rap": 1188, "ras": 1189, "rate": 1190, "rated": 1191, "rating": 1192, "ray": 1193, "rays": 1194, "rd": 1195, "re": 1196, "real": 1197, "ream": 1198, "red": 1199, "ree": 1200, "rel": 1201, "rell": 1202, "rem": 1203, "reme": 1204, "ren": 1205, "rep": 1206, "res": 1207, "respect": 1208, "ress": 1209, "ressed": 1210, "rest": 1211, "ret": 1212, "ri": 1213, "ria": 1214, "rib": 1215, "rible": 1216, "ric": 1217, "rick": 1218, "rics": 1219, "rid": 1220, "rie": 1221, "ried": 1222, "rier": 1223, "ries": 1224, "rific": 1225, "rified": 1226, "rift": 1227, "right": 1228, "rip": 1229, "ris": 1230, "rist": 1231, "rit": 1232, "rite": 1233, "rium": 1234, "rix": 1235, "ro": 1236, "rog": 1237, "roll": 1238, "rolls": 1239, "rom": 1240, "ron": 1241, "rone": 1242, "room": 1243, "rooms": 1244, "rop": 1245, "ros": 1246, "rot": 1247, "row": 1248, "rows": 1249, "rs": 1250, "ru": 1251, "rum": 1252, "run": 1253, "rup": 1254, "rus": 1255, "ry": 1256, "rying": 1257, "rys": 1258, "s": 1259, "sa": 1260, "sc": 1261, "scale": 1262, "school": 1263, "se": 1264, "season": 1265, "see": 1266, "sen": 1267, "sey": 1268, "sh": 1269, "side": 1270, "site": 1271, "sm": 1272, "so": 1273, "son": 1274, "st": 1275, "stad": 1276, "staff": 1277, "stairs": 1278, "stal": 1279, "standard": 1280, "star": 1281, "stat": 1282, "stated": 1283, "static": 1284, "ster": 1285, "sters": 1286, "stick": 1287, "stock": 1288, "stone": 1289, "store": 1290, "stown": 1291, "strom": 1292, "sty": 1293, "style": 1294, "sum": 1295, "t": 1296, "ta": 1297, "table": 1298, "tail": 1299, "taking": 1300, "te": 1301, "ted": 1302, "ten": 1303, "ter": 1304, "tered": 1305, "term": 1306, "tern": 1307, "ters": 1308, "tery": 1309, "th": 1310, "the": 1311, "they": 1312, "thia": 1313, "through": 1314, "thy": 1315, "tically": 1316, "ties": 1317, "time": 1318, "ting": 1319, "tle": 1320, "tles": 1321, "to": 1322, "ton": 1323, "top": 1324, "town": 1325, "tr": 1326, "try": 1327, "ts": 1328, "tt": 1329, "tte": 1330, "tti": 1331, "tub": 1332, "tures": 1333, "tw": 1334, "ty": 1335, "tz": 1336, "u": 1337, "ua": 1338, "ual": 1339, "uan": 1340, "ub": 1341, "ube": 1342, "uben": 1343, "uc": 1344, "ucci": 1345, "uce": 1346, "uced": 1347, "uces": 1348, "uck": 1349, "ucks": 1350, "ucky": 1351, "ud": 1352, "ude": 1353, "udes": 1354, "udge": 1355, "ue": 1356, "uel": 1357, "uff": 1358, "uffle": 1359, "ug": 1360, "ugg": 1361, "ugh": 1362, "ugs": 1363, "uin": 1364, "uing": 1365, "uit": 1366, "uits": 1367, "uity": 1368, "ul": 1369, "ula": 1370, "ulate": 1371, "ule": 1372, "uled": 1373, "ulous": 1374, "ulu": 1375, "um": 1376, "umb": 1377, "umba": 1378, "umber": 1379, "umed": 1380, "umer": 1381, "uming": 1382, "ump": 1383, "un": 1384, "una": 1385, "unch": 1386, "unct": 1387, "und": 1388, "ung": 1389, "unk": 1390, "unt": 1391, "up": 1392, "ur": 1393, "ura": 1394, "urable": 1395, "urb": 1396, "ure": 1397, "ured": 1398, "ures": 1399, "uring": 1400, "uro": 1401, "urt": 1402, "us": 1403, "use": 1404, "used": 1405, "uses": 1406, "ush": 1407, "ushed": 1408, "using": 1409, "usive": 1410, "uss": 1411, "ust": 1412, "uster": 1413, "ut": 1414, "utable": 1415, "ute": 1416, "uted": 1417, "utions": 1418, "uts": 1419, "ux": 1420, "uz": 1421, "v": 1422, "va": 1423, "vac": 1424, "vd": 1425, "ve": 1426, "ved": 1427, "ven": 1428, "ver": 1429, "ves": 1430, "vey": 1431, "vi": 1432, "ving": 1433, "vs": 1434, "vy": 1435, "w": 1436, "walk": 1437, "wall": 1438, "war": 1439, "ward": 1440, "ware": 1441, "was": 1442, "wash": 1443, "wat": 1444, "water": 1445, "way": 1446, "ways": 1447, "we": 1448, "wear": 1449, "weed": 1450, "wel": 1451, "welcome": 1452, "wer": 1453, "wh": 1454, "which": 1455, "while": 1456, "who": 1457, "wic": 1458, "will": 1459, "wind": 1460, "wing": 1461, "wire": 1462, "wn": 1463, "wning": 1464, "woods": 1465, "work": 1466, "worked": 1467, "workers": 1468, "working": 1469, "worth": 1470, "worthy": 1471, "ws": 1472, "ww": 1473, "wy": 1474, "x": 1475, "y": 1476, "ya": 1477, "yard": 1478, "year": 1479, "yi": 1480, "ying": 1481, "yl": 1482, "yn": 1483, "you": 1484, "your": 1485, "ys": 1486, "z": 1487, "ze": 1488, "zech": 1489, "zer": 1490, "zi": 1491, "zo": 1492, "zone": 1493, "zy": 1494, "zz": 1495, "~": 1496, "\u2581": 1497, "\u2581#": 1498, "\u2581$": 1499, "\u2581&": 1500, "\u2581'": 1501, "\u2581''": 1502, "\u2581(": 1503, "\u2581)": 1504, "\u2581*": 1505, "\u2581***": 1506, "\u2581****": 1507, "\u2581+": 1508, "\u2581,": 1509, "\u2581-": 1510, "\u2581--": 1511, "\u2581.": 1512, "\u2581...": 1513, "\u2581/": 1514, "\u25810": 1515, "\u25810,000": 1516, "\u25810-": 1517, "\u25810-0": 1518, "\u25810-00": 1519, "\u25810/0": 1520, "\u258100": 1521, "\u258100-00": 1522, "\u258100/00": 1523, "\u258100:00": 1524, "\u25810:00": 1525, "\u2581:": 1526, "\u2581;": 1527, "\u2581=": 1528, "\u2581?": 1529, "\u2581a": 1530, "\u2581aaa": 1531, "\u2581aaron": 1532, "\u2581ab": 1533, "\u2581abandoned": 1534, "\u2581abc": 1535, "\u2581ability": 1536, "\u2581able": 1537, "\u2581about": 1538, "\u2581above": 1539, "\u2581absent": 1540, "\u2581absol": 1541, "\u2581absolute": 1542, "\u2581absolutely": 1543, "\u2581absurd": 1544, "\u2581abundance": 1545, "\u2581abundant": 1546, "\u2581ac": 1547, "\u2581accent": 1548, "\u2581accept": 1549, "\u2581acceptable": 1550, "\u2581accepted": 1551, "\u2581accepts": 1552, "\u2581access": 1553, "\u2581accessible": 1554, "\u2581accessories": 1555, "\u2581accident": 1556, "\u2581accidentally": 1557, "\u2581accom": 1558, "\u2581accommod": 1559, "\u2581accommodate": 1560, "\u2581accompan": 1561, "\u2581accompanied": 1562, "\u2581accompany": 1563, "\u2581accompanying": 1564, "\u2581accomplished": 1565, "\u2581accord": 1566, "\u2581according": 1567, "\u2581accordingly": 1568, "\u2581account": 1569, "\u2581accounts": 1570, "\u2581accurate": 1571, "\u2581ace": 1572, "\u2581acknowled": 1573, "\u2581acknowledge": 1574, "\u2581acknowledged": 1575, "\u2581acoust": 1576, "\u2581across": 1577, "\u2581act": 1578, "\u2581acted": 1579, "\u2581acting": 1580, "\u2581action": 1581, "\u2581actions": 1582, "\u2581active": 1583, "\u2581activities": 1584, "\u2581activity": 1585, "\u2581actors": 1586, "\u2581acts": 1587, "\u2581actual": 1588, "\u2581actually": 1589, "\u2581ad": 1590, "\u2581adam": 1591, "\u2581adams": 1592, "\u2581add": 1593, "\u2581added": 1594, "\u2581addiction": 1595, "\u2581adding": 1596, "\u2581addition": 1597, "\u2581additional": 1598, "\u2581additionally": 1599, "\u2581additions": 1600, "\u2581address": 1601, "\u2581addressed": 1602, "\u2581adds": 1603, "\u2581adequate": 1604, "\u2581adjust": 1605, "\u2581adjusted": 1606, "\u2581adjustment": 1607, "\u2581adm": 1608, "\u2581administration": 1609, "\u2581admission": 1610, "\u2581admit": 1611, "\u2581admitted": 1612, "\u2581adobe": 1613, "\u2581adopt": 1614, "\u2581adopted": 1615, "\u2581adrian": 1616, "\u2581ads": 1617, "\u2581adult": 1618, "\u2581adults": 1619, "\u2581adv": 1620, "\u2581advance": 1621, "\u2581advanced": 1622, "\u2581advantage": 1623, "\u2581advent": 1624, "\u2581adventure": 1625, "\u2581advert": 1626, "\u2581advertised": 1627, "\u2581advertisement": 1628, "\u2581advertising": 1629, "\u2581advice": 1630, "\u2581advised": 1631, "\u2581advisor": 1632, "\u2581aesthet": 1633, "\u2581aesthetic": 1634, "\u2581affair": 1635, "\u2581affiliated": 1636, "\u2581afford": 1637, "\u2581affordable": 1638, "\u2581afraid": 1639, "\u2581african": 1640, "\u2581after": 1641, "\u2581afternoon": 1642, "\u2581afterward": 1643, "\u2581afterwards": 1644, "\u2581ag": 1645, "\u2581again": 1646, "\u2581against": 1647, "\u2581age": 1648, "\u2581aged": 1649, "\u2581agency": 1650, "\u2581agent": 1651, "\u2581agents": 1652, "\u2581ages": 1653, "\u2581aggressive": 1654, "\u2581ago": 1655, "\u2581agree": 1656, "\u2581agreed": 1657, "\u2581agreement": 1658, "\u2581ah": 1659, "\u2581ahead": 1660, "\u2581ai": 1661, "\u2581aid": 1662, "\u2581air": 1663, "\u2581airline": 1664, "\u2581airlines": 1665, "\u2581airplane": 1666, "\u2581airport": 1667, "\u2581airports": 1668, "\u2581airways": 1669, "\u2581ais": 1670, "\u2581aj": 1671, "\u2581aka": 1672, "\u2581al": 1673, "\u2581alan": 1674, "\u2581alarm": 1675, "\u2581alaska": 1676, "\u2581alb": 1677, "\u2581albeit": 1678, "\u2581alcohol": 1679, "\u2581alcoholic": 1680, "\u2581ale": 1681, "\u2581alert": 1682, "\u2581alex": 1683, "\u2581alexander": 1684, "\u2581alfred": 1685, "\u2581ali": 1686, "\u2581alice": 1687, "\u2581alignment": 1688, "\u2581alike": 1689, "\u2581alive": 1690, "\u2581all": 1691, "\u2581allen": 1692, "\u2581alley": 1693, "\u2581allison": 1694, "\u2581allow": 1695, "\u2581allowed": 1696, "\u2581allowing": 1697, "\u2581allows": 1698, "\u2581alma": 1699, "\u2581almond": 1700, "\u2581almost": 1701, "\u2581alone": 1702, "\u2581along": 1703, "\u2581already": 1704, "\u2581also": 1705, "\u2581alta": 1706, "\u2581alter": 1707, "\u2581alterations": 1708, "\u2581altered": 1709, "\u2581altern": 1710, "\u2581alternative": 1711, "\u2581alternatives": 1712, "\u2581although": 1713, "\u2581altogether": 1714, "\u2581always": 1715, "\u2581am": 1716, "\u2581amanda": 1717, "\u2581amateur": 1718, "\u2581amaz": 1719, "\u2581amazing": 1720, "\u2581amazon": 1721, "\u2581amb": 1722, "\u2581amber": 1723, "\u2581ambient": 1724, "\u2581amc": 1725, "\u2581amenities": 1726, "\u2581america": 1727, "\u2581american": 1728, "\u2581americans": 1729, "\u2581among": 1730, "\u2581amongst": 1731, "\u2581amount": 1732, "\u2581amounts": 1733, "\u2581amusement": 1734, "\u2581amy": 1735, "\u2581an": 1736, "\u2581ana": 1737, "\u2581anch": 1738, "\u2581ancient": 1739, "\u2581and": 1740, "\u2581anderson": 1741, "\u2581andrea": 1742, "\u2581andrew": 1743, "\u2581andy": 1744, "\u2581ang": 1745, "\u2581angel": 1746, "\u2581angela": 1747, "\u2581angeles": 1748, "\u2581angels": 1749, "\u2581angry": 1750, "\u2581angus": 1751, "\u2581animal": 1752, "\u2581animals": 1753, "\u2581anita": 1754, "\u2581ann": 1755, "\u2581anna": 1756, "\u2581anne": 1757, "\u2581annie": 1758, "\u2581anniversary": 1759, "\u2581annoy": 1760, "\u2581annual": 1761, "\u2581another": 1762, "\u2581answ": 1763, "\u2581answer": 1764, "\u2581answered": 1765, "\u2581answers": 1766, "\u2581anthem": 1767, "\u2581anthony": 1768, "\u2581anti": 1769, "\u2581antibiot": 1770, "\u2581anticipated": 1771, "\u2581antip": 1772, "\u2581antique": 1773, "\u2581antonio": 1774, "\u2581ants": 1775, "\u2581anx": 1776, "\u2581anxiety": 1777, "\u2581any": 1778, "\u2581anymore": 1779, "\u2581anyone": 1780, "\u2581anything": 1781, "\u2581anyway": 1782, "\u2581anywhere": 1783, "\u2581ap": 1784, "\u2581apache": 1785, "\u2581apart": 1786, "\u2581apartment": 1787, "\u2581apartments": 1788, "\u2581apolog": 1789, "\u2581apology": 1790, "\u2581app": 1791, "\u2581apparent": 1792, "\u2581apparently": 1793, "\u2581appeal": 1794, "\u2581appealing": 1795, "\u2581appear": 1796, "\u2581appearance": 1797, "\u2581appeared": 1798, "\u2581appears": 1799, "\u2581appl": 1800, "\u2581apple": 1801, "\u2581apples": 1802, "\u2581application": 1803, "\u2581applied": 1804, "\u2581apply": 1805, "\u2581appointed": 1806, "\u2581appointment": 1807, "\u2581appointments": 1808, "\u2581appreci": 1809, "\u2581appreciated": 1810, "\u2581appreciation": 1811, "\u2581appro": 1812, "\u2581approach": 1813, "\u2581approached": 1814, "\u2581appropri": 1815, "\u2581appropriate": 1816, "\u2581approval": 1817, "\u2581approve": 1818, "\u2581approved": 1819, "\u2581approximately": 1820, "\u2581april": 1821, "\u2581apt": 1822, "\u2581aquarium": 1823, "\u2581ar": 1824, "\u2581arc": 1825, "\u2581arcade": 1826, "\u2581architecture": 1827, "\u2581are": 1828, "\u2581area": 1829, "\u2581areas": 1830, "\u2581arena": 1831, "\u2581arguably": 1832, "\u2581argue": 1833, "\u2581argued": 1834, "\u2581arguing": 1835, "\u2581arizona": 1836, "\u2581arm": 1837, "\u2581arms": 1838, "\u2581arnold": 1839, "\u2581arom": 1840, "\u2581around": 1841, "\u2581arranged": 1842, "\u2581arrangement": 1843, "\u2581arrangements": 1844, "\u2581array": 1845, "\u2581arrival": 1846, "\u2581arrive": 1847, "\u2581arrived": 1848, "\u2581arrives": 1849, "\u2581arriving": 1850, "\u2581arrow": 1851, "\u2581art": 1852, "\u2581arthur": 1853, "\u2581artifacts": 1854, "\u2581artificial": 1855, "\u2581artist": 1856, "\u2581artistic": 1857, "\u2581artists": 1858, "\u2581arts": 1859, "\u2581artwork": 1860, "\u2581as": 1861, "\u2581ash": 1862, "\u2581ashley": 1863, "\u2581asi": 1864, "\u2581asia": 1865, "\u2581asian": 1866, "\u2581aside": 1867, "\u2581ask": 1868, "\u2581asked": 1869, "\u2581asking": 1870, "\u2581asks": 1871, "\u2581aspect": 1872, "\u2581aspects": 1873, "\u2581ass": 1874, "\u2581assessment": 1875, "\u2581asset": 1876, "\u2581assigned": 1877, "\u2581assist": 1878, "\u2581assistance": 1879, "\u2581assistant": 1880, "\u2581assistants": 1881, "\u2581assisted": 1882, "\u2581assisting": 1883, "\u2581associate": 1884, "\u2581associates": 1885, "\u2581assume": 1886, "\u2581assumed": 1887, "\u2581assuming": 1888, "\u2581assured": 1889, "\u2581ast": 1890, "\u2581at": 1891, "\u2581ate": 1892, "\u2581athletic": 1893, "\u2581atm": 1894, "\u2581atmosp": 1895, "\u2581atmosphere": 1896, "\u2581atomic": 1897, "\u2581att": 1898, "\u2581attached": 1899, "\u2581attack": 1900, "\u2581attempt": 1901, "\u2581attempted": 1902, "\u2581attempts": 1903, "\u2581attend": 1904, "\u2581attended": 1905, "\u2581attending": 1906, "\u2581attention": 1907, "\u2581attitude": 1908, "\u2581attitudes": 1909, "\u2581attorney": 1910, "\u2581attract": 1911, "\u2581attraction": 1912, "\u2581attractions": 1913, "\u2581attractive": 1914, "\u2581attracts": 1915, "\u2581au": 1916, "\u2581audi": 1917, "\u2581audience": 1918, "\u2581audio": 1919, "\u2581august": 1920, "\u2581aunt": 1921, "\u2581austin": 1922, "\u2581aut": 1923, "\u2581authen": 1924, "\u2581authentic": 1925, "\u2581authenticity": 1926, "\u2581authority": 1927, "\u2581auto": 1928, "\u2581automated": 1929, "\u2581automatic": 1930, "\u2581automatically": 1931, "\u2581automotive": 1932, "\u2581auton": 1933, "\u2581autumn": 1934, "\u2581av": 1935, "\u2581avail": 1936, "\u2581availability": 1937, "\u2581available": 1938, "\u2581ave": 1939, "\u2581avenue": 1940, "\u2581average": 1941, "\u2581avid": 1942, "\u2581avoid": 1943, "\u2581avoided": 1944, "\u2581avoiding": 1945, "\u2581aw": 1946, "\u2581award": 1947, "\u2581awards": 1948, "\u2581aware": 1949, "\u2581away": 1950, "\u2581awk": 1951, "\u2581ay": 1952, "\u2581az": 1953, "\u2581b": 1954, "\u2581ba": 1955, "\u2581bab": 1956, "\u2581baba": 1957, "\u2581babies": 1958, "\u2581baby": 1959, "\u2581bac": 1960, "\u2581back": 1961, "\u2581backed": 1962, "\u2581background": 1963, "\u2581backs": 1964, "\u2581backwards": 1965, "\u2581bacon": 1966, "\u2581bad": 1967, "\u2581badly": 1968, "\u2581bag": 1969, "\u2581bags": 1970, "\u2581bah": 1971, "\u2581baja": 1972, "\u2581bak": 1973, "\u2581baker": 1974, "\u2581balance": 1975, "\u2581balanced": 1976, "\u2581balcon": 1977, "\u2581bald": 1978, "\u2581ball": 1979, "\u2581ballet": 1980, "\u2581balls": 1981, "\u2581bam": 1982, "\u2581bamboo": 1983, "\u2581ban": 1984, "\u2581banana": 1985, "\u2581band": 1986, "\u2581bands": 1987, "\u2581bang": 1988, "\u2581bank": 1989, "\u2581banking": 1990, "\u2581banks": 1991, "\u2581banner": 1992, "\u2581banquet": 1993, "\u2581bar": 1994, "\u2581barb": 1995, "\u2581barbara": 1996, "\u2581barber": 1997, "\u2581bare": 1998, "\u2581barely": 1999, "\u2581barg": 2000, "\u2581bark": 2001, "\u2581barn": 2002, "\u2581barnes": 2003, "\u2581barrel": 2004, "\u2581barrier": 2005, "\u2581barry": 2006, "\u2581bars": 2007, "\u2581bart": 2008, "\u2581bas": 2009, "\u2581base": 2010, "\u2581baseball": 2011, "\u2581based": 2012, "\u2581basement": 2013, "\u2581bash": 2014, "\u2581basic": 2015, "\u2581basically": 2016, "\u2581basil": 2017, "\u2581basis": 2018, "\u2581basket": 2019, "\u2581basketball": 2020, "\u2581bass": 2021, "\u2581bat": 2022, "\u2581batch": 2023, "\u2581bath": 2024, "\u2581batman": 2025, "\u2581batter": 2026, "\u2581batteries": 2027, "\u2581battery": 2028, "\u2581bavarian": 2029, "\u2581bay": 2030, "\u2581bb": 2031, "\u2581bc": 2032, "\u2581be": 2033, "\u2581beach": 2034, "\u2581bean": 2035, "\u2581beans": 2036, "\u2581bear": 2037, "\u2581beard": 2038, "\u2581bears": 2039, "\u2581beat": 2040, "\u2581beaten": 2041, "\u2581beats": 2042, "\u2581beautiful": 2043, "\u2581beauty": 2044, "\u2581bec": 2045, "\u2581became": 2046, "\u2581because": 2047, "\u2581become": 2048, "\u2581becomes": 2049, "\u2581becoming": 2050, "\u2581bed": 2051, "\u2581bedroom": 2052, "\u2581beds": 2053, "\u2581bee": 2054, "\u2581beef": 2055, "\u2581been": 2056, "\u2581beer": 2057, "\u2581beers": 2058, "\u2581beet": 2059, "\u2581before": 2060, "\u2581beg": 2061, "\u2581began": 2062, "\u2581begin": 2063, "\u2581beginning": 2064, "\u2581begins": 2065, "\u2581beh": 2066, "\u2581behav": 2067, "\u2581behavior": 2068, "\u2581behind": 2069, "\u2581being": 2070, "\u2581bel": 2071, "\u2581belgian": 2072, "\u2581belief": 2073, "\u2581believe": 2074, "\u2581believed": 2075, "\u2581bell": 2076, "\u2581belly": 2077, "\u2581belong": 2078, "\u2581beloved": 2079, "\u2581below": 2080, "\u2581belt": 2081, "\u2581ben": 2082, "\u2581bench": 2083, "\u2581bend": 2084, "\u2581benedict": 2085, "\u2581benefit": 2086, "\u2581benefits": 2087, "\u2581benny": 2088, "\u2581bent": 2089, "\u2581ber": 2090, "\u2581berry": 2091, "\u2581beside": 2092, "\u2581besides": 2093, "\u2581best": 2094, "\u2581bet": 2095, "\u2581beth": 2096, "\u2581better": 2097, "\u2581between": 2098, "\u2581beverage": 2099, "\u2581beverages": 2100, "\u2581beyond": 2101, "\u2581bf": 2102, "\u2581bi": 2103, "\u2581bian": 2104, "\u2581bib": 2105, "\u2581bible": 2106, "\u2581bicycle": 2107, "\u2581bid": 2108, "\u2581big": 2109, "\u2581bigger": 2110, "\u2581biggest": 2111, "\u2581bik": 2112, "\u2581bike": 2113, "\u2581bill": 2114, "\u2581billed": 2115, "\u2581bills": 2116, "\u2581billy": 2117, "\u2581bin": 2118, "\u2581bird": 2119, "\u2581birds": 2120, "\u2581birth": 2121, "\u2581birthday": 2122, "\u2581bis": 2123, "\u2581bisc": 2124, "\u2581bison": 2125, "\u2581bit": 2126, "\u2581bite": 2127, "\u2581bits": 2128, "\u2581bitter": 2129, "\u2581biz": 2130, "\u2581bizarre": 2131, "\u2581bj": 2132, "\u2581bl": 2133, "\u2581black": 2134, "\u2581blame": 2135, "\u2581blamed": 2136, "\u2581bland": 2137, "\u2581blank": 2138, "\u2581blast": 2139, "\u2581ble": 2140, "\u2581bleeding": 2141, "\u2581blend": 2142, "\u2581bless": 2143, "\u2581blessed": 2144, "\u2581blessing": 2145, "\u2581blind": 2146, "\u2581bliss": 2147, "\u2581block": 2148, "\u2581blocks": 2149, "\u2581blond": 2150, "\u2581blonde": 2151, "\u2581blood": 2152, "\u2581bloody": 2153, "\u2581bloom": 2154, "\u2581bloss": 2155, "\u2581blow": 2156, "\u2581blowing": 2157, "\u2581blown": 2158, "\u2581blows": 2159, "\u2581blue": 2160, "\u2581blues": 2161, "\u2581bmw": 2162, "\u2581bo": 2163, "\u2581board": 2164, "\u2581boarding": 2165, "\u2581boards": 2166, "\u2581boat": 2167, "\u2581bob": 2168, "\u2581bobby": 2169, "\u2581body": 2170, "\u2581boiled": 2171, "\u2581bold": 2172, "\u2581bolog": 2173, "\u2581bolt": 2174, "\u2581bomb": 2175, "\u2581bombers": 2176, "\u2581bombs": 2177, "\u2581bon": 2178, "\u2581bond": 2179, "\u2581bone": 2180, "\u2581bones": 2181, "\u2581bonnie": 2182, "\u2581bonus": 2183, "\u2581book": 2184, "\u2581books": 2185, "\u2581boom": 2186, "\u2581boost": 2187, "\u2581boot": 2188, "\u2581booth": 2189, "\u2581boots": 2190, "\u2581bor": 2191, "\u2581border": 2192, "\u2581borders": 2193, "\u2581born": 2194, "\u2581bosnian": 2195, "\u2581boss": 2196, "\u2581boston": 2197, "\u2581bot": 2198, "\u2581botanical": 2199, "\u2581both": 2200, "\u2581bott": 2201, "\u2581bottle": 2202, "\u2581bottles": 2203, "\u2581bottom": 2204, "\u2581bou": 2205, "\u2581bought": 2206, "\u2581boulder": 2207, "\u2581bound": 2208, "\u2581bourbon": 2209, "\u2581bout": 2210, "\u2581bow": 2211, "\u2581bowl": 2212, "\u2581bowling": 2213, "\u2581bowls": 2214, "\u2581box": 2215, "\u2581boxes": 2216, "\u2581boy": 2217, "\u2581boyfriend": 2218, "\u2581boys": 2219, "\u2581br": 2220, "\u2581bra": 2221, "\u2581brack": 2222, "\u2581brad": 2223, "\u2581brain": 2224, "\u2581brake": 2225, "\u2581brakes": 2226, "\u2581branch": 2227, "\u2581brand": 2228, "\u2581brandon": 2229, "\u2581brands": 2230, "\u2581brat": 2231, "\u2581brave": 2232, "\u2581bravo": 2233, "\u2581brazilian": 2234, "\u2581bre": 2235, "\u2581bread": 2236, "\u2581break": 2237, "\u2581breakfast": 2238, "\u2581breaking": 2239, "\u2581breaks": 2240, "\u2581breast": 2241, "\u2581breath": 2242, "\u2581breathing": 2243, "\u2581bree": 2244, "\u2581breed": 2245, "\u2581bren": 2246, "\u2581brennan": 2247, "\u2581brett": 2248, "\u2581brew": 2249, "\u2581brewer": 2250, "\u2581brewery": 2251, "\u2581brewing": 2252, "\u2581bri": 2253, "\u2581brian": 2254, "\u2581brick": 2255, "\u2581brid": 2256, "\u2581bride": 2257, "\u2581bridge": 2258, "\u2581brief": 2259, "\u2581bright": 2260, "\u2581brilliant": 2261, "\u2581bring": 2262, "\u2581bringing": 2263, "\u2581brings": 2264, "\u2581bris": 2265, "\u2581british": 2266, "\u2581brittany": 2267, "\u2581bro": 2268, "\u2581broad": 2269, "\u2581broadway": 2270, "\u2581broke": 2271, "\u2581broken": 2272, "\u2581brooke": 2273, "\u2581brooklyn": 2274, "\u2581bros": 2275, "\u2581brother": 2276, "\u2581brothers": 2277, "\u2581brought": 2278, "\u2581brown": 2279, "\u2581browns": 2280, "\u2581brows": 2281, "\u2581bruce": 2282, "\u2581brun": 2283, "\u2581brunswick": 2284, "\u2581brush": 2285, "\u2581brutal": 2286, "\u2581bryan": 2287, "\u2581bu": 2288, "\u2581bub": 2289, "\u2581bubble": 2290, "\u2581buc": 2291, "\u2581buck": 2292, "\u2581bucket": 2293, "\u2581bucks": 2294, "\u2581bud": 2295, "\u2581budd": 2296, "\u2581buddy": 2297, "\u2581budget": 2298, "\u2581buff": 2299, "\u2581buffalo": 2300, "\u2581bug": 2301, "\u2581bugs": 2302, "\u2581build": 2303, "\u2581building": 2304, "\u2581buildings": 2305, "\u2581built": 2306, "\u2581bul": 2307, "\u2581bulb": 2308, "\u2581bulg": 2309, "\u2581bulk": 2310, "\u2581bull": 2311, "\u2581bum": 2312, "\u2581bump": 2313, "\u2581bun": 2314, "\u2581bunch": 2315, "\u2581bur": 2316, "\u2581bureau": 2317, "\u2581burger": 2318, "\u2581burgh": 2319, "\u2581burn": 2320, "\u2581burned": 2321, "\u2581burning": 2322, "\u2581burns": 2323, "\u2581burnt": 2324, "\u2581burst": 2325, "\u2581bus": 2326, "\u2581buses": 2327, "\u2581busiest": 2328, "\u2581business": 2329, "\u2581businesses": 2330, "\u2581bust": 2331, "\u2581busy": 2332, "\u2581but": 2333, "\u2581butcher": 2334, "\u2581butt": 2335, "\u2581butter": 2336, "\u2581butterfly": 2337, "\u2581button": 2338, "\u2581buttons": 2339, "\u2581buy": 2340, "\u2581buyer": 2341, "\u2581buyers": 2342, "\u2581buying": 2343, "\u2581buzz": 2344, "\u2581by": 2345, "\u2581c": 2346, "\u2581ca": 2347, "\u2581cab": 2348, "\u2581cabin": 2349, "\u2581cabinet": 2350, "\u2581cable": 2351, "\u2581cadillac": 2352, "\u2581caes": 2353, "\u2581caesar": 2354, "\u2581caf": 2355, "\u2581cafe": 2356, "\u2581cage": 2357, "\u2581cake": 2358, "\u2581cal": 2359, "\u2581calendar": 2360, "\u2581caliber": 2361, "\u2581california": 2362, "\u2581call": 2363, "\u2581called": 2364, "\u2581calling": 2365, "\u2581calls": 2366, "\u2581calm": 2367, "\u2581cam": 2368, "\u2581came": 2369, "\u2581camel": 2370, "\u2581camera": 2371, "\u2581cameras": 2372, "\u2581camp": 2373, "\u2581camping": 2374, "\u2581campus": 2375, "\u2581can": 2376, "\u2581canadian": 2377, "\u2581canal": 2378, "\u2581cancel": 2379, "\u2581canceled": 2380, "\u2581cancelled": 2381, "\u2581cancer": 2382, "\u2581cand": 2383, "\u2581candy": 2384, "\u2581cann": 2385, "\u2581cant": 2386, "\u2581cantonese": 2387, "\u2581canyon": 2388, "\u2581cap": 2389, "\u2581capable": 2390, "\u2581capacity": 2391, "\u2581capital": 2392, "\u2581capitol": 2393, "\u2581capp": 2394, "\u2581caps": 2395, "\u2581captain": 2396, "\u2581car": 2397, "\u2581carbon": 2398, "\u2581card": 2399, "\u2581cardinals": 2400, "\u2581cards": 2401, "\u2581care": 2402, "\u2581career": 2403, "\u2581careful": 2404, "\u2581carefully": 2405, "\u2581carib": 2406, "\u2581caribbean": 2407, "\u2581carl": 2408, "\u2581carlos": 2409, "\u2581carmel": 2410, "\u2581carmen": 2411, "\u2581carn": 2412, "\u2581carne": 2413, "\u2581carnegie": 2414, "\u2581carnival": 2415, "\u2581carol": 2416, "\u2581carolina": 2417, "\u2581carp": 2418, "\u2581carpet": 2419, "\u2581carr": 2420, "\u2581carried": 2421, "\u2581carries": 2422, "\u2581carry": 2423, "\u2581carrying": 2424, "\u2581cars": 2425, "\u2581carson": 2426, "\u2581cart": 2427, "\u2581cas": 2428, "\u2581casa": 2429, "\u2581case": 2430, "\u2581cases": 2431, "\u2581casey": 2432, "\u2581cash": 2433, "\u2581casino": 2434, "\u2581cass": 2435, "\u2581cast": 2436, "\u2581castle": 2437, "\u2581casual": 2438, "\u2581cat": 2439, "\u2581catch": 2440, "\u2581catching": 2441, "\u2581category": 2442, "\u2581cater": 2443, "\u2581cath": 2444, "\u2581cats": 2445, "\u2581cattle": 2446, "\u2581caught": 2447, "\u2581cause": 2448, "\u2581caused": 2449, "\u2581causing": 2450, "\u2581caut": 2451, "\u2581caution": 2452, "\u2581cav": 2453, "\u2581cave": 2454, "\u2581cc": 2455, "\u2581cd": 2456, "\u2581cds": 2457, "\u2581ce": 2458, "\u2581ceiling": 2459, "\u2581cel": 2460, "\u2581celebrate": 2461, "\u2581celebrated": 2462, "\u2581celebrating": 2463, "\u2581celebration": 2464, "\u2581celebrations": 2465, "\u2581celebrity": 2466, "\u2581cell": 2467, "\u2581cent": 2468, "\u2581centennial": 2469, "\u2581center": 2470, "\u2581centers": 2471, "\u2581central": 2472, "\u2581cents": 2473, "\u2581century": 2474, "\u2581cere": 2475, "\u2581ceremony": 2476, "\u2581certain": 2477, "\u2581certainly": 2478, "\u2581certificate": 2479, "\u2581certified": 2480, "\u2581ces": 2481, "\u2581ch": 2482, "\u2581cha": 2483, "\u2581chad": 2484, "\u2581chain": 2485, "\u2581chains": 2486, "\u2581chair": 2487, "\u2581chairs": 2488, "\u2581chalk": 2489, "\u2581chall": 2490, "\u2581challenge": 2491, "\u2581challenged": 2492, "\u2581challenges": 2493, "\u2581challenging": 2494, "\u2581champ": 2495, "\u2581champagne": 2496, "\u2581chance": 2497, "\u2581chances": 2498, "\u2581chandler": 2499, "\u2581chang": 2500, "\u2581change": 2501, "\u2581changed": 2502, "\u2581changes": 2503, "\u2581changing": 2504, "\u2581channel": 2505, "\u2581channels": 2506, "\u2581chaos": 2507, "\u2581chapel": 2508, "\u2581char": 2509, "\u2581character": 2510, "\u2581characters": 2511, "\u2581charge": 2512, "\u2581charged": 2513, "\u2581charges": 2514, "\u2581charging": 2515, "\u2581charity": 2516, "\u2581charles": 2517, "\u2581charleston": 2518, "\u2581charlie": 2519, "\u2581charlotte": 2520, "\u2581charm": 2521, "\u2581chart": 2522, "\u2581charts": 2523, "\u2581chase": 2524, "\u2581chat": 2525, "\u2581chatt": 2526, "\u2581che": 2527, "\u2581cheap": 2528, "\u2581cheaper": 2529, "\u2581check": 2530, "\u2581checked": 2531, "\u2581checking": 2532, "\u2581checks": 2533, "\u2581cheer": 2534, "\u2581cheese": 2535, "\u2581chef": 2536, "\u2581chelsea": 2537, "\u2581chemical": 2538, "\u2581chemicals": 2539, "\u2581cher": 2540, "\u2581cherry": 2541, "\u2581chest": 2542, "\u2581chev": 2543, "\u2581chevrolet": 2544, "\u2581chi": 2545, "\u2581chic": 2546, "\u2581chicago": 2547, "\u2581chick": 2548, "\u2581chicken": 2549, "\u2581chicks": 2550, "\u2581chil": 2551, "\u2581child": 2552, "\u2581childhood": 2553, "\u2581children": 2554, "\u2581chile": 2555, "\u2581chilean": 2556, "\u2581chili": 2557, "\u2581chill": 2558, "\u2581chim": 2559, "\u2581chin": 2560, "\u2581china": 2561, "\u2581chinatown": 2562, "\u2581chinese": 2563, "\u2581chip": 2564, "\u2581chips": 2565, "\u2581chit": 2566, "\u2581chocolate": 2567, "\u2581choice": 2568, "\u2581choices": 2569, "\u2581choose": 2570, "\u2581choosing": 2571, "\u2581chop": 2572, "\u2581chor": 2573, "\u2581chose": 2574, "\u2581chosen": 2575, "\u2581chow": 2576, "\u2581chris": 2577, "\u2581christ": 2578, "\u2581christian": 2579, "\u2581christina": 2580, "\u2581christine": 2581, "\u2581christmas": 2582, "\u2581christopher": 2583, "\u2581chuck": 2584, "\u2581chun": 2585, "\u2581chur": 2586, "\u2581church": 2587, "\u2581ci": 2588, "\u2581cig": 2589, "\u2581cigarette": 2590, "\u2581cil": 2591, "\u2581circle": 2592, "\u2581circumstances": 2593, "\u2581circus": 2594, "\u2581cities": 2595, "\u2581citrus": 2596, "\u2581city": 2597, "\u2581civic": 2598, "\u2581cl": 2599, "\u2581claim": 2600, "\u2581claimed": 2601, "\u2581claims": 2602, "\u2581clark": 2603, "\u2581class": 2604, "\u2581classes": 2605, "\u2581classic": 2606, "\u2581classical": 2607, "\u2581classics": 2608, "\u2581claud": 2609, "\u2581claw": 2610, "\u2581clay": 2611, "\u2581clean": 2612, "\u2581cleaning": 2613, "\u2581clear": 2614, "\u2581clearance": 2615, "\u2581cleared": 2616, "\u2581clearly": 2617, "\u2581cler": 2618, "\u2581clerk": 2619, "\u2581clever": 2620, "\u2581client": 2621, "\u2581clients": 2622, "\u2581climb": 2623, "\u2581climbing": 2624, "\u2581clinic": 2625, "\u2581clinics": 2626, "\u2581clips": 2627, "\u2581clock": 2628, "\u2581clos": 2629, "\u2581close": 2630, "\u2581closed": 2631, "\u2581closely": 2632, "\u2581closer": 2633, "\u2581closest": 2634, "\u2581closing": 2635, "\u2581cloth": 2636, "\u2581clothes": 2637, "\u2581clothing": 2638, "\u2581clown": 2639, "\u2581club": 2640, "\u2581clubs": 2641, "\u2581clutch": 2642, "\u2581co": 2643, "\u2581coach": 2644, "\u2581coaches": 2645, "\u2581coast": 2646, "\u2581coat": 2647, "\u2581coating": 2648, "\u2581coats": 2649, "\u2581cob": 2650, "\u2581cobb": 2651, "\u2581coc": 2652, "\u2581cock": 2653, "\u2581coconut": 2654, "\u2581cod": 2655, "\u2581code": 2656, "\u2581codes": 2657, "\u2581coff": 2658, "\u2581coffee": 2659, "\u2581cohen": 2660, "\u2581coin": 2661, "\u2581coke": 2662, "\u2581col": 2663, "\u2581cold": 2664, "\u2581cole": 2665, "\u2581coll": 2666, "\u2581collar": 2667, "\u2581colle": 2668, "\u2581colleague": 2669, "\u2581colleagues": 2670, "\u2581collect": 2671, "\u2581collection": 2672, "\u2581collections": 2673, "\u2581college": 2674, "\u2581collision": 2675, "\u2581color": 2676, "\u2581colorado": 2677, "\u2581colored": 2678, "\u2581colorful": 2679, "\u2581colors": 2680, "\u2581com": 2681, "\u2581comb": 2682, "\u2581combination": 2683, "\u2581combinations": 2684, "\u2581combine": 2685, "\u2581combined": 2686, "\u2581combines": 2687, "\u2581come": 2688, "\u2581comed": 2689, "\u2581comedy": 2690, "\u2581comes": 2691, "\u2581comfort": 2692, "\u2581comfortable": 2693, "\u2581comic": 2694, "\u2581comics": 2695, "\u2581coming": 2696, "\u2581comment": 2697, "\u2581commented": 2698, "\u2581comments": 2699, "\u2581commercial": 2700, "\u2581commercials": 2701, "\u2581commission": 2702, "\u2581commitment": 2703, "\u2581committed": 2704, "\u2581common": 2705, "\u2581commun": 2706, "\u2581communicate": 2707, "\u2581communication": 2708, "\u2581community": 2709, "\u2581commuter": 2710, "\u2581comp": 2711, "\u2581companies": 2712, "\u2581companion": 2713, "\u2581companions": 2714, "\u2581company": 2715, "\u2581comparable": 2716, "\u2581compare": 2717, "\u2581compared": 2718, "\u2581comparing": 2719, "\u2581comparison": 2720, "\u2581compassion": 2721, "\u2581compelled": 2722, "\u2581compensate": 2723, "\u2581compensation": 2724, "\u2581compete": 2725, "\u2581competent": 2726, "\u2581competition": 2727, "\u2581competitive": 2728, "\u2581competitor": 2729, "\u2581competitors": 2730, "\u2581compl": 2731, "\u2581complained": 2732, "\u2581complaint": 2733, "\u2581complaints": 2734, "\u2581complement": 2735, "\u2581complementary": 2736, "\u2581complete": 2737, "\u2581completed": 2738, "\u2581completely": 2739, "\u2581complex": 2740, "\u2581complicated": 2741, "\u2581comprehensive": 2742, "\u2581compress": 2743, "\u2581computer": 2744, "\u2581computers": 2745, "\u2581con": 2746, "\u2581conc": 2747, "\u2581concept": 2748, "\u2581concern": 2749, "\u2581concerned": 2750, "\u2581concerns": 2751, "\u2581concert": 2752, "\u2581concerts": 2753, "\u2581concession": 2754, "\u2581concessions": 2755, "\u2581conclusion": 2756, "\u2581concord": 2757, "\u2581concourse": 2758, "\u2581concrete": 2759, "\u2581cond": 2760, "\u2581condition": 2761, "\u2581conditioning": 2762, "\u2581conditions": 2763, "\u2581cone": 2764, "\u2581cones": 2765, "\u2581conf": 2766, "\u2581conference": 2767, "\u2581confidence": 2768, "\u2581confident": 2769, "\u2581confirm": 2770, "\u2581confirmation": 2771, "\u2581confirmed": 2772, "\u2581confused": 2773, "\u2581confusing": 2774, "\u2581confusion": 2775, "\u2581congr": 2776, "\u2581conn": 2777, "\u2581connect": 2778, "\u2581connected": 2779, "\u2581connecting": 2780, "\u2581connection": 2781, "\u2581cons": 2782, "\u2581consc": 2783, "\u2581conscious": 2784, "\u2581conservative": 2785, "\u2581consider": 2786, "\u2581considerably": 2787, "\u2581consideration": 2788, "\u2581considered": 2789, "\u2581considering": 2790, "\u2581consist": 2791, "\u2581consisted": 2792, "\u2581consistency": 2793, "\u2581consistent": 2794, "\u2581consistently": 2795, "\u2581consists": 2796, "\u2581constant": 2797, "\u2581constantly": 2798, "\u2581construction": 2799, "\u2581consultant": 2800, "\u2581consultation": 2801, "\u2581consum": 2802, "\u2581consumed": 2803, "\u2581consumer": 2804, "\u2581contact": 2805, "\u2581contacted": 2806, "\u2581contacts": 2807, "\u2581contain": 2808, "\u2581contained": 2809, "\u2581container": 2810, "\u2581containers": 2811, "\u2581contemporary": 2812, "\u2581content": 2813, "\u2581contest": 2814, "\u2581continental": 2815, "\u2581continually": 2816, "\u2581continue": 2817, "\u2581continued": 2818, "\u2581continues": 2819, "\u2581continuing": 2820, "\u2581continuously": 2821, "\u2581contract": 2822, "\u2581contractor": 2823, "\u2581contrary": 2824, "\u2581contrast": 2825, "\u2581control": 2826, "\u2581convenience": 2827, "\u2581convenient": 2828, "\u2581convention": 2829, "\u2581convers": 2830, "\u2581conversation": 2831, "\u2581conversations": 2832, "\u2581converted": 2833, "\u2581convince": 2834, "\u2581convinced": 2835, "\u2581cook": 2836, "\u2581cooked": 2837, "\u2581cooking": 2838, "\u2581cool": 2839, "\u2581cooler": 2840, "\u2581cooling": 2841, "\u2581cooper": 2842, "\u2581coordinated": 2843, "\u2581coordinator": 2844, "\u2581copies": 2845, "\u2581copper": 2846, "\u2581copy": 2847, "\u2581cor": 2848, "\u2581cord": 2849, "\u2581core": 2850, "\u2581corn": 2851, "\u2581corner": 2852, "\u2581corners": 2853, "\u2581corporate": 2854, "\u2581corporation": 2855, "\u2581correct": 2856, "\u2581corrected": 2857, "\u2581correctly": 2858, "\u2581cos": 2859, "\u2581cosm": 2860, "\u2581cost": 2861, "\u2581costly": 2862, "\u2581costs": 2863, "\u2581costume": 2864, "\u2581costumes": 2865, "\u2581cottage": 2866, "\u2581cotton": 2867, "\u2581cou": 2868, "\u2581cough": 2869, "\u2581could": 2870, "\u2581count": 2871, "\u2581counted": 2872, "\u2581counter": 2873, "\u2581counters": 2874, "\u2581counting": 2875, "\u2581country": 2876, "\u2581counts": 2877, "\u2581county": 2878, "\u2581coup": 2879, "\u2581couple": 2880, "\u2581coupled": 2881, "\u2581couples": 2882, "\u2581cour": 2883, "\u2581course": 2884, "\u2581courses": 2885, "\u2581court": 2886, "\u2581courtesy": 2887, "\u2581courts": 2888, "\u2581courtyard": 2889, "\u2581cous": 2890, "\u2581cousin": 2891, "\u2581cousins": 2892, "\u2581cover": 2893, "\u2581coverage": 2894, "\u2581covered": 2895, "\u2581covering": 2896, "\u2581covers": 2897, "\u2581cow": 2898, "\u2581cowboy": 2899, "\u2581cox": 2900, "\u2581coy": 2901, "\u2581cp": 2902, "\u2581cr": 2903, "\u2581cra": 2904, "\u2581crab": 2905, "\u2581crack": 2906, "\u2581craft": 2907, "\u2581crafts": 2908, "\u2581craig": 2909, "\u2581cran": 2910, "\u2581crane": 2911, "\u2581crash": 2912, "\u2581craw": 2913, "\u2581crazy": 2914, "\u2581cre": 2915, "\u2581cream": 2916, "\u2581create": 2917, "\u2581created": 2918, "\u2581creates": 2919, "\u2581creating": 2920, "\u2581creative": 2921, "\u2581creativity": 2922, "\u2581creatures": 2923, "\u2581credit": 2924, "\u2581cree": 2925, "\u2581creek": 2926, "\u2581creole": 2927, "\u2581crew": 2928, "\u2581crime": 2929, "\u2581criminal": 2930, "\u2581cris": 2931, "\u2581crist": 2932, "\u2581critical": 2933, "\u2581cro": 2934, "\u2581cross": 2935, "\u2581crossed": 2936, "\u2581crowd": 2937, "\u2581crowded": 2938, "\u2581crowds": 2939, "\u2581crown": 2940, "\u2581cruise": 2941, "\u2581crushed": 2942, "\u2581crust": 2943, "\u2581cry": 2944, "\u2581crystal": 2945, "\u2581crystals": 2946, "\u2581ct": 2947, "\u2581cu": 2948, "\u2581cub": 2949, "\u2581cuban": 2950, "\u2581cuc": 2951, "\u2581cue": 2952, "\u2581cuis": 2953, "\u2581cuisine": 2954, "\u2581cul": 2955, "\u2581cultural": 2956, "\u2581culture": 2957, "\u2581cup": 2958, "\u2581cups": 2959, "\u2581cur": 2960, "\u2581cure": 2961, "\u2581curious": 2962, "\u2581current": 2963, "\u2581currently": 2964, "\u2581curry": 2965, "\u2581curt": 2966, "\u2581curtain": 2967, "\u2581cush": 2968, "\u2581cust": 2969, "\u2581custom": 2970, "\u2581customer": 2971, "\u2581customers": 2972, "\u2581cut": 2973, "\u2581cuts": 2974, "\u2581cutting": 2975, "\u2581cycl": 2976, "\u2581cycle": 2977, "\u2581cyn": 2978, "\u2581d": 2979, "\u2581da": 2980, "\u2581dad": 2981, "\u2581daily": 2982, "\u2581dairy": 2983, "\u2581dal": 2984, "\u2581dale": 2985, "\u2581dallas": 2986, "\u2581dam": 2987, "\u2581damage": 2988, "\u2581damaged": 2989, "\u2581dan": 2990, "\u2581dana": 2991, "\u2581dance": 2992, "\u2581dancer": 2993, "\u2581dancers": 2994, "\u2581dances": 2995, "\u2581dancing": 2996, "\u2581dang": 2997, "\u2581dangerous": 2998, "\u2581daniel": 2999, "\u2581daniels": 3000, "\u2581danny": 3001, "\u2581dare": 3002, "\u2581dark": 3003, "\u2581darker": 3004, "\u2581darling": 3005, "\u2581darren": 3006, "\u2581dart": 3007, "\u2581dash": 3008, "\u2581date": 3009, "\u2581dated": 3010, "\u2581dates": 3011, "\u2581daughter": 3012, "\u2581daughters": 3013, "\u2581dave": 3014, "\u2581david": 3015, "\u2581davis": 3016, "\u2581dawn": 3017, "\u2581day": 3018, "\u2581days": 3019, "\u2581daytime": 3020, "\u2581db": 3021, "\u2581dc": 3022, "\u2581dd": 3023, "\u2581de": 3024, "\u2581dead": 3025, "\u2581deal": 3026, "\u2581dealer": 3027, "\u2581dealers": 3028, "\u2581dealing": 3029, "\u2581deals": 3030, "\u2581dealt": 3031, "\u2581dean": 3032, "\u2581dear": 3033, "\u2581death": 3034, "\u2581deb": 3035, "\u2581dec": 3036, "\u2581decade": 3037, "\u2581decades": 3038, "\u2581dece": 3039, "\u2581december": 3040, "\u2581decent": 3041, "\u2581decept": 3042, "\u2581decide": 3043, "\u2581decided": 3044, "\u2581deciding": 3045, "\u2581decision": 3046, "\u2581decisions": 3047, "\u2581deck": 3048, "\u2581decline": 3049, "\u2581declined": 3050, "\u2581decor": 3051, "\u2581decorated": 3052, "\u2581decoration": 3053, "\u2581decorations": 3054, "\u2581dedicated": 3055, "\u2581dedication": 3056, "\u2581dee": 3057, "\u2581deep": 3058, "\u2581deeply": 3059, "\u2581def": 3060, "\u2581default": 3061, "\u2581defensive": 3062, "\u2581defin": 3063, "\u2581definite": 3064, "\u2581definitely": 3065, "\u2581definition": 3066, "\u2581degree": 3067, "\u2581degrees": 3068, "\u2581del": 3069, "\u2581delay": 3070, "\u2581delayed": 3071, "\u2581delays": 3072, "\u2581delicate": 3073, "\u2581delight": 3074, "\u2581deliver": 3075, "\u2581delivered": 3076, "\u2581delivering": 3077, "\u2581delivers": 3078, "\u2581delivery": 3079, "\u2581delta": 3080, "\u2581deluxe": 3081, "\u2581dem": 3082, "\u2581demand": 3083, "\u2581demanded": 3084, "\u2581demanding": 3085, "\u2581den": 3086, "\u2581denied": 3087, "\u2581denn": 3088, "\u2581dennis": 3089, "\u2581dense": 3090, "\u2581dent": 3091, "\u2581dental": 3092, "\u2581denver": 3093, "\u2581deny": 3094, "\u2581department": 3095, "\u2581departure": 3096, "\u2581depend": 3097, "\u2581depending": 3098, "\u2581depends": 3099, "\u2581deposit": 3100, "\u2581depot": 3101, "\u2581depress": 3102, "\u2581depth": 3103, "\u2581der": 3104, "\u2581derek": 3105, "\u2581des": 3106, "\u2581descent": 3107, "\u2581describe": 3108, "\u2581described": 3109, "\u2581describes": 3110, "\u2581description": 3111, "\u2581descriptions": 3112, "\u2581desert": 3113, "\u2581design": 3114, "\u2581designed": 3115, "\u2581designer": 3116, "\u2581designers": 3117, "\u2581designs": 3118, "\u2581desirable": 3119, "\u2581desire": 3120, "\u2581desired": 3121, "\u2581desk": 3122, "\u2581desp": 3123, "\u2581desper": 3124, "\u2581desperate": 3125, "\u2581despite": 3126, "\u2581dess": 3127, "\u2581destination": 3128, "\u2581destinations": 3129, "\u2581destroyed": 3130, "\u2581detail": 3131, "\u2581detailed": 3132, "\u2581detailing": 3133, "\u2581details": 3134, "\u2581deter": 3135, "\u2581dev": 3136, "\u2581developed": 3137, "\u2581device": 3138, "\u2581devil": 3139, "\u2581dew": 3140, "\u2581dh": 3141, "\u2581di": 3142, "\u2581diagn": 3143, "\u2581diagnosed": 3144, "\u2581diagnosis": 3145, "\u2581diagnostic": 3146, "\u2581diamond": 3147, "\u2581diamonds": 3148, "\u2581diana": 3149, "\u2581diane": 3150, "\u2581dice": 3151, "\u2581dick": 3152, "\u2581did": 3153, "\u2581didn": 3154, "\u2581die": 3155, "\u2581died": 3156, "\u2581diego": 3157, "\u2581diet": 3158, "\u2581dietary": 3159, "\u2581difference": 3160, "\u2581different": 3161, "\u2581differently": 3162, "\u2581difficult": 3163, "\u2581difficulty": 3164, "\u2581dig": 3165, "\u2581digital": 3166, "\u2581dignity": 3167, "\u2581dil": 3168, "\u2581dill": 3169, "\u2581dim": 3170, "\u2581din": 3171, "\u2581ding": 3172, "\u2581dining": 3173, "\u2581dinner": 3174, "\u2581dinosaur": 3175, "\u2581dip": 3176, "\u2581direct": 3177, "\u2581directed": 3178, "\u2581direction": 3179, "\u2581directions": 3180, "\u2581directly": 3181, "\u2581director": 3182, "\u2581dirt": 3183, "\u2581dirty": 3184, "\u2581dis": 3185, "\u2581disabled": 3186, "\u2581disagree": 3187, "\u2581disappear": 3188, "\u2581disappeared": 3189, "\u2581disappo": 3190, "\u2581disappoint": 3191, "\u2581disappointed": 3192, "\u2581disappointing": 3193, "\u2581disappointment": 3194, "\u2581disaster": 3195, "\u2581disc": 3196, "\u2581discount": 3197, "\u2581discover": 3198, "\u2581discovered": 3199, "\u2581discovery": 3200, "\u2581discuss": 3201, "\u2581discussed": 3202, "\u2581discussing": 3203, "\u2581discussion": 3204, "\u2581disease": 3205, "\u2581disgust": 3206, "\u2581dish": 3207, "\u2581dishes": 3208, "\u2581disliked": 3209, "\u2581dismiss": 3210, "\u2581disney": 3211, "\u2581disneyland": 3212, "\u2581disp": 3213, "\u2581display": 3214, "\u2581displayed": 3215, "\u2581displays": 3216, "\u2581disreg": 3217, "\u2581diss": 3218, "\u2581dissatisf": 3219, "\u2581dist": 3220, "\u2581distance": 3221, "\u2581distinct": 3222, "\u2581distinctive": 3223, "\u2581district": 3224, "\u2581disturb": 3225, "\u2581dive": 3226, "\u2581diverse": 3227, "\u2581diversity": 3228, "\u2581divine": 3229, "\u2581dj": 3230, "\u2581dm": 3231, "\u2581do": 3232, "\u2581dob": 3233, "\u2581doc": 3234, "\u2581doctor": 3235, "\u2581doctors": 3236, "\u2581documents": 3237, "\u2581dodge": 3238, "\u2581does": 3239, "\u2581dog": 3240, "\u2581dogs": 3241, "\u2581doing": 3242, "\u2581dol": 3243, "\u2581doll": 3244, "\u2581dollar": 3245, "\u2581dollars": 3246, "\u2581domestic": 3247, "\u2581domin": 3248, "\u2581don": 3249, "\u2581donald": 3250, "\u2581done": 3251, "\u2581donna": 3252, "\u2581door": 3253, "\u2581doors": 3254, "\u2581dot": 3255, "\u2581double": 3256, "\u2581doubled": 3257, "\u2581doubt": 3258, "\u2581doug": 3259, "\u2581dough": 3260, "\u2581down": 3261, "\u2581downtown": 3262, "\u2581dozen": 3263, "\u2581dozens": 3264, "\u2581dr": 3265, "\u2581dra": 3266, "\u2581draft": 3267, "\u2581drag": 3268, "\u2581dragged": 3269, "\u2581dragon": 3270, "\u2581drain": 3271, "\u2581drama": 3272, "\u2581draw": 3273, "\u2581drawn": 3274, "\u2581draws": 3275, "\u2581dre": 3276, "\u2581dread": 3277, "\u2581dream": 3278, "\u2581dreams": 3279, "\u2581dress": 3280, "\u2581dressed": 3281, "\u2581dressing": 3282, "\u2581drew": 3283, "\u2581dried": 3284, "\u2581drink": 3285, "\u2581drinking": 3286, "\u2581drinks": 3287, "\u2581drive": 3288, "\u2581driven": 3289, "\u2581driver": 3290, "\u2581drivers": 3291, "\u2581drives": 3292, "\u2581driving": 3293, "\u2581dro": 3294, "\u2581drop": 3295, "\u2581dropped": 3296, "\u2581dropping": 3297, "\u2581drops": 3298, "\u2581drove": 3299, "\u2581drowned": 3300, "\u2581drug": 3301, "\u2581drugs": 3302, "\u2581drum": 3303, "\u2581drunk": 3304, "\u2581dry": 3305, "\u2581du": 3306, "\u2581duck": 3307, "\u2581ducks": 3308, "\u2581due": 3309, "\u2581dug": 3310, "\u2581duke": 3311, "\u2581dull": 3312, "\u2581dum": 3313, "\u2581dumb": 3314, "\u2581dump": 3315, "\u2581dun": 3316, "\u2581duo": 3317, "\u2581dup": 3318, "\u2581during": 3319, "\u2581dust": 3320, "\u2581dutch": 3321, "\u2581duty": 3322, "\u2581dv": 3323, "\u2581dvd": 3324, "\u2581dye": 3325, "\u2581dying": 3326, "\u2581dynam": 3327, "\u2581dynamic": 3328, "\u2581e": 3329, "\u2581each": 3330, "\u2581eager": 3331, "\u2581eagle": 3332, "\u2581ear": 3333, "\u2581earl": 3334, "\u2581earlier": 3335, "\u2581early": 3336, "\u2581earn": 3337, "\u2581earned": 3338, "\u2581ears": 3339, "\u2581earth": 3340, "\u2581eas": 3341, "\u2581ease": 3342, "\u2581easier": 3343, "\u2581easily": 3344, "\u2581east": 3345, "\u2581easter": 3346, "\u2581eastern": 3347, "\u2581easy": 3348, "\u2581eat": 3349, "\u2581eaten": 3350, "\u2581eating": 3351, "\u2581ec": 3352, "\u2581eccentric": 3353, "\u2581echo": 3354, "\u2581eclectic": 3355, "\u2581economical": 3356, "\u2581economy": 3357, "\u2581ed": 3358, "\u2581eddie": 3359, "\u2581edge": 3360, "\u2581edges": 3361, "\u2581edit": 3362, "\u2581educated": 3363, "\u2581education": 3364, "\u2581educational": 3365, "\u2581edwards": 3366, "\u2581eff": 3367, "\u2581effect": 3368, "\u2581effective": 3369, "\u2581efficiency": 3370, "\u2581efficient": 3371, "\u2581efficiently": 3372, "\u2581effort": 3373, "\u2581efforts": 3374, "\u2581egg": 3375, "\u2581eggs": 3376, "\u2581eh": 3377, "\u2581eight": 3378, "\u2581einstein": 3379, "\u2581either": 3380, "\u2581el": 3381, "\u2581elaine": 3382, "\u2581elderly": 3383, "\u2581electric": 3384, "\u2581electrical": 3385, "\u2581electronic": 3386, "\u2581electronics": 3387, "\u2581eleg": 3388, "\u2581elegant": 3389, "\u2581elementary": 3390, "\u2581elena": 3391, "\u2581elephant": 3392, "\u2581elev": 3393, "\u2581elevated": 3394, "\u2581elevator": 3395, "\u2581elite": 3396, "\u2581elizabeth": 3397, "\u2581ellen": 3398, "\u2581else": 3399, "\u2581elsewhere": 3400, "\u2581em": 3401, "\u2581email": 3402, "\u2581embarrass": 3403, "\u2581embassy": 3404, "\u2581emerald": 3405, "\u2581emergency": 3406, "\u2581emily": 3407, "\u2581emp": 3408, "\u2581employee": 3409, "\u2581employees": 3410, "\u2581empty": 3411, "\u2581en": 3412, "\u2581enclosed": 3413, "\u2581encounter": 3414, "\u2581encountered": 3415, "\u2581encourage": 3416, "\u2581encouraged": 3417, "\u2581encouraging": 3418, "\u2581end": 3419, "\u2581ended": 3420, "\u2581ending": 3421, "\u2581ends": 3422, "\u2581enemy": 3423, "\u2581energetic": 3424, "\u2581energy": 3425, "\u2581engage": 3426, "\u2581engaged": 3427, "\u2581engagement": 3428, "\u2581engaging": 3429, "\u2581engine": 3430, "\u2581england": 3431, "\u2581english": 3432, "\u2581enhanced": 3433, "\u2581enjoy": 3434, "\u2581enjoyed": 3435, "\u2581enjoying": 3436, "\u2581enjoys": 3437, "\u2581enormous": 3438, "\u2581enough": 3439, "\u2581ensure": 3440, "\u2581ensuring": 3441, "\u2581ent": 3442, "\u2581enter": 3443, "\u2581entered": 3444, "\u2581entering": 3445, "\u2581enterprise": 3446, "\u2581entertain": 3447, "\u2581entertaining": 3448, "\u2581entertainment": 3449, "\u2581enthusiasm": 3450, "\u2581enthusiast": 3451, "\u2581enthusiastic": 3452, "\u2581enthusiasts": 3453, "\u2581entire": 3454, "\u2581entirely": 3455, "\u2581entrance": 3456, "\u2581entry": 3457, "\u2581environment": 3458, "\u2581epic": 3459, "\u2581episode": 3460, "\u2581epit": 3461, "\u2581equal": 3462, "\u2581equally": 3463, "\u2581equals": 3464, "\u2581equipment": 3465, "\u2581equipped": 3466, "\u2581equivalent": 3467, "\u2581er": 3468, "\u2581eric": 3469, "\u2581ernest": 3470, "\u2581error": 3471, "\u2581errors": 3472, "\u2581es": 3473, "\u2581escape": 3474, "\u2581escorted": 3475, "\u2581esp": 3476, "\u2581especially": 3477, "\u2581essential": 3478, "\u2581essentially": 3479, "\u2581est": 3480, "\u2581established": 3481, "\u2581establishment": 3482, "\u2581establishments": 3483, "\u2581estate": 3484, "\u2581esther": 3485, "\u2581estimate": 3486, "\u2581estimated": 3487, "\u2581estimates": 3488, "\u2581et": 3489, "\u2581etc": 3490, "\u2581eth": 3491, "\u2581ethical": 3492, "\u2581ethics": 3493, "\u2581ethiopian": 3494, "\u2581ethnic": 3495, "\u2581europe": 3496, "\u2581european": 3497, "\u2581eva": 3498, "\u2581eve": 3499, "\u2581even": 3500, "\u2581evening": 3501, "\u2581evenings": 3502, "\u2581event": 3503, "\u2581events": 3504, "\u2581eventually": 3505, "\u2581ever": 3506, "\u2581every": 3507, "\u2581everybody": 3508, "\u2581everyday": 3509, "\u2581everyone": 3510, "\u2581everything": 3511, "\u2581everywhere": 3512, "\u2581evident": 3513, "\u2581evil": 3514, "\u2581ex": 3515, "\u2581exact": 3516, "\u2581exactly": 3517, "\u2581exagger": 3518, "\u2581exam": 3519, "\u2581examination": 3520, "\u2581examined": 3521, "\u2581example": 3522, "\u2581exams": 3523, "\u2581exc": 3524, "\u2581exceed": 3525, "\u2581exceeded": 3526, "\u2581exceeding": 3527, "\u2581exceeds": 3528, "\u2581excell": 3529, "\u2581excellence": 3530, "\u2581excellent": 3531, "\u2581except": 3532, "\u2581exception": 3533, "\u2581exceptional": 3534, "\u2581exceptionally": 3535, "\u2581exceptions": 3536, "\u2581excessive": 3537, "\u2581exchange": 3538, "\u2581exchanged": 3539, "\u2581excit": 3540, "\u2581excited": 3541, "\u2581exciting": 3542, "\u2581exclusive": 3543, "\u2581executed": 3544, "\u2581execution": 3545, "\u2581executive": 3546, "\u2581exempl": 3547, "\u2581exercise": 3548, "\u2581exhausted": 3549, "\u2581exhibit": 3550, "\u2581exhibits": 3551, "\u2581exist": 3552, "\u2581existed": 3553, "\u2581existence": 3554, "\u2581existing": 3555, "\u2581exists": 3556, "\u2581exit": 3557, "\u2581exotic": 3558, "\u2581exp": 3559, "\u2581expand": 3560, "\u2581expanded": 3561, "\u2581expanding": 3562, "\u2581expans": 3563, "\u2581expect": 3564, "\u2581expectation": 3565, "\u2581expectations": 3566, "\u2581expected": 3567, "\u2581expecting": 3568, "\u2581exped": 3569, "\u2581expense": 3570, "\u2581expensive": 3571, "\u2581experience": 3572, "\u2581experienced": 3573, "\u2581experiences": 3574, "\u2581experiencing": 3575, "\u2581expert": 3576, "\u2581expertise": 3577, "\u2581experts": 3578, "\u2581expired": 3579, "\u2581explain": 3580, "\u2581explained": 3581, "\u2581explaining": 3582, "\u2581explains": 3583, "\u2581explanation": 3584, "\u2581explanations": 3585, "\u2581explore": 3586, "\u2581exploring": 3587, "\u2581explosion": 3588, "\u2581express": 3589, "\u2581expressed": 3590, "\u2581ext": 3591, "\u2581extend": 3592, "\u2581extended": 3593, "\u2581extensions": 3594, "\u2581extensive": 3595, "\u2581exterior": 3596, "\u2581extra": 3597, "\u2581extraordinary": 3598, "\u2581extreme": 3599, "\u2581extremely": 3600, "\u2581ey": 3601, "\u2581eye": 3602, "\u2581eyes": 3603, "\u2581f": 3604, "\u2581fa": 3605, "\u2581fab": 3606, "\u2581fabric": 3607, "\u2581face": 3608, "\u2581facebook": 3609, "\u2581faced": 3610, "\u2581facel": 3611, "\u2581faces": 3612, "\u2581facial": 3613, "\u2581facilities": 3614, "\u2581facility": 3615, "\u2581facing": 3616, "\u2581fact": 3617, "\u2581factor": 3618, "\u2581factory": 3619, "\u2581facts": 3620, "\u2581fail": 3621, "\u2581failed": 3622, "\u2581fails": 3623, "\u2581failure": 3624, "\u2581fair": 3625, "\u2581fairly": 3626, "\u2581faith": 3627, "\u2581fake": 3628, "\u2581fal": 3629, "\u2581fall": 3630, "\u2581fallen": 3631, "\u2581falling": 3632, "\u2581falls": 3633, "\u2581false": 3634, "\u2581fam": 3635, "\u2581familiar": 3636, "\u2581families": 3637, "\u2581family": 3638, "\u2581famous": 3639, "\u2581fan": 3640, "\u2581fans": 3641, "\u2581fant": 3642, "\u2581fantastic": 3643, "\u2581far": 3644, "\u2581fare": 3645, "\u2581farm": 3646, "\u2581farmer": 3647, "\u2581farmers": 3648, "\u2581farther": 3649, "\u2581fasc": 3650, "\u2581fashion": 3651, "\u2581fast": 3652, "\u2581faster": 3653, "\u2581fastest": 3654, "\u2581fat": 3655, "\u2581fate": 3656, "\u2581father": 3657, "\u2581fatty": 3658, "\u2581fault": 3659, "\u2581fav": 3660, "\u2581favor": 3661, "\u2581favorable": 3662, "\u2581favorite": 3663, "\u2581favourite": 3664, "\u2581fe": 3665, "\u2581fear": 3666, "\u2581feast": 3667, "\u2581feature": 3668, "\u2581featured": 3669, "\u2581features": 3670, "\u2581feb": 3671, "\u2581february": 3672, "\u2581fed": 3673, "\u2581fee": 3674, "\u2581feed": 3675, "\u2581feedback": 3676, "\u2581feeding": 3677, "\u2581feel": 3678, "\u2581feeling": 3679, "\u2581feelings": 3680, "\u2581feels": 3681, "\u2581fees": 3682, "\u2581feet": 3683, "\u2581fell": 3684, "\u2581fellow": 3685, "\u2581felt": 3686, "\u2581female": 3687, "\u2581fence": 3688, "\u2581fest": 3689, "\u2581festival": 3690, "\u2581fever": 3691, "\u2581few": 3692, "\u2581fian": 3693, "\u2581field": 3694, "\u2581fields": 3695, "\u2581fier": 3696, "\u2581fife": 3697, "\u2581fifteen": 3698, "\u2581fifth": 3699, "\u2581fifty": 3700, "\u2581fig": 3701, "\u2581fight": 3702, "\u2581fighting": 3703, "\u2581fights": 3704, "\u2581figure": 3705, "\u2581fil": 3706, "\u2581file": 3707, "\u2581filed": 3708, "\u2581filing": 3709, "\u2581filipino": 3710, "\u2581fill": 3711, "\u2581filled": 3712, "\u2581filling": 3713, "\u2581film": 3714, "\u2581films": 3715, "\u2581filter": 3716, "\u2581fin": 3717, "\u2581final": 3718, "\u2581finally": 3719, "\u2581finance": 3720, "\u2581financial": 3721, "\u2581financing": 3722, "\u2581find": 3723, "\u2581finding": 3724, "\u2581finds": 3725, "\u2581fine": 3726, "\u2581finest": 3727, "\u2581finger": 3728, "\u2581fingers": 3729, "\u2581finish": 3730, "\u2581finished": 3731, "\u2581finishing": 3732, "\u2581fire": 3733, "\u2581firearms": 3734, "\u2581fired": 3735, "\u2581firm": 3736, "\u2581first": 3737, "\u2581firstly": 3738, "\u2581fish": 3739, "\u2581fist": 3740, "\u2581fit": 3741, "\u2581fitness": 3742, "\u2581fits": 3743, "\u2581fitted": 3744, "\u2581fitting": 3745, "\u2581five": 3746, "\u2581fix": 3747, "\u2581fixed": 3748, "\u2581fl": 3749, "\u2581flag": 3750, "\u2581flair": 3751, "\u2581flame": 3752, "\u2581flaming": 3753, "\u2581flan": 3754, "\u2581flank": 3755, "\u2581flash": 3756, "\u2581flat": 3757, "\u2581flav": 3758, "\u2581flavor": 3759, "\u2581flavour": 3760, "\u2581flaw": 3761, "\u2581fleet": 3762, "\u2581flem": 3763, "\u2581fleming": 3764, "\u2581fletcher": 3765, "\u2581flew": 3766, "\u2581flexible": 3767, "\u2581flies": 3768, "\u2581flight": 3769, "\u2581flights": 3770, "\u2581flip": 3771, "\u2581flo": 3772, "\u2581float": 3773, "\u2581floating": 3774, "\u2581floor": 3775, "\u2581floors": 3776, "\u2581flor": 3777, "\u2581floren": 3778, "\u2581florida": 3779, "\u2581flour": 3780, "\u2581flow": 3781, "\u2581flower": 3782, "\u2581flowers": 3783, "\u2581flowing": 3784, "\u2581flown": 3785, "\u2581flows": 3786, "\u2581flu": 3787, "\u2581fluid": 3788, "\u2581fluids": 3789, "\u2581fly": 3790, "\u2581flying": 3791, "\u2581fo": 3792, "\u2581foam": 3793, "\u2581foc": 3794, "\u2581focus": 3795, "\u2581focused": 3796, "\u2581fol": 3797, "\u2581fold": 3798, "\u2581folded": 3799, "\u2581folk": 3800, "\u2581follow": 3801, "\u2581followed": 3802, "\u2581following": 3803, "\u2581follows": 3804, "\u2581fond": 3805, "\u2581food": 3806, "\u2581foods": 3807, "\u2581fool": 3808, "\u2581foot": 3809, "\u2581football": 3810, "\u2581foothills": 3811, "\u2581for": 3812, "\u2581force": 3813, "\u2581forced": 3814, "\u2581ford": 3815, "\u2581foreign": 3816, "\u2581foremost": 3817, "\u2581forest": 3818, "\u2581forever": 3819, "\u2581forg": 3820, "\u2581forget": 3821, "\u2581forgotten": 3822, "\u2581fork": 3823, "\u2581forks": 3824, "\u2581form": 3825, "\u2581formal": 3826, "\u2581former": 3827, "\u2581formerly": 3828, "\u2581fort": 3829, "\u2581forth": 3830, "\u2581fortun": 3831, "\u2581fortune": 3832, "\u2581forty": 3833, "\u2581forward": 3834, "\u2581foster": 3835, "\u2581foul": 3836, "\u2581found": 3837, "\u2581foundation": 3838, "\u2581fount": 3839, "\u2581fountain": 3840, "\u2581four": 3841, "\u2581fourth": 3842, "\u2581fox": 3843, "\u2581fr": 3844, "\u2581fra": 3845, "\u2581frame": 3846, "\u2581frames": 3847, "\u2581framing": 3848, "\u2581franchise": 3849, "\u2581francisco": 3850, "\u2581frank": 3851, "\u2581frankie": 3852, "\u2581fraud": 3853, "\u2581fre": 3854, "\u2581fred": 3855, "\u2581free": 3856, "\u2581freeway": 3857, "\u2581freeze": 3858, "\u2581freezing": 3859, "\u2581french": 3860, "\u2581frequ": 3861, "\u2581frequent": 3862, "\u2581frequently": 3863, "\u2581fres": 3864, "\u2581fresh": 3865, "\u2581fri": 3866, "\u2581friday": 3867, "\u2581fried": 3868, "\u2581friend": 3869, "\u2581friendly": 3870, "\u2581friends": 3871, "\u2581fries": 3872, "\u2581frig": 3873, "\u2581frog": 3874, "\u2581from": 3875, "\u2581front": 3876, "\u2581frost": 3877, "\u2581frozen": 3878, "\u2581fruit": 3879, "\u2581fruits": 3880, "\u2581frust": 3881, "\u2581frustrated": 3882, "\u2581frustration": 3883, "\u2581fry": 3884, "\u2581fu": 3885, "\u2581fuck": 3886, "\u2581fuel": 3887, "\u2581fulf": 3888, "\u2581full": 3889, "\u2581fully": 3890, "\u2581fun": 3891, "\u2581function": 3892, "\u2581functional": 3893, "\u2581fund": 3894, "\u2581funeral": 3895, "\u2581funny": 3896, "\u2581fur": 3897, "\u2581furious": 3898, "\u2581furn": 3899, "\u2581furniture": 3900, "\u2581further": 3901, "\u2581furthermore": 3902, "\u2581fusion": 3903, "\u2581future": 3904, "\u2581fuz": 3905, "\u2581g": 3906, "\u2581gab": 3907, "\u2581gad": 3908, "\u2581gag": 3909, "\u2581gain": 3910, "\u2581gained": 3911, "\u2581gal": 3912, "\u2581gall": 3913, "\u2581gallery": 3914, "\u2581gam": 3915, "\u2581gambling": 3916, "\u2581game": 3917, "\u2581games": 3918, "\u2581gaming": 3919, "\u2581gan": 3920, "\u2581gang": 3921, "\u2581gar": 3922, "\u2581garage": 3923, "\u2581garbage": 3924, "\u2581garcia": 3925, "\u2581gard": 3926, "\u2581garden": 3927, "\u2581gardens": 3928, "\u2581garn": 3929, "\u2581gary": 3930, "\u2581gas": 3931, "\u2581gate": 3932, "\u2581gates": 3933, "\u2581gather": 3934, "\u2581gathering": 3935, "\u2581gave": 3936, "\u2581gay": 3937, "\u2581ge": 3938, "\u2581gear": 3939, "\u2581gel": 3940, "\u2581gem": 3941, "\u2581gen": 3942, "\u2581gener": 3943, "\u2581general": 3944, "\u2581generally": 3945, "\u2581generation": 3946, "\u2581generic": 3947, "\u2581generous": 3948, "\u2581genius": 3949, "\u2581gentle": 3950, "\u2581gentleman": 3951, "\u2581gentlemen": 3952, "\u2581genuine": 3953, "\u2581george": 3954, "\u2581german": 3955, "\u2581germany": 3956, "\u2581gesture": 3957, "\u2581get": 3958, "\u2581gets": 3959, "\u2581getting": 3960, "\u2581ghetto": 3961, "\u2581ghost": 3962, "\u2581giant": 3963, "\u2581gift": 3964, "\u2581gifted": 3965, "\u2581gifts": 3966, "\u2581gig": 3967, "\u2581gilbert": 3968, "\u2581gin": 3969, "\u2581ginger": 3970, "\u2581gir": 3971, "\u2581girl": 3972, "\u2581girlfriend": 3973, "\u2581girls": 3974, "\u2581giuseppe": 3975, "\u2581give": 3976, "\u2581given": 3977, "\u2581gives": 3978, "\u2581giving": 3979, "\u2581gl": 3980, "\u2581glad": 3981, "\u2581glass": 3982, "\u2581glasses": 3983, "\u2581glaz": 3984, "\u2581glen": 3985, "\u2581glenn": 3986, "\u2581globe": 3987, "\u2581glorious": 3988, "\u2581glory": 3989, "\u2581gloves": 3990, "\u2581glut": 3991, "\u2581gm": 3992, "\u2581gn": 3993, "\u2581go": 3994, "\u2581goal": 3995, "\u2581goat": 3996, "\u2581gob": 3997, "\u2581god": 3998, "\u2581gods": 3999, "\u2581goes": 4000, "\u2581going": 4001, "\u2581gold": 4002, "\u2581golden": 4003, "\u2581golf": 4004, "\u2581golfer": 4005, "\u2581gon": 4006, "\u2581gone": 4007, "\u2581good": 4008, "\u2581goodbye": 4009, "\u2581goods": 4010, "\u2581google": 4011, "\u2581gor": 4012, "\u2581gordon": 4013, "\u2581gorge": 4014, "\u2581got": 4015, "\u2581gour": 4016, "\u2581gps": 4017, "\u2581gr": 4018, "\u2581gra": 4019, "\u2581grab": 4020, "\u2581grace": 4021, "\u2581grade": 4022, "\u2581graduation": 4023, "\u2581grain": 4024, "\u2581gran": 4025, "\u2581grand": 4026, "\u2581granddaughter": 4027, "\u2581grande": 4028, "\u2581grandmother": 4029, "\u2581grandparents": 4030, "\u2581granite": 4031, "\u2581grant": 4032, "\u2581granted": 4033, "\u2581grape": 4034, "\u2581grapes": 4035, "\u2581gras": 4036, "\u2581grass": 4037, "\u2581grat": 4038, "\u2581grateful": 4039, "\u2581grav": 4040, "\u2581gray": 4041, "\u2581gre": 4042, "\u2581great": 4043, "\u2581greater": 4044, "\u2581greatest": 4045, "\u2581greatly": 4046, "\u2581greek": 4047, "\u2581green": 4048, "\u2581greens": 4049, "\u2581greeted": 4050, "\u2581greg": 4051, "\u2581grew": 4052, "\u2581grey": 4053, "\u2581gri": 4054, "\u2581grief": 4055, "\u2581grille": 4056, "\u2581grim": 4057, "\u2581gro": 4058, "\u2581grocery": 4059, "\u2581gross": 4060, "\u2581grossed": 4061, "\u2581ground": 4062, "\u2581grounds": 4063, "\u2581group": 4064, "\u2581groups": 4065, "\u2581grow": 4066, "\u2581growing": 4067, "\u2581grown": 4068, "\u2581gu": 4069, "\u2581guarantee": 4070, "\u2581guaranteed": 4071, "\u2581guard": 4072, "\u2581guards": 4073, "\u2581guess": 4074, "\u2581guest": 4075, "\u2581guests": 4076, "\u2581guide": 4077, "\u2581guided": 4078, "\u2581guides": 4079, "\u2581guilty": 4080, "\u2581guinness": 4081, "\u2581guitar": 4082, "\u2581gum": 4083, "\u2581gun": 4084, "\u2581guns": 4085, "\u2581gus": 4086, "\u2581gust": 4087, "\u2581gut": 4088, "\u2581guy": 4089, "\u2581guys": 4090, "\u2581gw": 4091, "\u2581gy": 4092, "\u2581gym": 4093, "\u2581gymnastics": 4094, "\u2581h": 4095, "\u2581ha": 4096, "\u2581hab": 4097, "\u2581habit": 4098, "\u2581had": 4099, "\u2581hair": 4100, "\u2581hal": 4101, "\u2581half": 4102, "\u2581halfway": 4103, "\u2581hall": 4104, "\u2581halloween": 4105, "\u2581halls": 4106, "\u2581ham": 4107, "\u2581hamburg": 4108, "\u2581hampton": 4109, "\u2581hand": 4110, "\u2581handed": 4111, "\u2581handful": 4112, "\u2581handic": 4113, "\u2581handle": 4114, "\u2581handled": 4115, "\u2581handles": 4116, "\u2581handling": 4117, "\u2581hands": 4118, "\u2581handsome": 4119, "\u2581hang": 4120, "\u2581hanging": 4121, "\u2581hannah": 4122, "\u2581happ": 4123, "\u2581happen": 4124, "\u2581happened": 4125, "\u2581happening": 4126, "\u2581happens": 4127, "\u2581happiness": 4128, "\u2581happy": 4129, "\u2581har": 4130, "\u2581harbor": 4131, "\u2581hard": 4132, "\u2581harder": 4133, "\u2581hardly": 4134, "\u2581hardware": 4135, "\u2581harley": 4136, "\u2581harmony": 4137, "\u2581harris": 4138, "\u2581harsh": 4139, "\u2581has": 4140, "\u2581hash": 4141, "\u2581hass": 4142, "\u2581hat": 4143, "\u2581hatch": 4144, "\u2581hate": 4145, "\u2581hated": 4146, "\u2581hats": 4147, "\u2581haunted": 4148, "\u2581hav": 4149, "\u2581havana": 4150, "\u2581have": 4151, "\u2581haven": 4152, "\u2581having": 4153, "\u2581hawaii": 4154, "\u2581hawaiian": 4155, "\u2581hazard": 4156, "\u2581hazel": 4157, "\u2581hd": 4158, "\u2581he": 4159, "\u2581head": 4160, "\u2581headed": 4161, "\u2581heading": 4162, "\u2581heads": 4163, "\u2581healing": 4164, "\u2581health": 4165, "\u2581healthcare": 4166, "\u2581healthy": 4167, "\u2581hear": 4168, "\u2581heard": 4169, "\u2581hearing": 4170, "\u2581heart": 4171, "\u2581hearts": 4172, "\u2581heat": 4173, "\u2581heated": 4174, "\u2581heather": 4175, "\u2581heating": 4176, "\u2581heaven": 4177, "\u2581heavenly": 4178, "\u2581heavily": 4179, "\u2581heavy": 4180, "\u2581heck": 4181, "\u2581hector": 4182, "\u2581heir": 4183, "\u2581hel": 4184, "\u2581held": 4185, "\u2581helen": 4186, "\u2581hell": 4187, "\u2581help": 4188, "\u2581helped": 4189, "\u2581helpful": 4190, "\u2581helping": 4191, "\u2581helps": 4192, "\u2581hem": 4193, "\u2581hence": 4194, "\u2581henderson": 4195, "\u2581henry": 4196, "\u2581her": 4197, "\u2581herb": 4198, "\u2581herbs": 4199, "\u2581here": 4200, "\u2581heritage": 4201, "\u2581hero": 4202, "\u2581heroes": 4203, "\u2581hers": 4204, "\u2581herself": 4205, "\u2581hes": 4206, "\u2581hey": 4207, "\u2581hi": 4208, "\u2581hib": 4209, "\u2581hick": 4210, "\u2581hidden": 4211, "\u2581hide": 4212, "\u2581hiding": 4213, "\u2581high": 4214, "\u2581higher": 4215, "\u2581highest": 4216, "\u2581highlight": 4217, "\u2581highlights": 4218, "\u2581highly": 4219, "\u2581highway": 4220, "\u2581hiking": 4221, "\u2581hill": 4222, "\u2581hills": 4223, "\u2581hilton": 4224, "\u2581him": 4225, "\u2581himself": 4226, "\u2581hip": 4227, "\u2581hire": 4228, "\u2581hired": 4229, "\u2581hiring": 4230, "\u2581hiro": 4231, "\u2581his": 4232, "\u2581hispanic": 4233, "\u2581historic": 4234, "\u2581historical": 4235, "\u2581history": 4236, "\u2581hit": 4237, "\u2581hitch": 4238, "\u2581hits": 4239, "\u2581hitting": 4240, "\u2581ho": 4241, "\u2581hobby": 4242, "\u2581hockey": 4243, "\u2581hold": 4244, "\u2581holder": 4245, "\u2581holding": 4246, "\u2581holds": 4247, "\u2581hole": 4248, "\u2581holes": 4249, "\u2581holiday": 4250, "\u2581holidays": 4251, "\u2581holland": 4252, "\u2581holly": 4253, "\u2581hollywood": 4254, "\u2581holy": 4255, "\u2581hom": 4256, "\u2581home": 4257, "\u2581homeless": 4258, "\u2581homes": 4259, "\u2581hometown": 4260, "\u2581hon": 4261, "\u2581honda": 4262, "\u2581honest": 4263, "\u2581honey": 4264, "\u2581hong": 4265, "\u2581honor": 4266, "\u2581honored": 4267, "\u2581hood": 4268, "\u2581hook": 4269, "\u2581hoover": 4270, "\u2581hop": 4271, "\u2581hope": 4272, "\u2581hoped": 4273, "\u2581hopes": 4274, "\u2581hoping": 4275, "\u2581hor": 4276, "\u2581horror": 4277, "\u2581hors": 4278, "\u2581horse": 4279, "\u2581horses": 4280, "\u2581hosp": 4281, "\u2581hospital": 4282, "\u2581hospitality": 4283, "\u2581hospitals": 4284, "\u2581host": 4285, "\u2581hosted": 4286, "\u2581hostile": 4287, "\u2581hosting": 4288, "\u2581hosts": 4289, "\u2581hot": 4290, "\u2581hotel": 4291, "\u2581hotels": 4292, "\u2581hour": 4293, "\u2581hours": 4294, "\u2581house": 4295, "\u2581household": 4296, "\u2581houses": 4297, "\u2581houston": 4298, "\u2581how": 4299, "\u2581howard": 4300, "\u2581however": 4301, "\u2581hr": 4302, "\u2581hu": 4303, "\u2581hub": 4304, "\u2581hue": 4305, "\u2581hug": 4306, "\u2581huge": 4307, "\u2581hugh": 4308, "\u2581hugo": 4309, "\u2581hum": 4310, "\u2581human": 4311, "\u2581humans": 4312, "\u2581humble": 4313, "\u2581humid": 4314, "\u2581humor": 4315, "\u2581humorous": 4316, "\u2581hun": 4317, "\u2581hundred": 4318, "\u2581hundreds": 4319, "\u2581hung": 4320, "\u2581hunger": 4321, "\u2581hunt": 4322, "\u2581hunting": 4323, "\u2581hur": 4324, "\u2581hurricane": 4325, "\u2581hurt": 4326, "\u2581hus": 4327, "\u2581husband": 4328, "\u2581hust": 4329, "\u2581hut": 4330, "\u2581hy": 4331, "\u2581hygiene": 4332, "\u2581i": 4333, "\u2581ian": 4334, "\u2581ic": 4335, "\u2581ice": 4336, "\u2581ich": 4337, "\u2581id": 4338, "\u2581idea": 4339, "\u2581ideal": 4340, "\u2581ideas": 4341, "\u2581identical": 4342, "\u2581idi": 4343, "\u2581ie": 4344, "\u2581if": 4345, "\u2581ignor": 4346, "\u2581ignore": 4347, "\u2581ignored": 4348, "\u2581ignoring": 4349, "\u2581il": 4350, "\u2581ill": 4351, "\u2581illegal": 4352, "\u2581illinois": 4353, "\u2581im": 4354, "\u2581imag": 4355, "\u2581image": 4356, "\u2581imagination": 4357, "\u2581imagine": 4358, "\u2581imitation": 4359, "\u2581imm": 4360, "\u2581immediate": 4361, "\u2581immediately": 4362, "\u2581imp": 4363, "\u2581impact": 4364, "\u2581impe": 4365, "\u2581imperson": 4366, "\u2581import": 4367, "\u2581important": 4368, "\u2581importantly": 4369, "\u2581imported": 4370, "\u2581imports": 4371, "\u2581impossible": 4372, "\u2581impress": 4373, "\u2581impressed": 4374, "\u2581impression": 4375, "\u2581impressive": 4376, "\u2581improve": 4377, "\u2581improved": 4378, "\u2581improvement": 4379, "\u2581improvements": 4380, "\u2581improving": 4381, "\u2581in": 4382, "\u2581inappropriate": 4383, "\u2581inch": 4384, "\u2581inches": 4385, "\u2581incident": 4386, "\u2581incl": 4387, "\u2581include": 4388, "\u2581included": 4389, "\u2581includes": 4390, "\u2581including": 4391, "\u2581incom": 4392, "\u2581incon": 4393, "\u2581incons": 4394, "\u2581inconsistent": 4395, "\u2581incorrect": 4396, "\u2581incorrectly": 4397, "\u2581increase": 4398, "\u2581increased": 4399, "\u2581incred": 4400, "\u2581incredible": 4401, "\u2581ind": 4402, "\u2581indeed": 4403, "\u2581independent": 4404, "\u2581independently": 4405, "\u2581india": 4406, "\u2581indian": 4407, "\u2581indicated": 4408, "\u2581indie": 4409, "\u2581individual": 4410, "\u2581individually": 4411, "\u2581individuals": 4412, "\u2581indo": 4413, "\u2581indoor": 4414, "\u2581indul": 4415, "\u2581industrial": 4416, "\u2581industry": 4417, "\u2581inexpensive": 4418, "\u2581inf": 4419, "\u2581infection": 4420, "\u2581infl": 4421, "\u2581influence": 4422, "\u2581inform": 4423, "\u2581informal": 4424, "\u2581information": 4425, "\u2581informed": 4426, "\u2581ingredient": 4427, "\u2581ingredients": 4428, "\u2581initial": 4429, "\u2581initially": 4430, "\u2581injury": 4431, "\u2581ink": 4432, "\u2581inn": 4433, "\u2581inner": 4434, "\u2581innovative": 4435, "\u2581input": 4436, "\u2581inqu": 4437, "\u2581ins": 4438, "\u2581insane": 4439, "\u2581inside": 4440, "\u2581insight": 4441, "\u2581insisted": 4442, "\u2581insp": 4443, "\u2581inspect": 4444, "\u2581inspection": 4445, "\u2581inspector": 4446, "\u2581inspiration": 4447, "\u2581inspired": 4448, "\u2581install": 4449, "\u2581installation": 4450, "\u2581installed": 4451, "\u2581instance": 4452, "\u2581instant": 4453, "\u2581instantly": 4454, "\u2581instead": 4455, "\u2581institution": 4456, "\u2581instruct": 4457, "\u2581instruction": 4458, "\u2581instructions": 4459, "\u2581instructor": 4460, "\u2581insult": 4461, "\u2581insurance": 4462, "\u2581int": 4463, "\u2581integrity": 4464, "\u2581intelligent": 4465, "\u2581intended": 4466, "\u2581intense": 4467, "\u2581intention": 4468, "\u2581inter": 4469, "\u2581interact": 4470, "\u2581interaction": 4471, "\u2581interactions": 4472, "\u2581interactive": 4473, "\u2581interest": 4474, "\u2581interested": 4475, "\u2581interesting": 4476, "\u2581interior": 4477, "\u2581international": 4478, "\u2581internet": 4479, "\u2581interview": 4480, "\u2581intimate": 4481, "\u2581intimid": 4482, "\u2581into": 4483, "\u2581intrig": 4484, "\u2581introduce": 4485, "\u2581introduced": 4486, "\u2581introducing": 4487, "\u2581introduction": 4488, "\u2581inv": 4489, "\u2581invent": 4490, "\u2581inventory": 4491, "\u2581investigate": 4492, "\u2581investment": 4493, "\u2581invisible": 4494, "\u2581invited": 4495, "\u2581involved": 4496, "\u2581ip": 4497, "\u2581irene": 4498, "\u2581irish": 4499, "\u2581iron": 4500, "\u2581irrit": 4501, "\u2581is": 4502, "\u2581island": 4503, "\u2581islands": 4504, "\u2581isolated": 4505, "\u2581issue": 4506, "\u2581issues": 4507, "\u2581it": 4508, "\u2581italian": 4509, "\u2581italy": 4510, "\u2581item": 4511, "\u2581items": 4512, "\u2581its": 4513, "\u2581itself": 4514, "\u2581iv": 4515, "\u2581ivan": 4516, "\u2581iz": 4517, "\u2581j": 4518, "\u2581ja": 4519, "\u2581jac": 4520, "\u2581jack": 4521, "\u2581jacket": 4522, "\u2581jackie": 4523, "\u2581jackson": 4524, "\u2581jacob": 4525, "\u2581jade": 4526, "\u2581jake": 4527, "\u2581jal": 4528, "\u2581jam": 4529, "\u2581jamaican": 4530, "\u2581james": 4531, "\u2581jamie": 4532, "\u2581jan": 4533, "\u2581jane": 4534, "\u2581janet": 4535, "\u2581january": 4536, "\u2581japan": 4537, "\u2581japanese": 4538, "\u2581jar": 4539, "\u2581jas": 4540, "\u2581jason": 4541, "\u2581java": 4542, "\u2581jaw": 4543, "\u2581jay": 4544, "\u2581jazz": 4545, "\u2581je": 4546, "\u2581jealous": 4547, "\u2581jean": 4548, "\u2581jeep": 4549, "\u2581jeff": 4550, "\u2581jelly": 4551, "\u2581jen": 4552, "\u2581jennifer": 4553, "\u2581jenny": 4554, "\u2581jer": 4555, "\u2581jeremy": 4556, "\u2581jerry": 4557, "\u2581jersey": 4558, "\u2581jess": 4559, "\u2581jesse": 4560, "\u2581jessica": 4561, "\u2581jesus": 4562, "\u2581jet": 4563, "\u2581jewel": 4564, "\u2581jewelry": 4565, "\u2581jewish": 4566, "\u2581jill": 4567, "\u2581jim": 4568, "\u2581jimmy": 4569, "\u2581jo": 4570, "\u2581joanna": 4571, "\u2581job": 4572, "\u2581jobs": 4573, "\u2581joe": 4574, "\u2581joel": 4575, "\u2581joey": 4576, "\u2581john": 4577, "\u2581johnny": 4578, "\u2581johns": 4579, "\u2581johnson": 4580, "\u2581join": 4581, "\u2581joined": 4582, "\u2581joining": 4583, "\u2581joint": 4584, "\u2581joints": 4585, "\u2581joke": 4586, "\u2581jokes": 4587, "\u2581jon": 4588, "\u2581jonathan": 4589, "\u2581jones": 4590, "\u2581jordan": 4591, "\u2581jorge": 4592, "\u2581jose": 4593, "\u2581joseph": 4594, "\u2581josh": 4595, "\u2581joshua": 4596, "\u2581journey": 4597, "\u2581joy": 4598, "\u2581joyce": 4599, "\u2581jr": 4600, "\u2581ju": 4601, "\u2581juan": 4602, "\u2581judge": 4603, "\u2581judgement": 4604, "\u2581judy": 4605, "\u2581juice": 4606, "\u2581jul": 4607, "\u2581julia": 4608, "\u2581julie": 4609, "\u2581july": 4610, "\u2581jum": 4611, "\u2581jump": 4612, "\u2581jumped": 4613, "\u2581jumping": 4614, "\u2581jun": 4615, "\u2581junction": 4616, "\u2581june": 4617, "\u2581jungle": 4618, "\u2581junior": 4619, "\u2581just": 4620, "\u2581justice": 4621, "\u2581justify": 4622, "\u2581justin": 4623, "\u2581k": 4624, "\u2581ka": 4625, "\u2581kab": 4626, "\u2581kai": 4627, "\u2581kal": 4628, "\u2581kar": 4629, "\u2581kara": 4630, "\u2581karen": 4631, "\u2581karl": 4632, "\u2581kat": 4633, "\u2581kate": 4634, "\u2581kath": 4635, "\u2581kay": 4636, "\u2581ke": 4637, "\u2581keep": 4638, "\u2581keeper": 4639, "\u2581keeping": 4640, "\u2581keeps": 4641, "\u2581keith": 4642, "\u2581kel": 4643, "\u2581kelly": 4644, "\u2581ken": 4645, "\u2581kenny": 4646, "\u2581kept": 4647, "\u2581ket": 4648, "\u2581kevin": 4649, "\u2581key": 4650, "\u2581keys": 4651, "\u2581kick": 4652, "\u2581kicked": 4653, "\u2581kid": 4654, "\u2581kidney": 4655, "\u2581kids": 4656, "\u2581kill": 4657, "\u2581killed": 4658, "\u2581killer": 4659, "\u2581killing": 4660, "\u2581kills": 4661, "\u2581kim": 4662, "\u2581kimber": 4663, "\u2581kind": 4664, "\u2581kinds": 4665, "\u2581king": 4666, "\u2581kiss": 4667, "\u2581kit": 4668, "\u2581kitchen": 4669, "\u2581kits": 4670, "\u2581kitty": 4671, "\u2581kj": 4672, "\u2581km": 4673, "\u2581knee": 4674, "\u2581knew": 4675, "\u2581knife": 4676, "\u2581knock": 4677, "\u2581knocked": 4678, "\u2581knots": 4679, "\u2581know": 4680, "\u2581knowing": 4681, "\u2581knowledge": 4682, "\u2581known": 4683, "\u2581knows": 4684, "\u2581ko": 4685, "\u2581koh": 4686, "\u2581kom": 4687, "\u2581kong": 4688, "\u2581kor": 4689, "\u2581korean": 4690, "\u2581kos": 4691, "\u2581krist": 4692, "\u2581kry": 4693, "\u2581kyle": 4694, "\u2581l": 4695, "\u2581la": 4696, "\u2581lab": 4697, "\u2581label": 4698, "\u2581labeled": 4699, "\u2581labor": 4700, "\u2581lack": 4701, "\u2581lacked": 4702, "\u2581lacking": 4703, "\u2581lacks": 4704, "\u2581ladies": 4705, "\u2581lady": 4706, "\u2581laid": 4707, "\u2581lake": 4708, "\u2581lakes": 4709, "\u2581lamb": 4710, "\u2581lamp": 4711, "\u2581lamps": 4712, "\u2581lance": 4713, "\u2581land": 4714, "\u2581landed": 4715, "\u2581landmark": 4716, "\u2581landsc": 4717, "\u2581landscape": 4718, "\u2581lane": 4719, "\u2581lanes": 4720, "\u2581language": 4721, "\u2581lao": 4722, "\u2581lap": 4723, "\u2581lapt": 4724, "\u2581large": 4725, "\u2581larger": 4726, "\u2581largest": 4727, "\u2581larry": 4728, "\u2581las": 4729, "\u2581laser": 4730, "\u2581lass": 4731, "\u2581last": 4732, "\u2581lasted": 4733, "\u2581lasting": 4734, "\u2581lasts": 4735, "\u2581lat": 4736, "\u2581late": 4737, "\u2581later": 4738, "\u2581latest": 4739, "\u2581latin": 4740, "\u2581latt": 4741, "\u2581latter": 4742, "\u2581laugh": 4743, "\u2581laura": 4744, "\u2581lauren": 4745, "\u2581laurie": 4746, "\u2581lava": 4747, "\u2581law": 4748, "\u2581lawn": 4749, "\u2581laws": 4750, "\u2581lawyer": 4751, "\u2581lax": 4752, "\u2581lay": 4753, "\u2581layer": 4754, "\u2581layers": 4755, "\u2581laying": 4756, "\u2581layout": 4757, "\u2581laz": 4758, "\u2581lb": 4759, "\u2581le": 4760, "\u2581lead": 4761, "\u2581leadership": 4762, "\u2581leading": 4763, "\u2581leads": 4764, "\u2581leaf": 4765, "\u2581league": 4766, "\u2581leak": 4767, "\u2581leaked": 4768, "\u2581lean": 4769, "\u2581learn": 4770, "\u2581learned": 4771, "\u2581learning": 4772, "\u2581lease": 4773, "\u2581least": 4774, "\u2581leather": 4775, "\u2581leave": 4776, "\u2581leaves": 4777, "\u2581leaving": 4778, "\u2581led": 4779, "\u2581lee": 4780, "\u2581left": 4781, "\u2581leg": 4782, "\u2581legacy": 4783, "\u2581legal": 4784, "\u2581legend": 4785, "\u2581legendary": 4786, "\u2581legends": 4787, "\u2581legit": 4788, "\u2581legitimate": 4789, "\u2581legs": 4790, "\u2581leisure": 4791, "\u2581lem": 4792, "\u2581lemon": 4793, "\u2581leng": 4794, "\u2581length": 4795, "\u2581lengthy": 4796, "\u2581lenn": 4797, "\u2581lens": 4798, "\u2581lenses": 4799, "\u2581lent": 4800, "\u2581leo": 4801, "\u2581leslie": 4802, "\u2581less": 4803, "\u2581lesson": 4804, "\u2581lessons": 4805, "\u2581let": 4806, "\u2581lett": 4807, "\u2581letter": 4808, "\u2581letters": 4809, "\u2581letting": 4810, "\u2581level": 4811, "\u2581levels": 4812, "\u2581lewis": 4813, "\u2581lex": 4814, "\u2581li": 4815, "\u2581liberty": 4816, "\u2581library": 4817, "\u2581license": 4818, "\u2581lid": 4819, "\u2581lie": 4820, "\u2581lies": 4821, "\u2581lif": 4822, "\u2581life": 4823, "\u2581lifetime": 4824, "\u2581lift": 4825, "\u2581lifting": 4826, "\u2581light": 4827, "\u2581lighter": 4828, "\u2581lighting": 4829, "\u2581lightly": 4830, "\u2581lightning": 4831, "\u2581lights": 4832, "\u2581like": 4833, "\u2581liked": 4834, "\u2581likely": 4835, "\u2581likes": 4836, "\u2581lil": 4837, "\u2581lily": 4838, "\u2581lim": 4839, "\u2581lime": 4840, "\u2581limit": 4841, "\u2581limited": 4842, "\u2581lin": 4843, "\u2581lincoln": 4844, "\u2581lind": 4845, "\u2581linda": 4846, "\u2581lindsay": 4847, "\u2581line": 4848, "\u2581lined": 4849, "\u2581lines": 4850, "\u2581lingu": 4851, "\u2581lining": 4852, "\u2581link": 4853, "\u2581links": 4854, "\u2581lion": 4855, "\u2581lip": 4856, "\u2581lips": 4857, "\u2581liquid": 4858, "\u2581liquor": 4859, "\u2581lisa": 4860, "\u2581list": 4861, "\u2581listed": 4862, "\u2581listen": 4863, "\u2581listener": 4864, "\u2581listening": 4865, "\u2581lists": 4866, "\u2581lit": 4867, "\u2581literally": 4868, "\u2581little": 4869, "\u2581live": 4870, "\u2581lived": 4871, "\u2581lively": 4872, "\u2581liver": 4873, "\u2581lives": 4874, "\u2581living": 4875, "\u2581liz": 4876, "\u2581lo": 4877, "\u2581load": 4878, "\u2581loaded": 4879, "\u2581loads": 4880, "\u2581loan": 4881, "\u2581lob": 4882, "\u2581lobby": 4883, "\u2581loc": 4884, "\u2581local": 4885, "\u2581locally": 4886, "\u2581locals": 4887, "\u2581locate": 4888, "\u2581located": 4889, "\u2581location": 4890, "\u2581locations": 4891, "\u2581lock": 4892, "\u2581locked": 4893, "\u2581locks": 4894, "\u2581lodge": 4895, "\u2581lon": 4896, "\u2581london": 4897, "\u2581lone": 4898, "\u2581long": 4899, "\u2581longer": 4900, "\u2581longest": 4901, "\u2581look": 4902, "\u2581looked": 4903, "\u2581looking": 4904, "\u2581looks": 4905, "\u2581loose": 4906, "\u2581lord": 4907, "\u2581los": 4908, "\u2581lose": 4909, "\u2581losing": 4910, "\u2581loss": 4911, "\u2581lost": 4912, "\u2581lot": 4913, "\u2581lots": 4914, "\u2581lotus": 4915, "\u2581lou": 4916, "\u2581loud": 4917, "\u2581louis": 4918, "\u2581louisiana": 4919, "\u2581lounge": 4920, "\u2581lov": 4921, "\u2581love": 4922, "\u2581loved": 4923, "\u2581lover": 4924, "\u2581lovers": 4925, "\u2581loves": 4926, "\u2581loving": 4927, "\u2581low": 4928, "\u2581lowe": 4929, "\u2581lower": 4930, "\u2581lowest": 4931, "\u2581loyal": 4932, "\u2581loyalty": 4933, "\u2581lu": 4934, "\u2581luck": 4935, "\u2581lucky": 4936, "\u2581lucy": 4937, "\u2581luis": 4938, "\u2581luke": 4939, "\u2581lump": 4940, "\u2581lun": 4941, "\u2581luna": 4942, "\u2581lunch": 4943, "\u2581lup": 4944, "\u2581lux": 4945, "\u2581luxury": 4946, "\u2581ly": 4947, "\u2581lying": 4948, "\u2581lynn": 4949, "\u2581m": 4950, "\u2581ma": 4951, "\u2581mac": 4952, "\u2581mach": 4953, "\u2581machine": 4954, "\u2581machines": 4955, "\u2581mad": 4956, "\u2581made": 4957, "\u2581madison": 4958, "\u2581madness": 4959, "\u2581magazine": 4960, "\u2581magazines": 4961, "\u2581maggie": 4962, "\u2581magic": 4963, "\u2581magical": 4964, "\u2581magician": 4965, "\u2581magnificent": 4966, "\u2581mai": 4967, "\u2581maid": 4968, "\u2581mail": 4969, "\u2581main": 4970, "\u2581mainly": 4971, "\u2581maintain": 4972, "\u2581maintained": 4973, "\u2581maintenance": 4974, "\u2581major": 4975, "\u2581majority": 4976, "\u2581make": 4977, "\u2581maker": 4978, "\u2581makers": 4979, "\u2581makes": 4980, "\u2581makeup": 4981, "\u2581making": 4982, "\u2581mal": 4983, "\u2581male": 4984, "\u2581mall": 4985, "\u2581malt": 4986, "\u2581man": 4987, "\u2581manage": 4988, "\u2581managed": 4989, "\u2581management": 4990, "\u2581manager": 4991, "\u2581managers": 4992, "\u2581manages": 4993, "\u2581managing": 4994, "\u2581mandarin": 4995, "\u2581mandatory": 4996, "\u2581manhattan": 4997, "\u2581mann": 4998, "\u2581manner": 4999, "\u2581manners": 5000, "\u2581manor": 5001, "\u2581mansion": 5002, "\u2581manuel": 5003, "\u2581manufacturer": 5004, "\u2581many": 5005, "\u2581map": 5006, "\u2581maple": 5007, "\u2581maps": 5008, "\u2581mar": 5009, "\u2581marble": 5010, "\u2581marc": 5011, "\u2581march": 5012, "\u2581marco": 5013, "\u2581marcus": 5014, "\u2581marg": 5015, "\u2581marginal": 5016, "\u2581maria": 5017, "\u2581marie": 5018, "\u2581marilyn": 5019, "\u2581marin": 5020, "\u2581marina": 5021, "\u2581mario": 5022, "\u2581mark": 5023, "\u2581marked": 5024, "\u2581market": 5025, "\u2581marketing": 5026, "\u2581markets": 5027, "\u2581marks": 5028, "\u2581married": 5029, "\u2581marry": 5030, "\u2581mars": 5031, "\u2581marshall": 5032, "\u2581mart": 5033, "\u2581martin": 5034, "\u2581marty": 5035, "\u2581marvel": 5036, "\u2581mary": 5037, "\u2581maryland": 5038, "\u2581mas": 5039, "\u2581mash": 5040, "\u2581mask": 5041, "\u2581mason": 5042, "\u2581mass": 5043, "\u2581massive": 5044, "\u2581master": 5045, "\u2581masterpiece": 5046, "\u2581masters": 5047, "\u2581mat": 5048, "\u2581match": 5049, "\u2581matched": 5050, "\u2581matches": 5051, "\u2581matching": 5052, "\u2581material": 5053, "\u2581materials": 5054, "\u2581math": 5055, "\u2581mats": 5056, "\u2581matt": 5057, "\u2581matter": 5058, "\u2581matters": 5059, "\u2581matthew": 5060, "\u2581matthews": 5061, "\u2581mature": 5062, "\u2581maurice": 5063, "\u2581max": 5064, "\u2581maximum": 5065, "\u2581may": 5066, "\u2581maybe": 5067, "\u2581mayo": 5068, "\u2581maze": 5069, "\u2581mc": 5070, "\u2581mcdonald": 5071, "\u2581md": 5072, "\u2581me": 5073, "\u2581mead": 5074, "\u2581meal": 5075, "\u2581meals": 5076, "\u2581mean": 5077, "\u2581meaning": 5078, "\u2581means": 5079, "\u2581meant": 5080, "\u2581meantime": 5081, "\u2581meanwhile": 5082, "\u2581measure": 5083, "\u2581measured": 5084, "\u2581measurements": 5085, "\u2581meat": 5086, "\u2581mechanic": 5087, "\u2581mechanical": 5088, "\u2581mechanics": 5089, "\u2581med": 5090, "\u2581medall": 5091, "\u2581medi": 5092, "\u2581media": 5093, "\u2581medical": 5094, "\u2581medication": 5095, "\u2581medications": 5096, "\u2581medicine": 5097, "\u2581mediterranean": 5098, "\u2581medium": 5099, "\u2581meet": 5100, "\u2581meeting": 5101, "\u2581meetings": 5102, "\u2581meets": 5103, "\u2581mega": 5104, "\u2581meh": 5105, "\u2581mel": 5106, "\u2581melan": 5107, "\u2581melt": 5108, "\u2581melting": 5109, "\u2581member": 5110, "\u2581members": 5111, "\u2581membership": 5112, "\u2581memor": 5113, "\u2581memorable": 5114, "\u2581memorial": 5115, "\u2581memories": 5116, "\u2581memory": 5117, "\u2581men": 5118, "\u2581mens": 5119, "\u2581mention": 5120, "\u2581mentioned": 5121, "\u2581menu": 5122, "\u2581mer": 5123, "\u2581mercedes": 5124, "\u2581merchandise": 5125, "\u2581merely": 5126, "\u2581merry": 5127, "\u2581mes": 5128, "\u2581mesa": 5129, "\u2581mess": 5130, "\u2581message": 5131, "\u2581messages": 5132, "\u2581met": 5133, "\u2581metal": 5134, "\u2581method": 5135, "\u2581metro": 5136, "\u2581metropolitan": 5137, "\u2581mex": 5138, "\u2581mexican": 5139, "\u2581mexico": 5140, "\u2581mgm": 5141, "\u2581mi": 5142, "\u2581mia": 5143, "\u2581miami": 5144, "\u2581mic": 5145, "\u2581michael": 5146, "\u2581michaels": 5147, "\u2581michel": 5148, "\u2581michelle": 5149, "\u2581michigan": 5150, "\u2581mickey": 5151, "\u2581micro": 5152, "\u2581microw": 5153, "\u2581microwave": 5154, "\u2581mid": 5155, "\u2581middle": 5156, "\u2581middleton": 5157, "\u2581midnight": 5158, "\u2581midwest": 5159, "\u2581might": 5160, "\u2581mighty": 5161, "\u2581miguel": 5162, "\u2581mik": 5163, "\u2581mike": 5164, "\u2581mil": 5165, "\u2581mild": 5166, "\u2581mile": 5167, "\u2581miles": 5168, "\u2581military": 5169, "\u2581milk": 5170, "\u2581mill": 5171, "\u2581miller": 5172, "\u2581million": 5173, "\u2581mills": 5174, "\u2581mim": 5175, "\u2581min": 5176, "\u2581mind": 5177, "\u2581minds": 5178, "\u2581mine": 5179, "\u2581mini": 5180, "\u2581miniature": 5181, "\u2581minimal": 5182, "\u2581minimum": 5183, "\u2581minister": 5184, "\u2581minor": 5185, "\u2581mint": 5186, "\u2581minus": 5187, "\u2581minute": 5188, "\u2581minutes": 5189, "\u2581miracle": 5190, "\u2581mirror": 5191, "\u2581mirrors": 5192, "\u2581mis": 5193, "\u2581misleading": 5194, "\u2581miss": 5195, "\u2581missed": 5196, "\u2581missing": 5197, "\u2581mission": 5198, "\u2581mississippi": 5199, "\u2581mist": 5200, "\u2581mistake": 5201, "\u2581mistaken": 5202, "\u2581mistakes": 5203, "\u2581mitchell": 5204, "\u2581mix": 5205, "\u2581mixed": 5206, "\u2581mixes": 5207, "\u2581mixing": 5208, "\u2581mixture": 5209, "\u2581mm": 5210, "\u2581mo": 5211, "\u2581mobile": 5212, "\u2581mode": 5213, "\u2581model": 5214, "\u2581models": 5215, "\u2581moderate": 5216, "\u2581moderately": 5217, "\u2581modern": 5218, "\u2581modest": 5219, "\u2581moist": 5220, "\u2581mol": 5221, "\u2581mold": 5222, "\u2581mole": 5223, "\u2581molly": 5224, "\u2581mom": 5225, "\u2581moment": 5226, "\u2581moments": 5227, "\u2581mon": 5228, "\u2581mond": 5229, "\u2581monday": 5230, "\u2581money": 5231, "\u2581mongolian": 5232, "\u2581monica": 5233, "\u2581monkey": 5234, "\u2581monroe": 5235, "\u2581monster": 5236, "\u2581monte": 5237, "\u2581monterey": 5238, "\u2581month": 5239, "\u2581monthly": 5240, "\u2581months": 5241, "\u2581mood": 5242, "\u2581moon": 5243, "\u2581moore": 5244, "\u2581mor": 5245, "\u2581moral": 5246, "\u2581more": 5247, "\u2581moreover": 5248, "\u2581morgan": 5249, "\u2581morning": 5250, "\u2581mornings": 5251, "\u2581mort": 5252, "\u2581mortgage": 5253, "\u2581morton": 5254, "\u2581mos": 5255, "\u2581most": 5256, "\u2581mostly": 5257, "\u2581mot": 5258, "\u2581mother": 5259, "\u2581mothers": 5260, "\u2581motor": 5261, "\u2581motorcycle": 5262, "\u2581motors": 5263, "\u2581motto": 5264, "\u2581mount": 5265, "\u2581mountain": 5266, "\u2581mountains": 5267, "\u2581mouse": 5268, "\u2581mouth": 5269, "\u2581mov": 5270, "\u2581move": 5271, "\u2581moved": 5272, "\u2581moves": 5273, "\u2581movie": 5274, "\u2581movies": 5275, "\u2581moving": 5276, "\u2581mr": 5277, "\u2581mrs": 5278, "\u2581ms": 5279, "\u2581mt": 5280, "\u2581mu": 5281, "\u2581much": 5282, "\u2581mud": 5283, "\u2581mug": 5284, "\u2581multiple": 5285, "\u2581mun": 5286, "\u2581murphy": 5287, "\u2581mus": 5288, "\u2581muscles": 5289, "\u2581museum": 5290, "\u2581museums": 5291, "\u2581mush": 5292, "\u2581mushroom": 5293, "\u2581music": 5294, "\u2581musical": 5295, "\u2581musician": 5296, "\u2581musicians": 5297, "\u2581must": 5298, "\u2581my": 5299, "\u2581myers": 5300, "\u2581myself": 5301, "\u2581mystery": 5302, "\u2581n": 5303, "\u2581na": 5304, "\u2581nach": 5305, "\u2581nad": 5306, "\u2581nah": 5307, "\u2581nail": 5308, "\u2581nails": 5309, "\u2581nak": 5310, "\u2581naked": 5311, "\u2581nam": 5312, "\u2581name": 5313, "\u2581named": 5314, "\u2581names": 5315, "\u2581nancy": 5316, "\u2581nap": 5317, "\u2581narrow": 5318, "\u2581nascar": 5319, "\u2581natalie": 5320, "\u2581nathan": 5321, "\u2581nation": 5322, "\u2581national": 5323, "\u2581native": 5324, "\u2581natural": 5325, "\u2581naturally": 5326, "\u2581nature": 5327, "\u2581navig": 5328, "\u2581navy": 5329, "\u2581nazi": 5330, "\u2581nc": 5331, "\u2581ne": 5332, "\u2581neal": 5333, "\u2581near": 5334, "\u2581nearby": 5335, "\u2581nearly": 5336, "\u2581necessarily": 5337, "\u2581necessary": 5338, "\u2581neck": 5339, "\u2581ned": 5340, "\u2581need": 5341, "\u2581needed": 5342, "\u2581needing": 5343, "\u2581needs": 5344, "\u2581neg": 5345, "\u2581negative": 5346, "\u2581neglected": 5347, "\u2581neighbor": 5348, "\u2581neighborhood": 5349, "\u2581neighborhoods": 5350, "\u2581neighboring": 5351, "\u2581neighbors": 5352, "\u2581neil": 5353, "\u2581neither": 5354, "\u2581nell": 5355, "\u2581nelson": 5356, "\u2581nephew": 5357, "\u2581nerve": 5358, "\u2581nerves": 5359, "\u2581nervous": 5360, "\u2581nest": 5361, "\u2581network": 5362, "\u2581nevada": 5363, "\u2581never": 5364, "\u2581nevertheless": 5365, "\u2581new": 5366, "\u2581newer": 5367, "\u2581newest": 5368, "\u2581newly": 5369, "\u2581news": 5370, "\u2581newspaper": 5371, "\u2581next": 5372, "\u2581nfl": 5373, "\u2581nic": 5374, "\u2581nice": 5375, "\u2581nick": 5376, "\u2581nickel": 5377, "\u2581nicole": 5378, "\u2581niece": 5379, "\u2581nig": 5380, "\u2581night": 5381, "\u2581nightclub": 5382, "\u2581nightmare": 5383, "\u2581nights": 5384, "\u2581nik": 5385, "\u2581nike": 5386, "\u2581nina": 5387, "\u2581nine": 5388, "\u2581ninja": 5389, "\u2581nissan": 5390, "\u2581nj": 5391, "\u2581no": 5392, "\u2581noah": 5393, "\u2581noble": 5394, "\u2581nobody": 5395, "\u2581noir": 5396, "\u2581noise": 5397, "\u2581nom": 5398, "\u2581non": 5399, "\u2581none": 5400, "\u2581nonetheless": 5401, "\u2581nons": 5402, "\u2581noon": 5403, "\u2581nor": 5404, "\u2581nord": 5405, "\u2581norm": 5406, "\u2581normal": 5407, "\u2581normally": 5408, "\u2581north": 5409, "\u2581northeast": 5410, "\u2581northern": 5411, "\u2581northwest": 5412, "\u2581nose": 5413, "\u2581nost": 5414, "\u2581not": 5415, "\u2581note": 5416, "\u2581noted": 5417, "\u2581notes": 5418, "\u2581nothing": 5419, "\u2581notice": 5420, "\u2581noticeable": 5421, "\u2581noticed": 5422, "\u2581nov": 5423, "\u2581nova": 5424, "\u2581novel": 5425, "\u2581novelty": 5426, "\u2581november": 5427, "\u2581now": 5428, "\u2581nowadays": 5429, "\u2581nowhere": 5430, "\u2581nug": 5431, "\u2581number": 5432, "\u2581numbers": 5433, "\u2581numerous": 5434, "\u2581nurse": 5435, "\u2581nursery": 5436, "\u2581nurses": 5437, "\u2581nursing": 5438, "\u2581nut": 5439, "\u2581nuts": 5440, "\u2581ny": 5441, "\u2581o": 5442, "\u2581oak": 5443, "\u2581oakland": 5444, "\u2581oasis": 5445, "\u2581ob": 5446, "\u2581obliged": 5447, "\u2581obs": 5448, "\u2581obvious": 5449, "\u2581obviously": 5450, "\u2581occasion": 5451, "\u2581occasional": 5452, "\u2581occasionally": 5453, "\u2581occasions": 5454, "\u2581occupied": 5455, "\u2581occurred": 5456, "\u2581ocean": 5457, "\u2581oct": 5458, "\u2581october": 5459, "\u2581od": 5460, "\u2581odd": 5461, "\u2581odds": 5462, "\u2581of": 5463, "\u2581off": 5464, "\u2581offensive": 5465, "\u2581offer": 5466, "\u2581offered": 5467, "\u2581offering": 5468, "\u2581offerings": 5469, "\u2581offers": 5470, "\u2581office": 5471, "\u2581officer": 5472, "\u2581offices": 5473, "\u2581official": 5474, "\u2581officially": 5475, "\u2581often": 5476, "\u2581og": 5477, "\u2581oh": 5478, "\u2581ohio": 5479, "\u2581oil": 5480, "\u2581oils": 5481, "\u2581ok": 5482, "\u2581ol": 5483, "\u2581old": 5484, "\u2581older": 5485, "\u2581oldest": 5486, "\u2581ole": 5487, "\u2581olga": 5488, "\u2581oliv": 5489, "\u2581olive": 5490, "\u2581om": 5491, "\u2581on": 5492, "\u2581once": 5493, "\u2581one": 5494, "\u2581ones": 5495, "\u2581online": 5496, "\u2581only": 5497, "\u2581onto": 5498, "\u2581op": 5499, "\u2581open": 5500, "\u2581opened": 5501, "\u2581opening": 5502, "\u2581opens": 5503, "\u2581opera": 5504, "\u2581operate": 5505, "\u2581operated": 5506, "\u2581operating": 5507, "\u2581operation": 5508, "\u2581operations": 5509, "\u2581operator": 5510, "\u2581oph": 5511, "\u2581opinion": 5512, "\u2581opinions": 5513, "\u2581opportunities": 5514, "\u2581opportunity": 5515, "\u2581opposed": 5516, "\u2581opposite": 5517, "\u2581opt": 5518, "\u2581opted": 5519, "\u2581optical": 5520, "\u2581option": 5521, "\u2581options": 5522, "\u2581or": 5523, "\u2581oral": 5524, "\u2581orang": 5525, "\u2581orange": 5526, "\u2581orch": 5527, "\u2581order": 5528, "\u2581ordered": 5529, "\u2581ordering": 5530, "\u2581orders": 5531, "\u2581ordinary": 5532, "\u2581ore": 5533, "\u2581organ": 5534, "\u2581organic": 5535, "\u2581organization": 5536, "\u2581organized": 5537, "\u2581orient": 5538, "\u2581oriental": 5539, "\u2581oriented": 5540, "\u2581original": 5541, "\u2581originally": 5542, "\u2581orleans": 5543, "\u2581orth": 5544, "\u2581os": 5545, "\u2581osaka": 5546, "\u2581oscar": 5547, "\u2581ot": 5548, "\u2581other": 5549, "\u2581others": 5550, "\u2581otherwise": 5551, "\u2581otto": 5552, "\u2581our": 5553, "\u2581ours": 5554, "\u2581out": 5555, "\u2581outcome": 5556, "\u2581outdoor": 5557, "\u2581outer": 5558, "\u2581outfit": 5559, "\u2581outlet": 5560, "\u2581outlets": 5561, "\u2581outrage": 5562, "\u2581outs": 5563, "\u2581outside": 5564, "\u2581outstanding": 5565, "\u2581over": 5566, "\u2581overall": 5567, "\u2581overhaul": 5568, "\u2581overhe": 5569, "\u2581overhead": 5570, "\u2581overlooking": 5571, "\u2581overnight": 5572, "\u2581overs": 5573, "\u2581overwhel": 5574, "\u2581overwhelming": 5575, "\u2581owed": 5576, "\u2581own": 5577, "\u2581owned": 5578, "\u2581owner": 5579, "\u2581owners": 5580, "\u2581ownership": 5581, "\u2581owns": 5582, "\u2581oy": 5583, "\u2581oyster": 5584, "\u2581oz": 5585, "\u2581p": 5586, "\u2581pa": 5587, "\u2581pace": 5588, "\u2581pacific": 5589, "\u2581pack": 5590, "\u2581package": 5591, "\u2581packaged": 5592, "\u2581packages": 5593, "\u2581packaging": 5594, "\u2581packed": 5595, "\u2581packet": 5596, "\u2581packets": 5597, "\u2581packs": 5598, "\u2581pad": 5599, "\u2581page": 5600, "\u2581pages": 5601, "\u2581paid": 5602, "\u2581pain": 5603, "\u2581painful": 5604, "\u2581paint": 5605, "\u2581painted": 5606, "\u2581painting": 5607, "\u2581paintings": 5608, "\u2581pair": 5609, "\u2581paired": 5610, "\u2581pairs": 5611, "\u2581pal": 5612, "\u2581palace": 5613, "\u2581pale": 5614, "\u2581palm": 5615, "\u2581palmer": 5616, "\u2581pam": 5617, "\u2581pan": 5618, "\u2581panc": 5619, "\u2581panic": 5620, "\u2581panthers": 5621, "\u2581pants": 5622, "\u2581pap": 5623, "\u2581paper": 5624, "\u2581papers": 5625, "\u2581par": 5626, "\u2581paradise": 5627, "\u2581parent": 5628, "\u2581parents": 5629, "\u2581paris": 5630, "\u2581parish": 5631, "\u2581park": 5632, "\u2581parking": 5633, "\u2581parks": 5634, "\u2581parl": 5635, "\u2581part": 5636, "\u2581partial": 5637, "\u2581partially": 5638, "\u2581particular": 5639, "\u2581particularly": 5640, "\u2581parties": 5641, "\u2581partner": 5642, "\u2581partners": 5643, "\u2581parts": 5644, "\u2581party": 5645, "\u2581pass": 5646, "\u2581passed": 5647, "\u2581passenger": 5648, "\u2581passengers": 5649, "\u2581passes": 5650, "\u2581passing": 5651, "\u2581passion": 5652, "\u2581passionate": 5653, "\u2581passport": 5654, "\u2581past": 5655, "\u2581pastor": 5656, "\u2581pat": 5657, "\u2581patch": 5658, "\u2581path": 5659, "\u2581paths": 5660, "\u2581patient": 5661, "\u2581patients": 5662, "\u2581patricia": 5663, "\u2581patrick": 5664, "\u2581patron": 5665, "\u2581patronage": 5666, "\u2581patrons": 5667, "\u2581patt": 5668, "\u2581paul": 5669, "\u2581pawn": 5670, "\u2581pay": 5671, "\u2581paying": 5672, "\u2581payment": 5673, "\u2581payments": 5674, "\u2581pays": 5675, "\u2581pe": 5676, "\u2581peace": 5677, "\u2581peaceful": 5678, "\u2581peach": 5679, "\u2581peak": 5680, "\u2581peaks": 5681, "\u2581pean": 5682, "\u2581pear": 5683, "\u2581pearl": 5684, "\u2581peas": 5685, "\u2581ped": 5686, "\u2581pedestrian": 5687, "\u2581pedro": 5688, "\u2581peel": 5689, "\u2581pen": 5690, "\u2581penguin": 5691, "\u2581penguins": 5692, "\u2581penn": 5693, "\u2581penny": 5694, "\u2581pens": 5695, "\u2581people": 5696, "\u2581peoples": 5697, "\u2581pep": 5698, "\u2581pepper": 5699, "\u2581peppers": 5700, "\u2581peps": 5701, "\u2581per": 5702, "\u2581percent": 5703, "\u2581perf": 5704, "\u2581perfect": 5705, "\u2581perfection": 5706, "\u2581perfectly": 5707, "\u2581perform": 5708, "\u2581performance": 5709, "\u2581performances": 5710, "\u2581performed": 5711, "\u2581performers": 5712, "\u2581performing": 5713, "\u2581perhaps": 5714, "\u2581period": 5715, "\u2581permanent": 5716, "\u2581permanently": 5717, "\u2581perry": 5718, "\u2581persian": 5719, "\u2581person": 5720, "\u2581personal": 5721, "\u2581personalities": 5722, "\u2581personality": 5723, "\u2581personally": 5724, "\u2581personnel": 5725, "\u2581persons": 5726, "\u2581perspective": 5727, "\u2581peruvian": 5728, "\u2581pest": 5729, "\u2581pet": 5730, "\u2581pete": 5731, "\u2581peter": 5732, "\u2581petit": 5733, "\u2581pets": 5734, "\u2581pf": 5735, "\u2581ph": 5736, "\u2581pharmac": 5737, "\u2581pharmacy": 5738, "\u2581phenomen": 5739, "\u2581phil": 5740, "\u2581philadelphia": 5741, "\u2581phoen": 5742, "\u2581phoenix": 5743, "\u2581phone": 5744, "\u2581phones": 5745, "\u2581photo": 5746, "\u2581photographer": 5747, "\u2581photography": 5748, "\u2581photos": 5749, "\u2581physical": 5750, "\u2581physically": 5751, "\u2581physician": 5752, "\u2581physicians": 5753, "\u2581piano": 5754, "\u2581pic": 5755, "\u2581pick": 5756, "\u2581picked": 5757, "\u2581picking": 5758, "\u2581picks": 5759, "\u2581pickup": 5760, "\u2581picnic": 5761, "\u2581picture": 5762, "\u2581pictures": 5763, "\u2581pie": 5764, "\u2581piece": 5765, "\u2581pieces": 5766, "\u2581pier": 5767, "\u2581pig": 5768, "\u2581pil": 5769, "\u2581pile": 5770, "\u2581pill": 5771, "\u2581pilot": 5772, "\u2581pin": 5773, "\u2581pinch": 5774, "\u2581pine": 5775, "\u2581pink": 5776, "\u2581pinn": 5777, "\u2581pip": 5778, "\u2581pipe": 5779, "\u2581piper": 5780, "\u2581pipes": 5781, "\u2581pirates": 5782, "\u2581pist": 5783, "\u2581pit": 5784, "\u2581pitcher": 5785, "\u2581pits": 5786, "\u2581pitt": 5787, "\u2581pitts": 5788, "\u2581pittsburgh": 5789, "\u2581piz": 5790, "\u2581pizza": 5791, "\u2581pl": 5792, "\u2581place": 5793, "\u2581placed": 5794, "\u2581places": 5795, "\u2581placing": 5796, "\u2581plague": 5797, "\u2581plain": 5798, "\u2581plan": 5799, "\u2581plane": 5800, "\u2581planes": 5801, "\u2581planet": 5802, "\u2581planned": 5803, "\u2581planning": 5804, "\u2581plans": 5805, "\u2581plant": 5806, "\u2581plants": 5807, "\u2581plastic": 5808, "\u2581plat": 5809, "\u2581plate": 5810, "\u2581plates": 5811, "\u2581platinum": 5812, "\u2581play": 5813, "\u2581played": 5814, "\u2581player": 5815, "\u2581players": 5816, "\u2581playground": 5817, "\u2581playing": 5818, "\u2581plays": 5819, "\u2581plaza": 5820, "\u2581ple": 5821, "\u2581pleas": 5822, "\u2581pleasant": 5823, "\u2581please": 5824, "\u2581pleased": 5825, "\u2581pleasure": 5826, "\u2581plenty": 5827, "\u2581plug": 5828, "\u2581plum": 5829, "\u2581plus": 5830, "\u2581pm": 5831, "\u2581po": 5832, "\u2581pocket": 5833, "\u2581pockets": 5834, "\u2581point": 5835, "\u2581pointed": 5836, "\u2581pointing": 5837, "\u2581points": 5838, "\u2581poisoning": 5839, "\u2581poker": 5840, "\u2581pol": 5841, "\u2581pole": 5842, "\u2581police": 5843, "\u2581policies": 5844, "\u2581policy": 5845, "\u2581polish": 5846, "\u2581polit": 5847, "\u2581polo": 5848, "\u2581pond": 5849, "\u2581pool": 5850, "\u2581pools": 5851, "\u2581poor": 5852, "\u2581poorly": 5853, "\u2581pop": 5854, "\u2581popular": 5855, "\u2581pork": 5856, "\u2581porsche": 5857, "\u2581port": 5858, "\u2581porter": 5859, "\u2581portion": 5860, "\u2581portions": 5861, "\u2581pos": 5862, "\u2581posit": 5863, "\u2581position": 5864, "\u2581positive": 5865, "\u2581positively": 5866, "\u2581possible": 5867, "\u2581possibly": 5868, "\u2581post": 5869, "\u2581posted": 5870, "\u2581poster": 5871, "\u2581posters": 5872, "\u2581posting": 5873, "\u2581posts": 5874, "\u2581pot": 5875, "\u2581potato": 5876, "\u2581potatoes": 5877, "\u2581potent": 5878, "\u2581potential": 5879, "\u2581pots": 5880, "\u2581pottery": 5881, "\u2581pound": 5882, "\u2581pounds": 5883, "\u2581pour": 5884, "\u2581powder": 5885, "\u2581power": 5886, "\u2581powerful": 5887, "\u2581poz": 5888, "\u2581pr": 5889, "\u2581pra": 5890, "\u2581practical": 5891, "\u2581practically": 5892, "\u2581practice": 5893, "\u2581practices": 5894, "\u2581practitioner": 5895, "\u2581praise": 5896, "\u2581pre": 5897, "\u2581precious": 5898, "\u2581precise": 5899, "\u2581precision": 5900, "\u2581predict": 5901, "\u2581preface": 5902, "\u2581prefect": 5903, "\u2581prefer": 5904, "\u2581preference": 5905, "\u2581preferences": 5906, "\u2581preferred": 5907, "\u2581pregnancy": 5908, "\u2581pregnant": 5909, "\u2581premier": 5910, "\u2581premises": 5911, "\u2581premium": 5912, "\u2581prep": 5913, "\u2581preparation": 5914, "\u2581prepare": 5915, "\u2581prepared": 5916, "\u2581preparing": 5917, "\u2581pres": 5918, "\u2581prescribed": 5919, "\u2581prescription": 5920, "\u2581presence": 5921, "\u2581present": 5922, "\u2581presentation": 5923, "\u2581presented": 5924, "\u2581presents": 5925, "\u2581presidential": 5926, "\u2581press": 5927, "\u2581pressed": 5928, "\u2581pressure": 5929, "\u2581prestige": 5930, "\u2581pret": 5931, "\u2581pretty": 5932, "\u2581prevent": 5933, "\u2581previous": 5934, "\u2581previously": 5935, "\u2581pric": 5936, "\u2581price": 5937, "\u2581prices": 5938, "\u2581pricing": 5939, "\u2581pride": 5940, "\u2581prim": 5941, "\u2581primarily": 5942, "\u2581primary": 5943, "\u2581prime": 5944, "\u2581prince": 5945, "\u2581princess": 5946, "\u2581principle": 5947, "\u2581print": 5948, "\u2581printed": 5949, "\u2581printing": 5950, "\u2581prints": 5951, "\u2581prior": 5952, "\u2581priority": 5953, "\u2581prison": 5954, "\u2581privacy": 5955, "\u2581private": 5956, "\u2581prix": 5957, "\u2581prizes": 5958, "\u2581pro": 5959, "\u2581prob": 5960, "\u2581probably": 5961, "\u2581problem": 5962, "\u2581problems": 5963, "\u2581procedure": 5964, "\u2581procedures": 5965, "\u2581proceed": 5966, "\u2581proceeded": 5967, "\u2581proceeds": 5968, "\u2581process": 5969, "\u2581processed": 5970, "\u2581produce": 5971, "\u2581product": 5972, "\u2581production": 5973, "\u2581productions": 5974, "\u2581products": 5975, "\u2581prof": 5976, "\u2581profession": 5977, "\u2581professional": 5978, "\u2581professionally": 5979, "\u2581professionals": 5980, "\u2581profit": 5981, "\u2581program": 5982, "\u2581programs": 5983, "\u2581progress": 5984, "\u2581progressive": 5985, "\u2581project": 5986, "\u2581projects": 5987, "\u2581prom": 5988, "\u2581promise": 5989, "\u2581promised": 5990, "\u2581promises": 5991, "\u2581promising": 5992, "\u2581promotion": 5993, "\u2581promotions": 5994, "\u2581prompt": 5995, "\u2581promptly": 5996, "\u2581proof": 5997, "\u2581prop": 5998, "\u2581proper": 5999, "\u2581properly": 6000, "\u2581properties": 6001, "\u2581property": 6002, "\u2581proportion": 6003, "\u2581proportions": 6004, "\u2581pros": 6005, "\u2581protect": 6006, "\u2581protection": 6007, "\u2581protein": 6008, "\u2581proud": 6009, "\u2581prov": 6010, "\u2581prove": 6011, "\u2581proved": 6012, "\u2581provide": 6013, "\u2581provided": 6014, "\u2581provider": 6015, "\u2581providers": 6016, "\u2581provides": 6017, "\u2581providing": 6018, "\u2581proximity": 6019, "\u2581ps": 6020, "\u2581pt": 6021, "\u2581pub": 6022, "\u2581public": 6023, "\u2581pubs": 6024, "\u2581pud": 6025, "\u2581pueblo": 6026, "\u2581puff": 6027, "\u2581pull": 6028, "\u2581pulled": 6029, "\u2581pulling": 6030, "\u2581pump": 6031, "\u2581pumps": 6032, "\u2581pun": 6033, "\u2581punch": 6034, "\u2581punct": 6035, "\u2581pup": 6036, "\u2581pur": 6037, "\u2581purchase": 6038, "\u2581purchased": 6039, "\u2581purchases": 6040, "\u2581purchasing": 6041, "\u2581pure": 6042, "\u2581purely": 6043, "\u2581purple": 6044, "\u2581purpose": 6045, "\u2581purs": 6046, "\u2581push": 6047, "\u2581pushed": 6048, "\u2581pushing": 6049, "\u2581put": 6050, "\u2581puts": 6051, "\u2581putting": 6052, "\u2581q": 6053, "\u2581qu": 6054, "\u2581qualified": 6055, "\u2581qualify": 6056, "\u2581qualities": 6057, "\u2581quality": 6058, "\u2581quantities": 6059, "\u2581quantity": 6060, "\u2581quarter": 6061, "\u2581quarters": 6062, "\u2581queen": 6063, "\u2581queens": 6064, "\u2581quest": 6065, "\u2581question": 6066, "\u2581questioned": 6067, "\u2581questions": 6068, "\u2581quick": 6069, "\u2581quickly": 6070, "\u2581quiet": 6071, "\u2581quint": 6072, "\u2581quir": 6073, "\u2581quit": 6074, "\u2581quite": 6075, "\u2581quote": 6076, "\u2581quoted": 6077, "\u2581quotes": 6078, "\u2581r": 6079, "\u2581ra": 6080, "\u2581rabbit": 6081, "\u2581race": 6082, "\u2581races": 6083, "\u2581rachel": 6084, "\u2581racing": 6085, "\u2581racist": 6086, "\u2581rack": 6087, "\u2581rad": 6088, "\u2581radi": 6089, "\u2581radio": 6090, "\u2581rag": 6091, "\u2581rail": 6092, "\u2581rain": 6093, "\u2581rainbow": 6094, "\u2581rainforest": 6095, "\u2581rainy": 6096, "\u2581raise": 6097, "\u2581raised": 6098, "\u2581raising": 6099, "\u2581ralph": 6100, "\u2581ram": 6101, "\u2581rama": 6102, "\u2581ramsey": 6103, "\u2581ran": 6104, "\u2581ranch": 6105, "\u2581random": 6106, "\u2581randomly": 6107, "\u2581randy": 6108, "\u2581rang": 6109, "\u2581range": 6110, "\u2581ranged": 6111, "\u2581ranges": 6112, "\u2581ranging": 6113, "\u2581ranks": 6114, "\u2581rapid": 6115, "\u2581rare": 6116, "\u2581rarely": 6117, "\u2581ras": 6118, "\u2581rat": 6119, "\u2581rate": 6120, "\u2581rated": 6121, "\u2581rates": 6122, "\u2581rather": 6123, "\u2581rating": 6124, "\u2581ratings": 6125, "\u2581ratio": 6126, "\u2581ratt": 6127, "\u2581raw": 6128, "\u2581ray": 6129, "\u2581rays": 6130, "\u2581razor": 6131, "\u2581rc": 6132, "\u2581rd": 6133, "\u2581re": 6134, "\u2581reach": 6135, "\u2581reached": 6136, "\u2581reaction": 6137, "\u2581read": 6138, "\u2581readily": 6139, "\u2581reading": 6140, "\u2581reads": 6141, "\u2581ready": 6142, "\u2581real": 6143, "\u2581realistic": 6144, "\u2581reality": 6145, "\u2581realize": 6146, "\u2581realized": 6147, "\u2581really": 6148, "\u2581rear": 6149, "\u2581reason": 6150, "\u2581reasonable": 6151, "\u2581reasonably": 6152, "\u2581reasons": 6153, "\u2581reass": 6154, "\u2581rebecca": 6155, "\u2581rec": 6156, "\u2581recall": 6157, "\u2581receip": 6158, "\u2581receive": 6159, "\u2581received": 6160, "\u2581receiving": 6161, "\u2581recent": 6162, "\u2581recently": 6163, "\u2581reception": 6164, "\u2581recipe": 6165, "\u2581recipes": 6166, "\u2581recognition": 6167, "\u2581recognize": 6168, "\u2581recognized": 6169, "\u2581recom": 6170, "\u2581recomm": 6171, "\u2581recommend": 6172, "\u2581recommendation": 6173, "\u2581recommendations": 6174, "\u2581recommended": 6175, "\u2581record": 6176, "\u2581records": 6177, "\u2581recovered": 6178, "\u2581recovery": 6179, "\u2581red": 6180, "\u2581rede": 6181, "\u2581reduced": 6182, "\u2581ref": 6183, "\u2581refer": 6184, "\u2581referred": 6185, "\u2581referring": 6186, "\u2581reflect": 6187, "\u2581reflects": 6188, "\u2581refriger": 6189, "\u2581refuse": 6190, "\u2581refused": 6191, "\u2581refuses": 6192, "\u2581reg": 6193, "\u2581regard": 6194, "\u2581regarding": 6195, "\u2581regardless": 6196, "\u2581regards": 6197, "\u2581regent": 6198, "\u2581region": 6199, "\u2581regional": 6200, "\u2581register": 6201, "\u2581registers": 6202, "\u2581registration": 6203, "\u2581regret": 6204, "\u2581regular": 6205, "\u2581regularly": 6206, "\u2581rehe": 6207, "\u2581rehearsal": 6208, "\u2581rel": 6209, "\u2581related": 6210, "\u2581relationship": 6211, "\u2581relative": 6212, "\u2581relatively": 6213, "\u2581relatives": 6214, "\u2581relax": 6215, "\u2581relaxed": 6216, "\u2581reli": 6217, "\u2581reliable": 6218, "\u2581relief": 6219, "\u2581relieved": 6220, "\u2581relocated": 6221, "\u2581reluctantly": 6222, "\u2581rely": 6223, "\u2581rem": 6224, "\u2581remain": 6225, "\u2581remained": 6226, "\u2581remaining": 6227, "\u2581remains": 6228, "\u2581remake": 6229, "\u2581remark": 6230, "\u2581remarkable": 6231, "\u2581remedy": 6232, "\u2581remember": 6233, "\u2581remembered": 6234, "\u2581remind": 6235, "\u2581reminiscent": 6236, "\u2581remod": 6237, "\u2581remote": 6238, "\u2581removal": 6239, "\u2581remove": 6240, "\u2581removed": 6241, "\u2581removing": 6242, "\u2581ren": 6243, "\u2581renaissance": 6244, "\u2581renew": 6245, "\u2581renewed": 6246, "\u2581reno": 6247, "\u2581renovated": 6248, "\u2581renovation": 6249, "\u2581renovations": 6250, "\u2581rent": 6251, "\u2581rental": 6252, "\u2581rented": 6253, "\u2581reopened": 6254, "\u2581rep": 6255, "\u2581repair": 6256, "\u2581repaired": 6257, "\u2581repairs": 6258, "\u2581repeat": 6259, "\u2581repeated": 6260, "\u2581repeatedly": 6261, "\u2581replace": 6262, "\u2581replaced": 6263, "\u2581replacement": 6264, "\u2581replacing": 6265, "\u2581replied": 6266, "\u2581reply": 6267, "\u2581report": 6268, "\u2581reported": 6269, "\u2581represent": 6270, "\u2581representation": 6271, "\u2581representative": 6272, "\u2581represented": 6273, "\u2581represents": 6274, "\u2581republic": 6275, "\u2581reputation": 6276, "\u2581request": 6277, "\u2581requested": 6278, "\u2581requesting": 6279, "\u2581requests": 6280, "\u2581require": 6281, "\u2581required": 6282, "\u2581requirements": 6283, "\u2581requires": 6284, "\u2581res": 6285, "\u2581rescue": 6286, "\u2581resear": 6287, "\u2581research": 6288, "\u2581reservation": 6289, "\u2581reservations": 6290, "\u2581reserve": 6291, "\u2581reserved": 6292, "\u2581reset": 6293, "\u2581residence": 6294, "\u2581resident": 6295, "\u2581residential": 6296, "\u2581residents": 6297, "\u2581resist": 6298, "\u2581resolution": 6299, "\u2581resolve": 6300, "\u2581resolved": 6301, "\u2581resort": 6302, "\u2581resorts": 6303, "\u2581resource": 6304, "\u2581respect": 6305, "\u2581respected": 6306, "\u2581respond": 6307, "\u2581responded": 6308, "\u2581respons": 6309, "\u2581response": 6310, "\u2581responses": 6311, "\u2581responsibility": 6312, "\u2581responsible": 6313, "\u2581rest": 6314, "\u2581restaurant": 6315, "\u2581restaurants": 6316, "\u2581restored": 6317, "\u2581restoring": 6318, "\u2581restra": 6319, "\u2581restrictions": 6320, "\u2581result": 6321, "\u2581results": 6322, "\u2581retail": 6323, "\u2581retreat": 6324, "\u2581retro": 6325, "\u2581return": 6326, "\u2581returned": 6327, "\u2581returning": 6328, "\u2581returns": 6329, "\u2581reunion": 6330, "\u2581reverse": 6331, "\u2581review": 6332, "\u2581reviewed": 6333, "\u2581reviewer": 6334, "\u2581reviewers": 6335, "\u2581reviewing": 6336, "\u2581reviews": 6337, "\u2581revis": 6338, "\u2581reward": 6339, "\u2581rewarded": 6340, "\u2581rewards": 6341, "\u2581rex": 6342, "\u2581rh": 6343, "\u2581rib": 6344, "\u2581ribbon": 6345, "\u2581ric": 6346, "\u2581ricardo": 6347, "\u2581rice": 6348, "\u2581rich": 6349, "\u2581richard": 6350, "\u2581rick": 6351, "\u2581ricky": 6352, "\u2581rico": 6353, "\u2581rid": 6354, "\u2581ride": 6355, "\u2581riders": 6356, "\u2581rides": 6357, "\u2581ridge": 6358, "\u2581ridic": 6359, "\u2581riding": 6360, "\u2581rig": 6361, "\u2581right": 6362, "\u2581riley": 6363, "\u2581rim": 6364, "\u2581ring": 6365, "\u2581rings": 6366, "\u2581rink": 6367, "\u2581rio": 6368, "\u2581riot": 6369, "\u2581rip": 6370, "\u2581ris": 6371, "\u2581risk": 6372, "\u2581rita": 6373, "\u2581rival": 6374, "\u2581rivals": 6375, "\u2581river": 6376, "\u2581ro": 6377, "\u2581road": 6378, "\u2581rob": 6379, "\u2581robbins": 6380, "\u2581robert": 6381, "\u2581roberto": 6382, "\u2581roberts": 6383, "\u2581robin": 6384, "\u2581robust": 6385, "\u2581rock": 6386, "\u2581rockefeller": 6387, "\u2581rocket": 6388, "\u2581rocks": 6389, "\u2581rocky": 6390, "\u2581rod": 6391, "\u2581rode": 6392, "\u2581roger": 6393, "\u2581role": 6394, "\u2581roll": 6395, "\u2581rolled": 6396, "\u2581roller": 6397, "\u2581rolling": 6398, "\u2581rolls": 6399, "\u2581rom": 6400, "\u2581roma": 6401, "\u2581roman": 6402, "\u2581romance": 6403, "\u2581romantic": 6404, "\u2581ron": 6405, "\u2581ronald": 6406, "\u2581roof": 6407, "\u2581room": 6408, "\u2581rooms": 6409, "\u2581root": 6410, "\u2581roots": 6411, "\u2581ros": 6412, "\u2581rosa": 6413, "\u2581rose": 6414, "\u2581rosem": 6415, "\u2581roses": 6416, "\u2581ross": 6417, "\u2581rot": 6418, "\u2581rotated": 6419, "\u2581rotating": 6420, "\u2581rotation": 6421, "\u2581rotten": 6422, "\u2581rough": 6423, "\u2581roughly": 6424, "\u2581round": 6425, "\u2581rounded": 6426, "\u2581rounds": 6427, "\u2581route": 6428, "\u2581routes": 6429, "\u2581routine": 6430, "\u2581row": 6431, "\u2581rows": 6432, "\u2581roy": 6433, "\u2581royal": 6434, "\u2581royalty": 6435, "\u2581ru": 6436, "\u2581rub": 6437, "\u2581rubber": 6438, "\u2581rud": 6439, "\u2581rue": 6440, "\u2581rug": 6441, "\u2581ruin": 6442, "\u2581ruined": 6443, "\u2581ruins": 6444, "\u2581rule": 6445, "\u2581rules": 6446, "\u2581rum": 6447, "\u2581rumors": 6448, "\u2581run": 6449, "\u2581rund": 6450, "\u2581runner": 6451, "\u2581runners": 6452, "\u2581running": 6453, "\u2581runs": 6454, "\u2581rush": 6455, "\u2581rushed": 6456, "\u2581rushing": 6457, "\u2581russ": 6458, "\u2581russell": 6459, "\u2581russian": 6460, "\u2581rust": 6461, "\u2581ruth": 6462, "\u2581ryan": 6463, "\u2581rye": 6464, "\u2581s": 6465, "\u2581sa": 6466, "\u2581sacks": 6467, "\u2581sad": 6468, "\u2581safe": 6469, "\u2581safely": 6470, "\u2581safety": 6471, "\u2581sage": 6472, "\u2581sahara": 6473, "\u2581said": 6474, "\u2581sak": 6475, "\u2581sake": 6476, "\u2581sal": 6477, "\u2581sale": 6478, "\u2581sales": 6479, "\u2581sally": 6480, "\u2581salmon": 6481, "\u2581salon": 6482, "\u2581saloon": 6483, "\u2581salt": 6484, "\u2581salute": 6485, "\u2581salvador": 6486, "\u2581sam": 6487, "\u2581same": 6488, "\u2581sammy": 6489, "\u2581sample": 6490, "\u2581sampled": 6491, "\u2581samples": 6492, "\u2581sampling": 6493, "\u2581samurai": 6494, "\u2581san": 6495, "\u2581sand": 6496, "\u2581sandwich": 6497, "\u2581sandy": 6498, "\u2581sang": 6499, "\u2581sans": 6500, "\u2581santa": 6501, "\u2581sar": 6502, "\u2581sara": 6503, "\u2581sarah": 6504, "\u2581sat": 6505, "\u2581satisf": 6506, "\u2581satisfaction": 6507, "\u2581satisfied": 6508, "\u2581satisfy": 6509, "\u2581saturday": 6510, "\u2581saturdays": 6511, "\u2581sauce": 6512, "\u2581saus": 6513, "\u2581sav": 6514, "\u2581save": 6515, "\u2581saved": 6516, "\u2581saves": 6517, "\u2581saving": 6518, "\u2581savings": 6519, "\u2581saw": 6520, "\u2581say": 6521, "\u2581saying": 6522, "\u2581says": 6523, "\u2581sc": 6524, "\u2581scal": 6525, "\u2581scale": 6526, "\u2581scan": 6527, "\u2581scare": 6528, "\u2581scene": 6529, "\u2581scenery": 6530, "\u2581scenic": 6531, "\u2581sch": 6532, "\u2581schedule": 6533, "\u2581scheduled": 6534, "\u2581scheduling": 6535, "\u2581school": 6536, "\u2581schools": 6537, "\u2581schumacher": 6538, "\u2581schwartz": 6539, "\u2581science": 6540, "\u2581sco": 6541, "\u2581score": 6542, "\u2581scored": 6543, "\u2581scores": 6544, "\u2581scorp": 6545, "\u2581scot": 6546, "\u2581scott": 6547, "\u2581scr": 6548, "\u2581scrat": 6549, "\u2581scratch": 6550, "\u2581scre": 6551, "\u2581scream": 6552, "\u2581screen": 6553, "\u2581screens": 6554, "\u2581screw": 6555, "\u2581script": 6556, "\u2581scrub": 6557, "\u2581sculptures": 6558, "\u2581se": 6559, "\u2581sea": 6560, "\u2581seab": 6561, "\u2581seaf": 6562, "\u2581seal": 6563, "\u2581sealed": 6564, "\u2581seam": 6565, "\u2581sean": 6566, "\u2581search": 6567, "\u2581searched": 6568, "\u2581searching": 6569, "\u2581sears": 6570, "\u2581season": 6571, "\u2581seasonal": 6572, "\u2581seasons": 6573, "\u2581seat": 6574, "\u2581seated": 6575, "\u2581seating": 6576, "\u2581seats": 6577, "\u2581seattle": 6578, "\u2581second": 6579, "\u2581secondly": 6580, "\u2581seconds": 6581, "\u2581secret": 6582, "\u2581secrets": 6583, "\u2581section": 6584, "\u2581sections": 6585, "\u2581secure": 6586, "\u2581security": 6587, "\u2581sed": 6588, "\u2581see": 6589, "\u2581seed": 6590, "\u2581seeds": 6591, "\u2581seeing": 6592, "\u2581seek": 6593, "\u2581seeking": 6594, "\u2581seem": 6595, "\u2581seemed": 6596, "\u2581seemingly": 6597, "\u2581seems": 6598, "\u2581seen": 6599, "\u2581sees": 6600, "\u2581seldom": 6601, "\u2581select": 6602, "\u2581selected": 6603, "\u2581selecting": 6604, "\u2581selection": 6605, "\u2581selections": 6606, "\u2581self": 6607, "\u2581sell": 6608, "\u2581selling": 6609, "\u2581sells": 6610, "\u2581semi": 6611, "\u2581send": 6612, "\u2581sending": 6613, "\u2581senior": 6614, "\u2581sens": 6615, "\u2581sense": 6616, "\u2581senses": 6617, "\u2581sensitive": 6618, "\u2581sent": 6619, "\u2581sentence": 6620, "\u2581separate": 6621, "\u2581separated": 6622, "\u2581separately": 6623, "\u2581seph": 6624, "\u2581september": 6625, "\u2581ser": 6626, "\u2581series": 6627, "\u2581serious": 6628, "\u2581seriously": 6629, "\u2581serv": 6630, "\u2581serve": 6631, "\u2581served": 6632, "\u2581server": 6633, "\u2581servers": 6634, "\u2581serves": 6635, "\u2581service": 6636, "\u2581services": 6637, "\u2581serving": 6638, "\u2581ses": 6639, "\u2581session": 6640, "\u2581sessions": 6641, "\u2581set": 6642, "\u2581sets": 6643, "\u2581setting": 6644, "\u2581settings": 6645, "\u2581settle": 6646, "\u2581settled": 6647, "\u2581setup": 6648, "\u2581sev": 6649, "\u2581seven": 6650, "\u2581sever": 6651, "\u2581several": 6652, "\u2581severe": 6653, "\u2581severely": 6654, "\u2581sewage": 6655, "\u2581sewer": 6656, "\u2581sex": 6657, "\u2581sf": 6658, "\u2581sh": 6659, "\u2581shab": 6660, "\u2581shack": 6661, "\u2581shade": 6662, "\u2581shades": 6663, "\u2581shadow": 6664, "\u2581shake": 6665, "\u2581shall": 6666, "\u2581shame": 6667, "\u2581shane": 6668, "\u2581shanghai": 6669, "\u2581shank": 6670, "\u2581shannon": 6671, "\u2581shape": 6672, "\u2581shaped": 6673, "\u2581share": 6674, "\u2581shared": 6675, "\u2581sharing": 6676, "\u2581shark": 6677, "\u2581sharon": 6678, "\u2581sharp": 6679, "\u2581shaw": 6680, "\u2581shawn": 6681, "\u2581she": 6682, "\u2581sheer": 6683, "\u2581sheet": 6684, "\u2581sheets": 6685, "\u2581shel": 6686, "\u2581shelf": 6687, "\u2581shell": 6688, "\u2581shells": 6689, "\u2581shelter": 6690, "\u2581shepherd": 6691, "\u2581sher": 6692, "\u2581shift": 6693, "\u2581shim": 6694, "\u2581ship": 6695, "\u2581shipped": 6696, "\u2581shipping": 6697, "\u2581shirt": 6698, "\u2581shirts": 6699, "\u2581sho": 6700, "\u2581shock": 6701, "\u2581shocked": 6702, "\u2581shoe": 6703, "\u2581shoes": 6704, "\u2581shogun": 6705, "\u2581shoot": 6706, "\u2581shooter": 6707, "\u2581shooting": 6708, "\u2581shop": 6709, "\u2581shopping": 6710, "\u2581shops": 6711, "\u2581short": 6712, "\u2581shortage": 6713, "\u2581shorter": 6714, "\u2581shortly": 6715, "\u2581shorts": 6716, "\u2581shot": 6717, "\u2581shots": 6718, "\u2581should": 6719, "\u2581shoulder": 6720, "\u2581shoulders": 6721, "\u2581shout": 6722, "\u2581show": 6723, "\u2581showed": 6724, "\u2581shower": 6725, "\u2581showing": 6726, "\u2581shown": 6727, "\u2581shows": 6728, "\u2581shr": 6729, "\u2581shrim": 6730, "\u2581shrimp": 6731, "\u2581shu": 6732, "\u2581shut": 6733, "\u2581shuttle": 6734, "\u2581shy": 6735, "\u2581sich": 6736, "\u2581sicilian": 6737, "\u2581sick": 6738, "\u2581side": 6739, "\u2581sides": 6740, "\u2581sierra": 6741, "\u2581sight": 6742, "\u2581sign": 6743, "\u2581signal": 6744, "\u2581signature": 6745, "\u2581signed": 6746, "\u2581significant": 6747, "\u2581significantly": 6748, "\u2581signing": 6749, "\u2581signs": 6750, "\u2581sil": 6751, "\u2581silence": 6752, "\u2581silk": 6753, "\u2581silver": 6754, "\u2581similar": 6755, "\u2581similarly": 6756, "\u2581simple": 6757, "\u2581simplicity": 6758, "\u2581simply": 6759, "\u2581sin": 6760, "\u2581sinc": 6761, "\u2581since": 6762, "\u2581sing": 6763, "\u2581singapore": 6764, "\u2581singer": 6765, "\u2581singing": 6766, "\u2581single": 6767, "\u2581singles": 6768, "\u2581sink": 6769, "\u2581sip": 6770, "\u2581sir": 6771, "\u2581sister": 6772, "\u2581sisters": 6773, "\u2581sit": 6774, "\u2581site": 6775, "\u2581sites": 6776, "\u2581sits": 6777, "\u2581sitting": 6778, "\u2581situated": 6779, "\u2581situation": 6780, "\u2581situations": 6781, "\u2581six": 6782, "\u2581size": 6783, "\u2581sized": 6784, "\u2581sizes": 6785, "\u2581sk": 6786, "\u2581skate": 6787, "\u2581skating": 6788, "\u2581ske": 6789, "\u2581skept": 6790, "\u2581sketch": 6791, "\u2581ski": 6792, "\u2581skill": 6793, "\u2581skilled": 6794, "\u2581skills": 6795, "\u2581skin": 6796, "\u2581skip": 6797, "\u2581sky": 6798, "\u2581skyline": 6799, "\u2581skys": 6800, "\u2581sl": 6801, "\u2581slam": 6802, "\u2581sle": 6803, "\u2581sleep": 6804, "\u2581sleeping": 6805, "\u2581slide": 6806, "\u2581sliding": 6807, "\u2581slight": 6808, "\u2581slightly": 6809, "\u2581slim": 6810, "\u2581slip": 6811, "\u2581slot": 6812, "\u2581slots": 6813, "\u2581slow": 6814, "\u2581slower": 6815, "\u2581slowly": 6816, "\u2581sm": 6817, "\u2581small": 6818, "\u2581smaller": 6819, "\u2581smallest": 6820, "\u2581smart": 6821, "\u2581smell": 6822, "\u2581smile": 6823, "\u2581smith": 6824, "\u2581smok": 6825, "\u2581smoke": 6826, "\u2581smoking": 6827, "\u2581smooth": 6828, "\u2581sn": 6829, "\u2581snap": 6830, "\u2581sne": 6831, "\u2581snow": 6832, "\u2581so": 6833, "\u2581soap": 6834, "\u2581soc": 6835, "\u2581soccer": 6836, "\u2581social": 6837, "\u2581society": 6838, "\u2581sod": 6839, "\u2581soda": 6840, "\u2581sodium": 6841, "\u2581soft": 6842, "\u2581sol": 6843, "\u2581sold": 6844, "\u2581sole": 6845, "\u2581solely": 6846, "\u2581solid": 6847, "\u2581solo": 6848, "\u2581solution": 6849, "\u2581solutions": 6850, "\u2581solve": 6851, "\u2581solved": 6852, "\u2581som": 6853, "\u2581some": 6854, "\u2581somebody": 6855, "\u2581somehow": 6856, "\u2581someone": 6857, "\u2581something": 6858, "\u2581sometime": 6859, "\u2581sometimes": 6860, "\u2581somewhat": 6861, "\u2581somewhere": 6862, "\u2581son": 6863, "\u2581song": 6864, "\u2581songs": 6865, "\u2581sonic": 6866, "\u2581sonny": 6867, "\u2581sons": 6868, "\u2581soon": 6869, "\u2581sop": 6870, "\u2581sophisticated": 6871, "\u2581sor": 6872, "\u2581sort": 6873, "\u2581sorts": 6874, "\u2581sou": 6875, "\u2581soul": 6876, "\u2581sound": 6877, "\u2581sounded": 6878, "\u2581sounds": 6879, "\u2581soup": 6880, "\u2581sour": 6881, "\u2581source": 6882, "\u2581south": 6883, "\u2581southern": 6884, "\u2581southwest": 6885, "\u2581southwestern": 6886, "\u2581soy": 6887, "\u2581sp": 6888, "\u2581spa": 6889, "\u2581spac": 6890, "\u2581space": 6891, "\u2581spaces": 6892, "\u2581spanish": 6893, "\u2581spar": 6894, "\u2581spare": 6895, "\u2581spark": 6896, "\u2581speak": 6897, "\u2581speaker": 6898, "\u2581speakers": 6899, "\u2581speaking": 6900, "\u2581speaks": 6901, "\u2581special": 6902, "\u2581specialist": 6903, "\u2581specialists": 6904, "\u2581specialized": 6905, "\u2581specially": 6906, "\u2581specials": 6907, "\u2581specialty": 6908, "\u2581specific": 6909, "\u2581specifically": 6910, "\u2581spectacular": 6911, "\u2581spectrum": 6912, "\u2581speech": 6913, "\u2581speed": 6914, "\u2581spell": 6915, "\u2581spend": 6916, "\u2581spending": 6917, "\u2581spent": 6918, "\u2581spice": 6919, "\u2581spices": 6920, "\u2581spider": 6921, "\u2581spin": 6922, "\u2581spinning": 6923, "\u2581spirit": 6924, "\u2581spirits": 6925, "\u2581spiritual": 6926, "\u2581spit": 6927, "\u2581spite": 6928, "\u2581spl": 6929, "\u2581splend": 6930, "\u2581split": 6931, "\u2581splitting": 6932, "\u2581spo": 6933, "\u2581spoke": 6934, "\u2581spoken": 6935, "\u2581spoon": 6936, "\u2581sport": 6937, "\u2581sporting": 6938, "\u2581sports": 6939, "\u2581spot": 6940, "\u2581spots": 6941, "\u2581spotted": 6942, "\u2581spouse": 6943, "\u2581spr": 6944, "\u2581spray": 6945, "\u2581spread": 6946, "\u2581spring": 6947, "\u2581springs": 6948, "\u2581sprint": 6949, "\u2581sq": 6950, "\u2581squ": 6951, "\u2581squad": 6952, "\u2581square": 6953, "\u2581sque": 6954, "\u2581squir": 6955, "\u2581sr": 6956, "\u2581st": 6957, "\u2581stable": 6958, "\u2581stack": 6959, "\u2581stadium": 6960, "\u2581staff": 6961, "\u2581stage": 6962, "\u2581stain": 6963, "\u2581stained": 6964, "\u2581stairs": 6965, "\u2581stake": 6966, "\u2581stall": 6967, "\u2581stamp": 6968, "\u2581stan": 6969, "\u2581stand": 6970, "\u2581standard": 6971, "\u2581standards": 6972, "\u2581standing": 6973, "\u2581stands": 6974, "\u2581stap": 6975, "\u2581staple": 6976, "\u2581star": 6977, "\u2581stars": 6978, "\u2581start": 6979, "\u2581started": 6980, "\u2581starter": 6981, "\u2581starting": 6982, "\u2581starts": 6983, "\u2581state": 6984, "\u2581stated": 6985, "\u2581statement": 6986, "\u2581states": 6987, "\u2581stating": 6988, "\u2581station": 6989, "\u2581stationary": 6990, "\u2581stations": 6991, "\u2581statues": 6992, "\u2581status": 6993, "\u2581stay": 6994, "\u2581stayed": 6995, "\u2581staying": 6996, "\u2581stays": 6997, "\u2581ste": 6998, "\u2581steady": 6999, "\u2581steal": 7000, "\u2581stealing": 7001, "\u2581steam": 7002, "\u2581steamed": 7003, "\u2581steel": 7004, "\u2581steelers": 7005, "\u2581steep": 7006, "\u2581steering": 7007, "\u2581stellar": 7008, "\u2581sten": 7009, "\u2581step": 7010, "\u2581stephanie": 7011, "\u2581stephen": 7012, "\u2581stepped": 7013, "\u2581steps": 7014, "\u2581ster": 7015, "\u2581stereo": 7016, "\u2581steve": 7017, "\u2581steven": 7018, "\u2581stick": 7019, "\u2581sticks": 7020, "\u2581stiff": 7021, "\u2581still": 7022, "\u2581sting": 7023, "\u2581stir": 7024, "\u2581stock": 7025, "\u2581stole": 7026, "\u2581stolen": 7027, "\u2581stomach": 7028, "\u2581stone": 7029, "\u2581stones": 7030, "\u2581stood": 7031, "\u2581stop": 7032, "\u2581stopped": 7033, "\u2581stopping": 7034, "\u2581stops": 7035, "\u2581storage": 7036, "\u2581store": 7037, "\u2581stores": 7038, "\u2581stories": 7039, "\u2581storm": 7040, "\u2581story": 7041, "\u2581str": 7042, "\u2581stra": 7043, "\u2581straight": 7044, "\u2581straightforward": 7045, "\u2581stran": 7046, "\u2581stranded": 7047, "\u2581strange": 7048, "\u2581strat": 7049, "\u2581straw": 7050, "\u2581stream": 7051, "\u2581street": 7052, "\u2581streets": 7053, "\u2581strength": 7054, "\u2581stress": 7055, "\u2581stressed": 7056, "\u2581stretch": 7057, "\u2581stri": 7058, "\u2581strict": 7059, "\u2581strictly": 7060, "\u2581strike": 7061, "\u2581strikes": 7062, "\u2581string": 7063, "\u2581strings": 7064, "\u2581strip": 7065, "\u2581strips": 7066, "\u2581stro": 7067, "\u2581strong": 7068, "\u2581strongly": 7069, "\u2581struck": 7070, "\u2581structure": 7071, "\u2581struggle": 7072, "\u2581struggled": 7073, "\u2581struggling": 7074, "\u2581stuck": 7075, "\u2581student": 7076, "\u2581students": 7077, "\u2581studio": 7078, "\u2581study": 7079, "\u2581studying": 7080, "\u2581stuff": 7081, "\u2581stun": 7082, "\u2581stupid": 7083, "\u2581sty": 7084, "\u2581styl": 7085, "\u2581style": 7086, "\u2581styled": 7087, "\u2581styles": 7088, "\u2581styling": 7089, "\u2581su": 7090, "\u2581sub": 7091, "\u2581subl": 7092, "\u2581submitted": 7093, "\u2581subs": 7094, "\u2581substance": 7095, "\u2581substantial": 7096, "\u2581substit": 7097, "\u2581substitute": 7098, "\u2581substituted": 7099, "\u2581subtle": 7100, "\u2581subway": 7101, "\u2581suc": 7102, "\u2581success": 7103, "\u2581successful": 7104, "\u2581such": 7105, "\u2581sudden": 7106, "\u2581suddenly": 7107, "\u2581sue": 7108, "\u2581suff": 7109, "\u2581suffer": 7110, "\u2581suffered": 7111, "\u2581suffering": 7112, "\u2581sufficient": 7113, "\u2581sug": 7114, "\u2581sugar": 7115, "\u2581suggest": 7116, "\u2581suggested": 7117, "\u2581suggesting": 7118, "\u2581suggestion": 7119, "\u2581suggestions": 7120, "\u2581suicide": 7121, "\u2581suit": 7122, "\u2581suite": 7123, "\u2581suited": 7124, "\u2581suites": 7125, "\u2581suits": 7126, "\u2581sullivan": 7127, "\u2581sum": 7128, "\u2581summary": 7129, "\u2581summer": 7130, "\u2581sums": 7131, "\u2581sun": 7132, "\u2581sund": 7133, "\u2581sunday": 7134, "\u2581sundays": 7135, "\u2581sung": 7136, "\u2581sunny": 7137, "\u2581sunrise": 7138, "\u2581sunset": 7139, "\u2581sunshine": 7140, "\u2581sup": 7141, "\u2581super": 7142, "\u2581superior": 7143, "\u2581supermarket": 7144, "\u2581superstar": 7145, "\u2581supervisor": 7146, "\u2581supplies": 7147, "\u2581supply": 7148, "\u2581support": 7149, "\u2581supporting": 7150, "\u2581supportive": 7151, "\u2581suppose": 7152, "\u2581supposed": 7153, "\u2581supposedly": 7154, "\u2581suprem": 7155, "\u2581supreme": 7156, "\u2581sur": 7157, "\u2581sure": 7158, "\u2581surf": 7159, "\u2581surface": 7160, "\u2581surgeon": 7161, "\u2581surgery": 7162, "\u2581surpassed": 7163, "\u2581surprise": 7164, "\u2581surprised": 7165, "\u2581surprising": 7166, "\u2581surprisingly": 7167, "\u2581surreal": 7168, "\u2581surrounded": 7169, "\u2581surrounding": 7170, "\u2581surroundings": 7171, "\u2581survey": 7172, "\u2581survive": 7173, "\u2581survived": 7174, "\u2581sus": 7175, "\u2581susan": 7176, "\u2581suspect": 7177, "\u2581suspicious": 7178, "\u2581suz": 7179, "\u2581sw": 7180, "\u2581swap": 7181, "\u2581swe": 7182, "\u2581swear": 7183, "\u2581sweat": 7184, "\u2581sweet": 7185, "\u2581swift": 7186, "\u2581swim": 7187, "\u2581swimming": 7188, "\u2581swing": 7189, "\u2581swiss": 7190, "\u2581switch": 7191, "\u2581switched": 7192, "\u2581switching": 7193, "\u2581sword": 7194, "\u2581sy": 7195, "\u2581sympathetic": 7196, "\u2581symphony": 7197, "\u2581symptoms": 7198, "\u2581synthetic": 7199, "\u2581system": 7200, "\u2581systems": 7201, "\u2581t": 7202, "\u2581ta": 7203, "\u2581tab": 7204, "\u2581table": 7205, "\u2581tables": 7206, "\u2581tac": 7207, "\u2581tack": 7208, "\u2581tactics": 7209, "\u2581tad": 7210, "\u2581tag": 7211, "\u2581tai": 7212, "\u2581tail": 7213, "\u2581tails": 7214, "\u2581taiwanese": 7215, "\u2581taj": 7216, "\u2581take": 7217, "\u2581taken": 7218, "\u2581takes": 7219, "\u2581taking": 7220, "\u2581talent": 7221, "\u2581talented": 7222, "\u2581talk": 7223, "\u2581talked": 7224, "\u2581talking": 7225, "\u2581talks": 7226, "\u2581tall": 7227, "\u2581tam": 7228, "\u2581tan": 7229, "\u2581tand": 7230, "\u2581tang": 7231, "\u2581tank": 7232, "\u2581tanks": 7233, "\u2581tap": 7234, "\u2581tape": 7235, "\u2581tar": 7236, "\u2581tara": 7237, "\u2581target": 7238, "\u2581tart": 7239, "\u2581task": 7240, "\u2581tast": 7241, "\u2581taste": 7242, "\u2581tat": 7243, "\u2581tatt": 7244, "\u2581tattoo": 7245, "\u2581taught": 7246, "\u2581tavern": 7247, "\u2581tax": 7248, "\u2581taxes": 7249, "\u2581taxi": 7250, "\u2581taylor": 7251, "\u2581te": 7252, "\u2581tea": 7253, "\u2581teach": 7254, "\u2581teacher": 7255, "\u2581teachers": 7256, "\u2581teaching": 7257, "\u2581team": 7258, "\u2581teams": 7259, "\u2581tear": 7260, "\u2581tears": 7261, "\u2581tech": 7262, "\u2581techn": 7263, "\u2581technical": 7264, "\u2581technically": 7265, "\u2581technician": 7266, "\u2581technique": 7267, "\u2581techniques": 7268, "\u2581technology": 7269, "\u2581ted": 7270, "\u2581teenage": 7271, "\u2581teenagers": 7272, "\u2581teeth": 7273, "\u2581telephone": 7274, "\u2581telev": 7275, "\u2581television": 7276, "\u2581tell": 7277, "\u2581telling": 7278, "\u2581tells": 7279, "\u2581tem": 7280, "\u2581temp": 7281, "\u2581temperature": 7282, "\u2581temple": 7283, "\u2581temporary": 7284, "\u2581tempt": 7285, "\u2581ten": 7286, "\u2581tenant": 7287, "\u2581tenants": 7288, "\u2581tend": 7289, "\u2581tender": 7290, "\u2581tends": 7291, "\u2581tennis": 7292, "\u2581tent": 7293, "\u2581ter": 7294, "\u2581teresa": 7295, "\u2581term": 7296, "\u2581terminal": 7297, "\u2581terminals": 7298, "\u2581terms": 7299, "\u2581terrace": 7300, "\u2581terrible": 7301, "\u2581terry": 7302, "\u2581tess": 7303, "\u2581test": 7304, "\u2581testament": 7305, "\u2581tested": 7306, "\u2581testing": 7307, "\u2581tests": 7308, "\u2581tex": 7309, "\u2581texas": 7310, "\u2581text": 7311, "\u2581texture": 7312, "\u2581th": 7313, "\u2581thai": 7314, "\u2581thailand": 7315, "\u2581than": 7316, "\u2581thanks": 7317, "\u2581thanksgiving": 7318, "\u2581that": 7319, "\u2581the": 7320, "\u2581theater": 7321, "\u2581theaters": 7322, "\u2581theatre": 7323, "\u2581theft": 7324, "\u2581their": 7325, "\u2581them": 7326, "\u2581theme": 7327, "\u2581themed": 7328, "\u2581themselves": 7329, "\u2581then": 7330, "\u2581ther": 7331, "\u2581therap": 7332, "\u2581therapy": 7333, "\u2581there": 7334, "\u2581therefore": 7335, "\u2581theres": 7336, "\u2581theresa": 7337, "\u2581these": 7338, "\u2581they": 7339, "\u2581thick": 7340, "\u2581thieves": 7341, "\u2581thin": 7342, "\u2581thing": 7343, "\u2581things": 7344, "\u2581think": 7345, "\u2581thinking": 7346, "\u2581thinks": 7347, "\u2581thir": 7348, "\u2581third": 7349, "\u2581thirty": 7350, "\u2581this": 7351, "\u2581thomas": 7352, "\u2581thompson": 7353, "\u2581thorough": 7354, "\u2581thoroughly": 7355, "\u2581those": 7356, "\u2581though": 7357, "\u2581thought": 7358, "\u2581thoughts": 7359, "\u2581thousand": 7360, "\u2581thousands": 7361, "\u2581thr": 7362, "\u2581thread": 7363, "\u2581threatened": 7364, "\u2581three": 7365, "\u2581threw": 7366, "\u2581throat": 7367, "\u2581through": 7368, "\u2581throughout": 7369, "\u2581throw": 7370, "\u2581throwing": 7371, "\u2581thrown": 7372, "\u2581thumb": 7373, "\u2581thunder": 7374, "\u2581thurs": 7375, "\u2581thursday": 7376, "\u2581thus": 7377, "\u2581ticket": 7378, "\u2581tickets": 7379, "\u2581tie": 7380, "\u2581tier": 7381, "\u2581ties": 7382, "\u2581tiff": 7383, "\u2581tiger": 7384, "\u2581tight": 7385, "\u2581til": 7386, "\u2581tile": 7387, "\u2581tiles": 7388, "\u2581till": 7389, "\u2581tim": 7390, "\u2581time": 7391, "\u2581times": 7392, "\u2581timing": 7393, "\u2581tin": 7394, "\u2581tina": 7395, "\u2581tint": 7396, "\u2581tiny": 7397, "\u2581tip": 7398, "\u2581tips": 7399, "\u2581tir": 7400, "\u2581tire": 7401, "\u2581tired": 7402, "\u2581tires": 7403, "\u2581tissue": 7404, "\u2581title": 7405, "\u2581titles": 7406, "\u2581to": 7407, "\u2581tobacco": 7408, "\u2581today": 7409, "\u2581todd": 7410, "\u2581toe": 7411, "\u2581together": 7412, "\u2581toil": 7413, "\u2581toilet": 7414, "\u2581tokyo": 7415, "\u2581told": 7416, "\u2581toler": 7417, "\u2581tom": 7418, "\u2581tomatoes": 7419, "\u2581tommy": 7420, "\u2581tomorrow": 7421, "\u2581ton": 7422, "\u2581tone": 7423, "\u2581tongue": 7424, "\u2581tonight": 7425, "\u2581tons": 7426, "\u2581tony": 7427, "\u2581too": 7428, "\u2581took": 7429, "\u2581tool": 7430, "\u2581tools": 7431, "\u2581tooth": 7432, "\u2581top": 7433, "\u2581topped": 7434, "\u2581tops": 7435, "\u2581tor": 7436, "\u2581torn": 7437, "\u2581tornado": 7438, "\u2581tort": 7439, "\u2581torture": 7440, "\u2581toss": 7441, "\u2581total": 7442, "\u2581totally": 7443, "\u2581touch": 7444, "\u2581touched": 7445, "\u2581touches": 7446, "\u2581touching": 7447, "\u2581tough": 7448, "\u2581tour": 7449, "\u2581tourist": 7450, "\u2581tourists": 7451, "\u2581tournament": 7452, "\u2581tours": 7453, "\u2581tow": 7454, "\u2581toward": 7455, "\u2581towards": 7456, "\u2581towed": 7457, "\u2581tower": 7458, "\u2581town": 7459, "\u2581toy": 7460, "\u2581toyota": 7461, "\u2581toys": 7462, "\u2581tr": 7463, "\u2581tra": 7464, "\u2581track": 7465, "\u2581tracks": 7466, "\u2581tracy": 7467, "\u2581trade": 7468, "\u2581trader": 7469, "\u2581tradition": 7470, "\u2581traditional": 7471, "\u2581traffic": 7472, "\u2581trail": 7473, "\u2581trailer": 7474, "\u2581trails": 7475, "\u2581train": 7476, "\u2581trained": 7477, "\u2581trainer": 7478, "\u2581training": 7479, "\u2581trains": 7480, "\u2581tram": 7481, "\u2581tran": 7482, "\u2581trans": 7483, "\u2581transaction": 7484, "\u2581transfer": 7485, "\u2581transferred": 7486, "\u2581transformed": 7487, "\u2581transition": 7488, "\u2581transmission": 7489, "\u2581transportation": 7490, "\u2581trap": 7491, "\u2581trash": 7492, "\u2581travel": 7493, "\u2581traveled": 7494, "\u2581travelers": 7495, "\u2581traveling": 7496, "\u2581travels": 7497, "\u2581travis": 7498, "\u2581tre": 7499, "\u2581treasure": 7500, "\u2581treasures": 7501, "\u2581treat": 7502, "\u2581treated": 7503, "\u2581treating": 7504, "\u2581treatment": 7505, "\u2581treatments": 7506, "\u2581tree": 7507, "\u2581trees": 7508, "\u2581trek": 7509, "\u2581tremend": 7510, "\u2581tremendous": 7511, "\u2581tren": 7512, "\u2581trend": 7513, "\u2581tri": 7514, "\u2581tribute": 7515, "\u2581tric": 7516, "\u2581trick": 7517, "\u2581tricks": 7518, "\u2581tried": 7519, "\u2581tries": 7520, "\u2581trim": 7521, "\u2581trin": 7522, "\u2581trio": 7523, "\u2581trip": 7524, "\u2581triple": 7525, "\u2581trips": 7526, "\u2581triv": 7527, "\u2581tro": 7528, "\u2581trop": 7529, "\u2581tropical": 7530, "\u2581trouble": 7531, "\u2581trout": 7532, "\u2581troy": 7533, "\u2581tru": 7534, "\u2581truck": 7535, "\u2581trucks": 7536, "\u2581true": 7537, "\u2581truly": 7538, "\u2581trunk": 7539, "\u2581trust": 7540, "\u2581trusted": 7541, "\u2581truth": 7542, "\u2581try": 7543, "\u2581trying": 7544, "\u2581tub": 7545, "\u2581tube": 7546, "\u2581tucson": 7547, "\u2581tues": 7548, "\u2581tuesday": 7549, "\u2581tum": 7550, "\u2581tun": 7551, "\u2581tune": 7552, "\u2581tuned": 7553, "\u2581tunes": 7554, "\u2581turf": 7555, "\u2581turkey": 7556, "\u2581turkish": 7557, "\u2581turn": 7558, "\u2581turned": 7559, "\u2581turning": 7560, "\u2581turns": 7561, "\u2581turtle": 7562, "\u2581tuscan": 7563, "\u2581tv": 7564, "\u2581tw": 7565, "\u2581twelve": 7566, "\u2581twenty": 7567, "\u2581twice": 7568, "\u2581twin": 7569, "\u2581twist": 7570, "\u2581two": 7571, "\u2581ty": 7572, "\u2581tyler": 7573, "\u2581typ": 7574, "\u2581type": 7575, "\u2581types": 7576, "\u2581typical": 7577, "\u2581typically": 7578, "\u2581tz": 7579, "\u2581u": 7580, "\u2581ud": 7581, "\u2581ufc": 7582, "\u2581ug": 7583, "\u2581ult": 7584, "\u2581ultimate": 7585, "\u2581ultimately": 7586, "\u2581ultra": 7587, "\u2581um": 7588, "\u2581umb": 7589, "\u2581un": 7590, "\u2581unable": 7591, "\u2581uncle": 7592, "\u2581uncom": 7593, "\u2581und": 7594, "\u2581under": 7595, "\u2581underneath": 7596, "\u2581understand": 7597, "\u2581understanding": 7598, "\u2581understood": 7599, "\u2581unexpected": 7600, "\u2581unexpectedly": 7601, "\u2581unfair": 7602, "\u2581unfortun": 7603, "\u2581unfortunately": 7604, "\u2581unhappy": 7605, "\u2581uniform": 7606, "\u2581uniforms": 7607, "\u2581union": 7608, "\u2581unique": 7609, "\u2581uniquely": 7610, "\u2581unit": 7611, "\u2581united": 7612, "\u2581units": 7613, "\u2581university": 7614, "\u2581unknown": 7615, "\u2581unless": 7616, "\u2581unlike": 7617, "\u2581unlimited": 7618, "\u2581unnecessary": 7619, "\u2581unp": 7620, "\u2581unre": 7621, "\u2581unreliable": 7622, "\u2581uns": 7623, "\u2581until": 7624, "\u2581unusual": 7625, "\u2581unusually": 7626, "\u2581up": 7627, "\u2581upcoming": 7628, "\u2581upd": 7629, "\u2581update": 7630, "\u2581updated": 7631, "\u2581updates": 7632, "\u2581upgr": 7633, "\u2581upgrade": 7634, "\u2581upgraded": 7635, "\u2581upgrades": 7636, "\u2581upon": 7637, "\u2581upper": 7638, "\u2581ups": 7639, "\u2581upset": 7640, "\u2581ur": 7641, "\u2581urb": 7642, "\u2581urban": 7643, "\u2581urine": 7644, "\u2581us": 7645, "\u2581usa": 7646, "\u2581use": 7647, "\u2581used": 7648, "\u2581useful": 7649, "\u2581useless": 7650, "\u2581user": 7651, "\u2581uses": 7652, "\u2581using": 7653, "\u2581usual": 7654, "\u2581usually": 7655, "\u2581ut": 7656, "\u2581utilize": 7657, "\u2581utter": 7658, "\u2581v": 7659, "\u2581va": 7660, "\u2581vac": 7661, "\u2581vacation": 7662, "\u2581vacuum": 7663, "\u2581val": 7664, "\u2581valent": 7665, "\u2581valentine": 7666, "\u2581valid": 7667, "\u2581valle": 7668, "\u2581valley": 7669, "\u2581valuable": 7670, "\u2581value": 7671, "\u2581valued": 7672, "\u2581values": 7673, "\u2581van": 7674, "\u2581variations": 7675, "\u2581varied": 7676, "\u2581varies": 7677, "\u2581varieties": 7678, "\u2581variety": 7679, "\u2581various": 7680, "\u2581vary": 7681, "\u2581vast": 7682, "\u2581ve": 7683, "\u2581vegas": 7684, "\u2581veget": 7685, "\u2581vegetable": 7686, "\u2581vegetables": 7687, "\u2581vegetarian": 7688, "\u2581vehicle": 7689, "\u2581vehicles": 7690, "\u2581velvet": 7691, "\u2581vend": 7692, "\u2581vendors": 7693, "\u2581venez": 7694, "\u2581vent": 7695, "\u2581ventilation": 7696, "\u2581venture": 7697, "\u2581venue": 7698, "\u2581venues": 7699, "\u2581ver": 7700, "\u2581vera": 7701, "\u2581verde": 7702, "\u2581verdict": 7703, "\u2581vers": 7704, "\u2581version": 7705, "\u2581versions": 7706, "\u2581versus": 7707, "\u2581very": 7708, "\u2581vet": 7709, "\u2581veter": 7710, "\u2581veteran": 7711, "\u2581veterans": 7712, "\u2581veterinary": 7713, "\u2581via": 7714, "\u2581vib": 7715, "\u2581vick": 7716, "\u2581victor": 7717, "\u2581victoria": 7718, "\u2581video": 7719, "\u2581videos": 7720, "\u2581viet": 7721, "\u2581vietnamese": 7722, "\u2581view": 7723, "\u2581viewing": 7724, "\u2581views": 7725, "\u2581villa": 7726, "\u2581village": 7727, "\u2581vince": 7728, "\u2581vincent": 7729, "\u2581vind": 7730, "\u2581vine": 7731, "\u2581vintage": 7732, "\u2581vinyl": 7733, "\u2581vip": 7734, "\u2581virginia": 7735, "\u2581virtually": 7736, "\u2581visa": 7737, "\u2581visible": 7738, "\u2581vision": 7739, "\u2581visit": 7740, "\u2581visited": 7741, "\u2581visiting": 7742, "\u2581visitor": 7743, "\u2581visitors": 7744, "\u2581visits": 7745, "\u2581vista": 7746, "\u2581visual": 7747, "\u2581visually": 7748, "\u2581vit": 7749, "\u2581viv": 7750, "\u2581vo": 7751, "\u2581vod": 7752, "\u2581voice": 7753, "\u2581void": 7754, "\u2581volcano": 7755, "\u2581volkswagen": 7756, "\u2581volleyball": 7757, "\u2581volume": 7758, "\u2581volumes": 7759, "\u2581volunteer": 7760, "\u2581volunteers": 7761, "\u2581vom": 7762, "\u2581vote": 7763, "\u2581voted": 7764, "\u2581vs": 7765, "\u2581w": 7766, "\u2581wa": 7767, "\u2581wah": 7768, "\u2581waist": 7769, "\u2581wait": 7770, "\u2581waiting": 7771, "\u2581wake": 7772, "\u2581wal": 7773, "\u2581walk": 7774, "\u2581walked": 7775, "\u2581walker": 7776, "\u2581walking": 7777, "\u2581walks": 7778, "\u2581wall": 7779, "\u2581walls": 7780, "\u2581wally": 7781, "\u2581walnut": 7782, "\u2581walter": 7783, "\u2581wan": 7784, "\u2581wand": 7785, "\u2581wander": 7786, "\u2581want": 7787, "\u2581wanted": 7788, "\u2581wanting": 7789, "\u2581wants": 7790, "\u2581war": 7791, "\u2581ward": 7792, "\u2581warehouse": 7793, "\u2581warm": 7794, "\u2581warmer": 7795, "\u2581warming": 7796, "\u2581warn": 7797, "\u2581warned": 7798, "\u2581warner": 7799, "\u2581warning": 7800, "\u2581warrant": 7801, "\u2581was": 7802, "\u2581wash": 7803, "\u2581washed": 7804, "\u2581washing": 7805, "\u2581washington": 7806, "\u2581waste": 7807, "\u2581watch": 7808, "\u2581watched": 7809, "\u2581watches": 7810, "\u2581watching": 7811, "\u2581water": 7812, "\u2581waterfront": 7813, "\u2581waters": 7814, "\u2581wave": 7815, "\u2581wax": 7816, "\u2581way": 7817, "\u2581wayne": 7818, "\u2581ways": 7819, "\u2581we": 7820, "\u2581weak": 7821, "\u2581wealth": 7822, "\u2581wear": 7823, "\u2581wearing": 7824, "\u2581wears": 7825, "\u2581weather": 7826, "\u2581web": 7827, "\u2581website": 7828, "\u2581wed": 7829, "\u2581wedding": 7830, "\u2581wedge": 7831, "\u2581wednes": 7832, "\u2581wednesday": 7833, "\u2581wee": 7834, "\u2581week": 7835, "\u2581weekday": 7836, "\u2581weekdays": 7837, "\u2581weekend": 7838, "\u2581weekends": 7839, "\u2581weekly": 7840, "\u2581weeks": 7841, "\u2581wei": 7842, "\u2581weight": 7843, "\u2581weights": 7844, "\u2581weiss": 7845, "\u2581wel": 7846, "\u2581welcome": 7847, "\u2581welcomed": 7848, "\u2581well": 7849, "\u2581wells": 7850, "\u2581wendy": 7851, "\u2581went": 7852, "\u2581wer": 7853, "\u2581were": 7854, "\u2581wes": 7855, "\u2581west": 7856, "\u2581western": 7857, "\u2581wet": 7858, "\u2581wh": 7859, "\u2581what": 7860, "\u2581whatever": 7861, "\u2581wheat": 7862, "\u2581wheel": 7863, "\u2581wheelchair": 7864, "\u2581wheels": 7865, "\u2581when": 7866, "\u2581whenever": 7867, "\u2581where": 7868, "\u2581wherever": 7869, "\u2581whether": 7870, "\u2581which": 7871, "\u2581while": 7872, "\u2581whip": 7873, "\u2581whis": 7874, "\u2581white": 7875, "\u2581whites": 7876, "\u2581who": 7877, "\u2581whole": 7878, "\u2581wholes": 7879, "\u2581whom": 7880, "\u2581whose": 7881, "\u2581why": 7882, "\u2581wi": 7883, "\u2581wick": 7884, "\u2581wicked": 7885, "\u2581wide": 7886, "\u2581widow": 7887, "\u2581wife": 7888, "\u2581wig": 7889, "\u2581wil": 7890, "\u2581wild": 7891, "\u2581wildlife": 7892, "\u2581will": 7893, "\u2581william": 7894, "\u2581williams": 7895, "\u2581willing": 7896, "\u2581willingness": 7897, "\u2581wilson": 7898, "\u2581win": 7899, "\u2581wind": 7900, "\u2581window": 7901, "\u2581windows": 7902, "\u2581wine": 7903, "\u2581wines": 7904, "\u2581wing": 7905, "\u2581wings": 7906, "\u2581winner": 7907, "\u2581winners": 7908, "\u2581winning": 7909, "\u2581wins": 7910, "\u2581winter": 7911, "\u2581wip": 7912, "\u2581wireless": 7913, "\u2581wisconsin": 7914, "\u2581wisdom": 7915, "\u2581wise": 7916, "\u2581wish": 7917, "\u2581wished": 7918, "\u2581wishes": 7919, "\u2581wishing": 7920, "\u2581wit": 7921, "\u2581with": 7922, "\u2581within": 7923, "\u2581without": 7924, "\u2581witnessed": 7925, "\u2581wo": 7926, "\u2581woman": 7927, "\u2581women": 7928, "\u2581won": 7929, "\u2581wonder": 7930, "\u2581wonderful": 7931, "\u2581wonders": 7932, "\u2581wong": 7933, "\u2581woo": 7934, "\u2581wood": 7935, "\u2581wooden": 7936, "\u2581woods": 7937, "\u2581wor": 7938, "\u2581word": 7939, "\u2581words": 7940, "\u2581wore": 7941, "\u2581work": 7942, "\u2581worked": 7943, "\u2581worker": 7944, "\u2581workers": 7945, "\u2581working": 7946, "\u2581works": 7947, "\u2581world": 7948, "\u2581worlds": 7949, "\u2581worn": 7950, "\u2581worried": 7951, "\u2581worse": 7952, "\u2581worship": 7953, "\u2581worst": 7954, "\u2581worth": 7955, "\u2581worthy": 7956, "\u2581would": 7957, "\u2581wound": 7958, "\u2581wrap": 7959, "\u2581wrapped": 7960, "\u2581wreck": 7961, "\u2581wright": 7962, "\u2581write": 7963, "\u2581writing": 7964, "\u2581written": 7965, "\u2581wrong": 7966, "\u2581wrote": 7967, "\u2581wyn": 7968, "\u2581x": 7969, "\u2581y": 7970, "\u2581ya": 7971, "\u2581yah": 7972, "\u2581yak": 7973, "\u2581yard": 7974, "\u2581yards": 7975, "\u2581ye": 7976, "\u2581year": 7977, "\u2581yearly": 7978, "\u2581years": 7979, "\u2581yellow": 7980, "\u2581yes": 7981, "\u2581yet": 7982, "\u2581yo": 7983, "\u2581yog": 7984, "\u2581yoga": 7985, "\u2581york": 7986, "\u2581yorker": 7987, "\u2581you": 7988, "\u2581young": 7989, "\u2581younger": 7990, "\u2581youngest": 7991, "\u2581your": 7992, "\u2581yourself": 7993, "\u2581yuk": 7994, "\u2581z": 7995, "\u2581zach": 7996, "\u2581zen": 7997, "\u2581zero": 7998, "\u2581zinc": 7999, "\u2581zip": 8000, "\u2581zombie": 8001, "\u2581zone": 8002, "\u2581zoo": 8003}